{
  "version": "1.0",
  "truncation": {
    "direction": "Right",
    "max_length": 512,
    "strategy": "LongestFirst",
    "stride": 0
  },
  "padding": {
    "strategy": "BatchLongest",
    "direction": "Right",
    "pad_to_multiple_of": null,
    "pad_id": 0,
    "pad_type_id": 0,
    "pad_token": "[PAD]"
  },
  "added_tokens": [
    {
      "id": 0,
      "content": "[PAD]",
      "single_word": false,
      "lstrip": false,
      "rstrip": false,
      "normalized": false,
      "special": true
    },
    {
      "id": 1,
      "content": "[UNK]",
      "single_word": false,
      "lstrip": false,
      "rstrip": false,
      "normalized": false,
      "special": true
    },
    {
      "id": 2,
      "content": "[SOS]",
      "single_word": false,
      "lstrip": false,
      "rstrip": false,
      "normalized": false,
      "special": true
    },
    {
      "id": 3,
      "content": "[EOS]",
      "single_word": false,
      "lstrip": false,
      "rstrip": false,
      "normalized": false,
      "special": true
    }
  ],
  "normalizer": {
    "type": "Sequence",
    "normalizers": [
      {
        "type": "NFD"
      },
      {
        "type": "Lowercase"
      },
      {
        "type": "StripAccents"
      }
    ]
  },
  "pre_tokenizer": {
    "type": "Whitespace"
  },
  "post_processor": {
    "type": "TemplateProcessing",
    "single": [
      {
        "SpecialToken": {
          "id": "[SOS]",
          "type_id": 0
        }
      },
      {
        "Sequence": {
          "id": "A",
          "type_id": 0
        }
      },
      {
        "SpecialToken": {
          "id": "[EOS]",
          "type_id": 0
        }
      }
    ],
    "pair": [
      {
        "Sequence": {
          "id": "A",
          "type_id": 0
        }
      },
      {
        "Sequence": {
          "id": "B",
          "type_id": 1
        }
      }
    ],
    "special_tokens": {
      "[EOS]": {
        "id": "[EOS]",
        "ids": [
          3
        ],
        "tokens": [
          "[EOS]"
        ]
      },
      "[SOS]": {
        "id": "[SOS]",
        "ids": [
          2
        ],
        "tokens": [
          "[SOS]"
        ]
      }
    }
  },
  "decoder": null,
  "model": {
    "type": "BPE",
    "dropout": null,
    "unk_token": "[UNK]",
    "continuing_subword_prefix": null,
    "end_of_word_suffix": null,
    "fuse_unk": false,
    "byte_fallback": false,
    "ignore_merges": false,
    "vocab": {
      "[PAD]": 0,
      "[UNK]": 1,
      "[SOS]": 2,
      "[EOS]": 3,
      "!": 4,
      "\"": 5,
      "#": 6,
      "$": 7,
      "%": 8,
      "&": 9,
      "'": 10,
      "(": 11,
      ")": 12,
      ",": 13,
      "-": 14,
      ".": 15,
      "0": 16,
      "1": 17,
      "2": 18,
      "3": 19,
      "4": 20,
      "5": 21,
      "6": 22,
      "7": 23,
      "8": 24,
      "9": 25,
      ":": 26,
      ";": 27,
      "=": 28,
      "?": 29,
      "`": 30,
      "a": 31,
      "b": 32,
      "c": 33,
      "d": 34,
      "e": 35,
      "f": 36,
      "g": 37,
      "h": 38,
      "i": 39,
      "j": 40,
      "k": 41,
      "l": 42,
      "m": 43,
      "n": 44,
      "o": 45,
      "p": 46,
      "q": 47,
      "r": 48,
      "s": 49,
      "t": 50,
      "u": 51,
      "v": 52,
      "w": 53,
      "x": 54,
      "y": 55,
      "z": 56,
      "in": 57,
      "an": 58,
      "ing": 59,
      "th": 60,
      "re": 61,
      "er": 62,
      "on": 63,
      "le": 64,
      "the": 65,
      "man": 66,
      "ar": 67,
      "hi": 68,
      "ou": 69,
      "and": 70,
      "at": 71,
      "st": 72,
      "wo": 73,
      "al": 74,
      "is": 75,
      "la": 76,
      "en": 77,
      "of": 78,
      "it": 79,
      "wi": 80,
      "ow": 81,
      "ck": 82,
      "with": 83,
      "to": 84,
      "ld": 85,
      "or": 86,
      "ir": 87,
      "es": 88,
      "ch": 89,
      "et": 90,
      "op": 91,
      "id": 92,
      "oun": 93,
      "are": 94,
      "whi": 95,
      "pe": 96,
      "bo": 97,
      "as": 98,
      "king": 99,
      "gr": 100,
      "woman": 101,
      "two": 102,
      "ear": 103,
      "te": 104,
      "oo": 105,
      "pla": 106,
      "all": 107,
      "men": 108,
      "ed": 109,
      "ic": 110,
      "do": 111,
      "ople": 112,
      "people": 113,
      "play": 114,
      "ro": 115,
      "ho": 116,
      "ers": 117,
      "un": 118,
      "ge": 119,
      "ting": 120,
      "ts": 121,
      "shi": 122,
      "bl": 123,
      "ss": 124,
      "wal": 125,
      "wear": 126,
      "red": 127,
      "shir": 128,
      "sit": 129,
      "wearing": 130,
      "stand": 131,
      "el": 132,
      "ad": 133,
      "shirt": 134,
      "own": 135,
      "ra": 136,
      "ide": 137,
      "oung": 138,
      "young": 139,
      "gh": 140,
      "white": 141,
      "me": 142,
      "irl": 143,
      "girl": 144,
      "boy": 145,
      "be": 146,
      "sh": 147,
      "ue": 148,
      "dog": 149,
      "bla": 150,
      "one": 151,
      "black": 152,
      "ri": 153,
      "lding": 154,
      "his": 155,
      "co": 156,
      "ack": 157,
      "while": 158,
      "ce": 159,
      "for": 160,
      "ther": 161,
      "wat": 162,
      "oup": 163,
      "blue": 164,
      "mp": 165,
      "se": 166,
      "ta": 167,
      "ur": 168,
      "so": 169,
      "ver": 170,
      "sitting": 171,
      "chi": 172,
      "ball": 173,
      "loo": 174,
      "air": 175,
      "ound": 176,
      "child": 177,
      "fr": 178,
      "il": 179,
      "li": 180,
      "stre": 181,
      "standing": 182,
      "playing": 183,
      "group": 184,
      "bu": 185,
      "ve": 186,
      "am": 187,
      "lo": 188,
      "ard": 189,
      "street": 190,
      "by": 191,
      "down": 192,
      "out": 193,
      "ree": 194,
      "her": 195,
      "walking": 196,
      "sm": 197,
      "ont": 198,
      "ay": 199,
      "walk": 200,
      "br": 201,
      "ti": 202,
      "front": 203,
      "up": 204,
      "other": 205,
      "ma": 206,
      "holding": 207,
      "car": 208,
      "po": 209,
      "ke": 210,
      "ap": 211,
      "fi": 212,
      "ne": 213,
      "ell": 214,
      "ress": 215,
      "water": 216,
      "some": 217,
      "he": 218,
      "ju": 219,
      "tle": 220,
      "ul": 221,
      "dress": 222,
      "side": 223,
      "wor": 224,
      "run": 225,
      "three": 226,
      "ach": 227,
      "ying": 228,
      "par": 229,
      "thr": 230,
      "lit": 231,
      "gre": 232,
      "back": 233,
      "ind": 234,
      "women": 235,
      "hat": 236,
      "ru": 237,
      "sk": 238,
      "looking": 239,
      "uit": 240,
      "green": 241,
      "jump": 242,
      "lar": 243,
      "little": 244,
      "bi": 245,
      "ga": 246,
      "ren": 247,
      "form": 248,
      "ght": 249,
      "outs": 250,
      "ass": 251,
      "rid": 252,
      "ble": 253,
      "outside": 254,
      "cle": 255,
      "ough": 256,
      "sn": 257,
      "fe": 258,
      "ground": 259,
      "large": 260,
      "pa": 261,
      "ks": 262,
      "cr": 263,
      "old": 264,
      "sing": 265,
      "through": 266,
      "ba": 267,
      "ong": 268,
      "brown": 269,
      "yell": 270,
      "con": 271,
      "snow": 272,
      "pers": 273,
      "yellow": 274,
      "children": 275,
      "person": 276,
      "over": 277,
      "eld": 278,
      "fro": 279,
      "board": 280,
      "lass": 281,
      "mb": 282,
      "tu": 283,
      "from": 284,
      "ter": 285,
      "their": 286,
      "ian": 287,
      "di": 288,
      "into": 289,
      "ly": 290,
      "foo": 291,
      "hand": 292,
      "ning": 293,
      "watch": 294,
      "xt": 295,
      "small": 296,
      "thing": 297,
      "bui": 298,
      "tra": 299,
      "ink": 300,
      "building": 301,
      "ac": 302,
      "mo": 303,
      "ate": 304,
      "next": 305,
      "owd": 306,
      "our": 307,
      "crowd": 308,
      "near": 309,
      "jack": 310,
      "dressed": 311,
      "ion": 312,
      "ll": 313,
      "jacket": 314,
      "dy": 315,
      "glass": 316,
      "grass": 317,
      "male": 318,
      "ving": 319,
      "wa": 320,
      "sc": 321,
      "riding": 322,
      "ange": 323,
      "running": 324,
      "bas": 325,
      "ha": 326,
      "ture": 327,
      "off": 328,
      "sw": 329,
      "work": 330,
      "cli": 331,
      "another": 332,
      "around": 333,
      "sta": 334,
      "amer": 335,
      "ep": 336,
      "field": 337,
      "tr": 338,
      "cer": 339,
      "ycle": 340,
      "table": 341,
      "per": 342,
      "eat": 343,
      "clo": 344,
      "sidewalk": 345,
      "tal": 346,
      "top": 347,
      "ket": 348,
      "sp": 349,
      "read": 350,
      "orange": 351,
      "glasses": 352,
      "ity": 353,
      "beach": 354,
      "head": 355,
      "ore": 356,
      "ine": 357,
      "hone": 358,
      "ig": 359,
      "ross": 360,
      "way": 361,
      "hair": 362,
      "hind": 363,
      "je": 364,
      "stands": 365,
      "pink": 366,
      "sun": 367,
      "sits": 368,
      "jumping": 369,
      "behind": 370,
      "stru": 371,
      "gu": 372,
      "ful": 373,
      "ice": 374,
      "iling": 375,
      "go": 376,
      "pu": 377,
      "pic": 378,
      "park": 379,
      "der": 380,
      "tain": 381,
      "bike": 382,
      "mar": 383,
      "door": 384,
      "ick": 385,
      "background": 386,
      "fa": 387,
      "de": 388,
      "asian": 389,
      "ond": 390,
      "city": 391,
      "us": 392,
      "ment": 393,
      "ten": 394,
      "wall": 395,
      "rock": 396,
      "girls": 397,
      "ms": 398,
      "bic": 399,
      "od": 400,
      "dan": 401,
      "player": 402,
      "ans": 403,
      "picture": 404,
      "fl": 405,
      "perform": 406,
      "sur": 407,
      "looks": 408,
      "dle": 409,
      "ben": 410,
      "camer": 411,
      "ool": 412,
      "met": 413,
      "ves": 414,
      "tion": 415,
      "dogs": 416,
      "four": 417,
      "shor": 418,
      "guit": 419,
      "guitar": 420,
      "rop": 421,
      "that": 422,
      "veral": 423,
      "camera": 424,
      "several": 425,
      "ped": 426,
      "older": 427,
      "wood": 428,
      "mid": 429,
      "suit": 430,
      "get": 431,
      "ie": 432,
      "ountain": 433,
      "irt": 434,
      "soc": 435,
      "stu": 436,
      "hold": 437,
      "ca": 438,
      "talking": 439,
      "sho": 440,
      "tor": 441,
      "something": 442,
      "lady": 443,
      "cing": 444,
      "blond": 445,
      "ff": 446,
      "boys": 447,
      "ling": 448,
      "pan": 449,
      "oom": 450,
      "soccer": 451,
      "col": 452,
      "food": 453,
      "along": 454,
      "road": 455,
      "walks": 456,
      "guy": 457,
      "bri": 458,
      "ish": 459,
      "bus": 460,
      "working": 461,
      "ct": 462,
      "hel": 463,
      "skate": 464,
      "jo": 465,
      "toge": 466,
      "together": 467,
      "gray": 468,
      "gg": 469,
      "hor": 470,
      "smiling": 471,
      "end": 472,
      "uni": 473,
      "les": 474,
      "che": 475,
      "bicycle": 476,
      "kid": 477,
      "kes": 478,
      "ign": 479,
      "dr": 480,
      "ey": 481,
      "plays": 482,
      "game": 483,
      "has": 484,
      "ant": 485,
      "stri": 486,
      "comp": 487,
      "boo": 488,
      "bench": 489,
      "pre": 490,
      "qu": 491,
      "uniform": 492,
      "its": 493,
      "sand": 494,
      "led": 495,
      "swi": 496,
      "holds": 497,
      "ation": 498,
      "foot": 499,
      "skateboard": 500,
      "face": 501,
      "ction": 502,
      "atch": 503,
      "carr": 504,
      "pants": 505,
      "climb": 506,
      "cu": 507,
      "him": 508,
      "chair": 509,
      "coup": 510,
      "mm": 511,
      "sa": 512,
      "spe": 513,
      "pain": 514,
      "room": 515,
      "dirt": 516,
      "under": 517,
      "shorts": 518,
      "stage": 519,
      "pur": 520,
      "ping": 521,
      "umb": 522,
      "boat": 523,
      "carrying": 524,
      "baby": 525,
      "couple": 526,
      "ent": 527,
      "pl": 528,
      "band": 529,
      "ol": 530,
      "them": 531,
      "female": 532,
      "gs": 533,
      "set": 534,
      "base": 535,
      "race": 536,
      "tan": 537,
      "tri": 538,
      "outdoor": 539,
      "tree": 540,
      "look": 541,
      "day": 542,
      "shop": 543,
      "dar": 544,
      "mic": 545,
      "ple": 546,
      "mountain": 547,
      "pro": 548,
      "long": 549,
      "coat": 550,
      "pool": 551,
      "basket": 552,
      "taking": 553,
      "owing": 554,
      "phone": 555,
      "sign": 556,
      "dark": 557,
      "each": 558,
      "tow": 559,
      "middle": 560,
      "ted": 561,
      "bar": 562,
      "doing": 563,
      "cor": 564,
      "pho": 565,
      "ty": 566,
      "photo": 567,
      "team": 568,
      "watching": 569,
      "across": 570,
      "there": 571,
      "iting": 572,
      "ican": 573,
      "au": 574,
      "jeans": 575,
      "area": 576,
      "outh": 577,
      "who": 578,
      "store": 579,
      "fore": 580,
      "jumps": 581,
      "mus": 582,
      "we": 583,
      "hands": 584,
      "cross": 585,
      "sl": 586,
      "su": 587,
      "helmet": 588,
      "horse": 589,
      "ex": 590,
      "flo": 591,
      "ence": 592,
      "ni": 593,
      "wind": 594,
      "toy": 595,
      "sts": 596,
      "performing": 597,
      "roll": 598,
      "swing": 599,
      "eating": 600,
      "music": 601,
      "baseball": 602,
      "motor": 603,
      "color": 604,
      "being": 605,
      "sweat": 606,
      "striped": 607,
      "football": 608,
      "uring": 609,
      "ag": 610,
      "cre": 611,
      "using": 612,
      "whe": 613,
      "mouth": 614,
      "ses": 615,
      "rel": 616,
      "kids": 617,
      "ab": 618,
      "cl": 619,
      "many": 620,
      "ding": 621,
      "ired": 622,
      "sle": 623,
      "adul": 624,
      "itch": 625,
      "purple": 626,
      "microp": 627,
      "pi": 628,
      "light": 629,
      "constru": 630,
      "hu": 631,
      "cks": 632,
      "ating": 633,
      "surf": 634,
      "fla": 635,
      "this": 636,
      "can": 637,
      "haired": 638,
      "toward": 639,
      "fire": 640,
      "nis": 641,
      "enjo": 642,
      "train": 643,
      "ob": 644,
      "arm": 645,
      "ess": 646,
      "posing": 647,
      "aper": 648,
      "runs": 649,
      "tennis": 650,
      "window": 651,
      "na": 652,
      "reading": 653,
      "players": 654,
      "sunglasses": 655,
      "construction": 656,
      "tru": 657,
      "um": 658,
      "ner": 659,
      "swimm": 660,
      "dri": 661,
      "clothing": 662,
      "bow": 663,
      "stick": 664,
      "basketball": 665,
      "microphone": 666,
      "ash": 667,
      "cean": 668,
      "vered": 669,
      "past": 670,
      "flow": 671,
      "fish": 672,
      "ocean": 673,
      "des": 674,
      "tre": 675,
      "ade": 676,
      "she": 677,
      "covered": 678,
      "elder": 679,
      "catch": 680,
      "during": 681,
      "pass": 682,
      "tting": 683,
      "inst": 684,
      "workers": 685,
      "motorc": 686,
      "no": 687,
      "ouch": 688,
      "watches": 689,
      "bright": 690,
      "climbing": 691,
      "resta": 692,
      "bag": 693,
      "dancing": 694,
      "restaur": 695,
      "aga": 696,
      "ill": 697,
      "bal": 698,
      "cap": 699,
      "mu": 700,
      "hill": 701,
      "elderly": 702,
      "restaurant": 703,
      "round": 704,
      "vel": 705,
      "high": 706,
      "outf": 707,
      "against": 708,
      "pack": 709,
      "si": 710,
      "ley": 711,
      "smi": 712,
      "ath": 713,
      "ated": 714,
      "shirts": 715,
      "new": 716,
      "umbrel": 717,
      "umbrella": 718,
      "open": 719,
      "ev": 720,
      "ft": 721,
      "ski": 722,
      "rides": 723,
      "market": 724,
      "du": 725,
      "vers": 726,
      "they": 727,
      "very": 728,
      "about": 729,
      "bear": 730,
      "ang": 731,
      "lored": 732,
      "ak": 733,
      "wooden": 734,
      "trees": 735,
      "instru": 736,
      "five": 737,
      "waiting": 738,
      "having": 739,
      "book": 740,
      "floor": 741,
      "colorful": 742,
      "ouse": 743,
      "thers": 744,
      "drin": 745,
      "swimming": 746,
      "getting": 747,
      "lea": 748,
      "costu": 749,
      "line": 750,
      "truck": 751,
      "pul": 752,
      "pol": 753,
      "trying": 754,
      "motorcycle": 755,
      "aning": 756,
      "sha": 757,
      "ily": 758,
      "cart": 759,
      "shing": 760,
      "night": 761,
      "rest": 762,
      "cell": 763,
      "dis": 764,
      "ous": 765,
      "age": 766,
      "bes": 767,
      "ycli": 768,
      "busy": 769,
      "fence": 770,
      "ows": 771,
      "singing": 772,
      "cket": 773,
      "ride": 774,
      "gi": 775,
      "pie": 776,
      "beard": 777,
      "stair": 778,
      "body": 779,
      "eps": 780,
      "ance": 781,
      "mach": 782,
      "path": 783,
      "less": 784,
      "compet": 785,
      "clothe": 786,
      "ler": 787,
      "laying": 788,
      "hats": 789,
      "kitch": 790,
      "kitchen": 791,
      "track": 792,
      "ip": 793,
      "paper": 794,
      "inside": 795,
      "stic": 796,
      "bik": 797,
      "kick": 798,
      "others": 799,
      "tur": 800,
      "ons": 801,
      "cour": 802,
      "grassy": 803,
      "eping": 804,
      "surround": 805,
      "gging": 806,
      "cellphone": 807,
      "ser": 808,
      "lau": 809,
      "making": 810,
      "someone": 811,
      "big": 812,
      "brick": 813,
      "aff": 814,
      "fac": 815,
      "ort": 816,
      "river": 817,
      "ny": 818,
      "vie": 819,
      "grap": 820,
      "backpack": 821,
      "clothes": 822,
      "als": 823,
      "takes": 824,
      "ban": 825,
      "sell": 826,
      "ject": 827,
      "metal": 828,
      "outfit": 829,
      "coun": 830,
      "im": 831,
      "rain": 832,
      "full": 833,
      "towards": 834,
      "laugh": 835,
      "stone": 836,
      "ckey": 837,
      "enjoying": 838,
      "fli": 839,
      "star": 840,
      "vest": 841,
      "ces": 842,
      "mas": 843,
      "tic": 844,
      "iti": 845,
      "box": 846,
      "colored": 847,
      "police": 848,
      "dd": 849,
      "pare": 850,
      "cow": 851,
      "hard": 852,
      "ready": 853,
      "sub": 854,
      "wheel": 855,
      "ope": 856,
      "raw": 857,
      "tank": 858,
      "piece": 859,
      "lap": 860,
      "house": 861,
      "afr": 862,
      "vol": 863,
      "ines": 864,
      "inter": 865,
      "ates": 866,
      "ster": 867,
      "photograp": 868,
      "ition": 869,
      "ors": 870,
      "unch": 871,
      "painting": 872,
      "dru": 873,
      "gy": 874,
      "hang": 875,
      "ring": 876,
      "ite": 877,
      "teen": 878,
      "view": 879,
      "abo": 880,
      "ood": 881,
      "brid": 882,
      "tire": 883,
      "worker": 884,
      "sweater": 885,
      "fri": 886,
      "lec": 887,
      "lake": 888,
      "trick": 889,
      "above": 890,
      "af": 891,
      "cal": 892,
      "gen": 893,
      "bles": 894,
      "african": 895,
      "thered": 896,
      "american": 897,
      "going": 898,
      "roller": 899,
      "adults": 900,
      "class": 901,
      "kne": 902,
      "mer": 903,
      "chas": 904,
      "onto": 905,
      "ird": 906,
      "bot": 907,
      "temp": 908,
      "snowy": 909,
      "snowboard": 910,
      "dance": 911,
      "coo": 912,
      "todd": 913,
      "wave": 914,
      "shopping": 915,
      "surrounded": 916,
      "fo": 917,
      "ones": 918,
      "uniforms": 919,
      "friend": 920,
      "fam": 921,
      "sto": 922,
      "like": 923,
      "gather": 924,
      "crowded": 925,
      "outdoors": 926,
      "gear": 927,
      "poin": 928,
      "pra": 929,
      "smiles": 930,
      "beside": 931,
      "pole": 932,
      "convers": 933,
      "mon": 934,
      "cur": 935,
      "hockey": 936,
      "app": 937,
      "plan": 938,
      "drinking": 939,
      "subway": 940,
      "after": 941,
      "den": 942,
      "yard": 943,
      "lot": 944,
      "shoes": 945,
      "family": 946,
      "mes": 947,
      "art": 948,
      "ments": 949,
      "beau": 950,
      "flowers": 951,
      "bridge": 952,
      "cas": 953,
      "fall": 954,
      "iv": 955,
      "scar": 956,
      "prepar": 957,
      "toddler": 958,
      "fountain": 959,
      "arms": 960,
      "tiful": 961,
      "gathered": 962,
      "guys": 963,
      "event": 964,
      "gym": 965,
      "beautiful": 966,
      "fil": 967,
      "hanging": 968,
      "away": 969,
      "ary": 970,
      "smo": 971,
      "prepare": 972,
      "leap": 973,
      "ould": 974,
      "graff": 975,
      "carri": 976,
      "preparing": 977,
      "mat": 978,
      "pr": 979,
      "xing": 980,
      "pear": 981,
      "racing": 982,
      "ballo": 983,
      "rope": 984,
      "ph": 985,
      "leaning": 986,
      "steps": 987,
      "ening": 988,
      "rap": 989,
      "take": 990,
      "offic": 991,
      "compu": 992,
      "sleeping": 993,
      "object": 994,
      "costume": 995,
      "attemp": 996,
      "make": 997,
      "short": 998,
      "forest": 999,
      "fishing": 1000,
      "graffiti": 1001,
      "does": 1002,
      "appear": 1003,
      "trail": 1004,
      "machine": 1005,
      "bat": 1006,
      "kis": 1007,
      "plaid": 1008,
      "sky": 1009,
      "shirtless": 1010,
      "rail": 1011,
      "dies": 1012,
      "adult": 1013,
      "stairs": 1014,
      "cup": 1015,
      "chairs": 1016,
      "bed": 1017,
      "ste": 1018,
      "bre": 1019,
      "sil": 1020,
      "ved": 1021,
      "try": 1022,
      "rocks": 1023,
      "squ": 1024,
      "tall": 1025,
      "bee": 1026,
      "gentle": 1027,
      "jers": 1028,
      "land": 1029,
      "ven": 1030,
      "wet": 1031,
      "ys": 1032,
      "ined": 1033,
      "cking": 1034,
      "too": 1035,
      "just": 1036,
      "sunny": 1037,
      "selling": 1038,
      "pract": 1039,
      "jersey": 1040,
      "bet": 1041,
      "ming": 1042,
      "vend": 1043,
      "lead": 1044,
      "stat": 1045,
      "list": 1046,
      "pot": 1047,
      "setting": 1048,
      "aged": 1049,
      "equ": 1050,
      "ise": 1051,
      "fris": 1052,
      "pose": 1053,
      "parade": 1054,
      "yclist": 1055,
      "volley": 1056,
      "net": 1057,
      "vi": 1058,
      "ati": 1059,
      "stance": 1060,
      "scarf": 1061,
      "happ": 1062,
      "match": 1063,
      "numb": 1064,
      "ps": 1065,
      "tch": 1066,
      "ari": 1067,
      "both": 1068,
      "time": 1069,
      "putting": 1070,
      "tent": 1071,
      "corner": 1072,
      "clu": 1073,
      "equip": 1074,
      "volleyball": 1075,
      "bor": 1076,
      "ron": 1077,
      "ery": 1078,
      "stop": 1079,
      "throwing": 1080,
      "pushing": 1081,
      "frisbee": 1082,
      "fet": 1083,
      "ial": 1084,
      "row": 1085,
      "ladies": 1086,
      "home": 1087,
      "blic": 1088,
      "ramp": 1089,
      "have": 1090,
      "public": 1091,
      "drink": 1092,
      "ween": 1093,
      "slide": 1094,
      "flag": 1095,
      "photograph": 1096,
      "between": 1097,
      "cra": 1098,
      "couch": 1099,
      "gar": 1100,
      "pick": 1101,
      "hicle": 1102,
      "show": 1103,
      "fruit": 1104,
      "vehicle": 1105,
      "scen": 1106,
      "laughing": 1107,
      "computer": 1108,
      "pad": 1109,
      "sch": 1110,
      "reads": 1111,
      "pictures": 1112,
      "cheer": 1113,
      "where": 1114,
      "instruments": 1115,
      "equipment": 1116,
      "bird": 1117,
      "glo": 1118,
      "ls": 1119,
      "should": 1120,
      "bikes": 1121,
      "prote": 1122,
      "school": 1123,
      "gold": 1124,
      "mul": 1125,
      "plastic": 1126,
      "ally": 1127,
      "party": 1128,
      "spor": 1129,
      "woods": 1130,
      "spea": 1131,
      "cowboy": 1132,
      "bottle": 1133,
      "mi": 1134,
      "mil": 1135,
      "reach": 1136,
      "which": 1137,
      "playground": 1138,
      "poses": 1139,
      "works": 1140,
      "concre": 1141,
      "spect": 1142,
      "sweatshirt": 1143,
      "concrete": 1144,
      "cig": 1145,
      "ure": 1146,
      "ward": 1147,
      "dock": 1148,
      "feren": 1149,
      "statue": 1150,
      "bel": 1151,
      "ctor": 1152,
      "din": 1153,
      "winter": 1154,
      "midair": 1155,
      "ggles": 1156,
      "emp": 1157,
      "ium": 1158,
      "wr": 1159,
      "blo": 1160,
      "shovel": 1161,
      "number": 1162,
      "what": 1163,
      "ini": 1164,
      "seated": 1165,
      "bucket": 1166,
      "veget": 1167,
      "skirt": 1168,
      "scope": 1169,
      "tat": 1170,
      "ators": 1171,
      "shes": 1172,
      "distance": 1173,
      "tte": 1174,
      "ins": 1175,
      "anim": 1176,
      "attire": 1177,
      "station": 1178,
      "ops": 1179,
      "place": 1180,
      "bags": 1181,
      "six": 1182,
      "vari": 1183,
      "left": 1184,
      "lad": 1185,
      "enter": 1186,
      "site": 1187,
      "beer": 1188,
      "rist": 1189,
      "right": 1190,
      "ligh": 1191,
      "wait": 1192,
      "slid": 1193,
      "musician": 1194,
      "cream": 1195,
      "flip": 1196,
      "cooking": 1197,
      "ger": 1198,
      "lined": 1199,
      "edge": 1200,
      "blan": 1201,
      "vests": 1202,
      "rider": 1203,
      "scre": 1204,
      "cutting": 1205,
      "turn": 1206,
      "kneel": 1207,
      "filled": 1208,
      "bare": 1209,
      "draw": 1210,
      "alley": 1211,
      "grill": 1212,
      "hot": 1213,
      "buildings": 1214,
      "cliff": 1215,
      "newsp": 1216,
      "pulling": 1217,
      "cture": 1218,
      "med": 1219,
      "mother": 1220,
      "ry": 1221,
      "let": 1222,
      "paint": 1223,
      "cigare": 1224,
      "vegeta": 1225,
      "tattoo": 1226,
      "pet": 1227,
      "wrest": 1228,
      "roof": 1229,
      "but": 1230,
      "skateboarder": 1231,
      "friends": 1232,
      "appears": 1233,
      "break": 1234,
      "practic": 1235,
      "ds": 1236,
      "showing": 1237,
      "bub": 1238,
      "few": 1239,
      "close": 1240,
      "horses": 1241,
      "mountains": 1242,
      "crossing": 1243,
      "instrument": 1244,
      "court": 1245,
      "spectators": 1246,
      "blanket": 1247,
      "pair": 1248,
      "ical": 1249,
      "cars": 1250,
      "fight": 1251,
      "bathing": 1252,
      "structure": 1253,
      "uses": 1254,
      "cut": 1255,
      "bearded": 1256,
      "elec": 1257,
      "ham": 1258,
      "ters": 1259,
      "wash": 1260,
      "rela": 1261,
      "len": 1262,
      "sty": 1263,
      "offe": 1264,
      "dresses": 1265,
      "concer": 1266,
      "nearby": 1267,
      "performs": 1268,
      "suits": 1269,
      "country": 1270,
      "electr": 1271,
      "iz": 1272,
      "see": 1273,
      "apron": 1274,
      "goal": 1275,
      "driving": 1276,
      "bowling": 1277,
      "flower": 1278,
      "yclists": 1279,
      "snowboarder": 1280,
      "carries": 1281,
      "concert": 1282,
      "wing": 1283,
      "res": 1284,
      "bull": 1285,
      "tial": 1286,
      "shore": 1287,
      "leaves": 1288,
      "offee": 1289,
      "coffee": 1290,
      "hood": 1291,
      "hik": 1292,
      "law": 1293,
      "tele": 1294,
      "rode": 1295,
      "sold": 1296,
      "bru": 1297,
      "key": 1298,
      "parked": 1299,
      "studen": 1300,
      "boots": 1301,
      "painted": 1302,
      "mud": 1303,
      "vendor": 1304,
      "various": 1305,
      "cigarette": 1306,
      "students": 1307,
      "mir": 1308,
      "vis": 1309,
      "hit": 1310,
      "elf": 1311,
      "railing": 1312,
      "younger": 1313,
      "tive": 1314,
      "indian": 1315,
      "goggles": 1316,
      "cake": 1317,
      "shot": 1318,
      "swims": 1319,
      "surfer": 1320,
      "smile": 1321,
      "display": 1322,
      "gentleman": 1323,
      "gun": 1324,
      "pitch": 1325,
      "wed": 1326,
      "arti": 1327,
      "talks": 1328,
      "martial": 1329,
      "flying": 1330,
      "drums": 1331,
      "smoking": 1332,
      "phones": 1333,
      "bunch": 1334,
      "fun": 1335,
      "lying": 1336,
      "spla": 1337,
      "arts": 1338,
      "gaz": 1339,
      "dire": 1340,
      "rocky": 1341,
      "eyes": 1342,
      "flags": 1343,
      "kicking": 1344,
      "fferen": 1345,
      "ist": 1346,
      "ight": 1347,
      "onlook": 1348,
      "coming": 1349,
      "tie": 1350,
      "parking": 1351,
      "differen": 1352,
      "jackets": 1353,
      "waves": 1354,
      "scoo": 1355,
      "cau": 1356,
      "safet": 1357,
      "audi": 1358,
      "swinging": 1359,
      "conversation": 1360,
      "prepares": 1361,
      "newspaper": 1362,
      "rodeo": 1363,
      "safety": 1364,
      "av": 1365,
      "fen": 1366,
      "nic": 1367,
      "por": 1368,
      "ats": 1369,
      "scul": 1370,
      "costumes": 1371,
      "case": 1372,
      "ivid": 1373,
      "gloves": 1374,
      "practicing": 1375,
      "different": 1376,
      "cy": 1377,
      "kay": 1378,
      "sed": 1379,
      "cement": 1380,
      "cleaning": 1381,
      "pres": 1382,
      "competition": 1383,
      "listening": 1384,
      "scene": 1385,
      "ladder": 1386,
      "say": 1387,
      "cha": 1388,
      "memb": 1389,
      "neck": 1390,
      "swe": 1391,
      "spra": 1392,
      "skateboarding": 1393,
      "staring": 1394,
      "mask": 1395,
      "items": 1396,
      "teenag": 1397,
      "happy": 1398,
      "sports": 1399,
      "onlookers": 1400,
      "ber": 1401,
      "ned": 1402,
      "zz": 1403,
      "rais": 1404,
      "meal": 1405,
      "individ": 1406,
      "check": 1407,
      "bicycles": 1408,
      "dry": 1409,
      "plat": 1410,
      "pile": 1411,
      "surfboard": 1412,
      "desk": 1413,
      "giving": 1414,
      "bikini": 1415,
      "balloon": 1416,
      "milit": 1417,
      "empty": 1418,
      "lawn": 1419,
      "audience": 1420,
      "individu": 1421,
      "cir": 1422,
      "ki": 1423,
      "ken": 1424,
      "ette": 1425,
      "among": 1426,
      "gets": 1427,
      "drinks": 1428,
      "leaps": 1429,
      "viol": 1430,
      "military": 1431,
      "cam": 1432,
      "card": 1433,
      "eth": 1434,
      "ered": 1435,
      "fing": 1436,
      "waters": 1437,
      "trad": 1438,
      "obser": 1439,
      "bowl": 1440,
      "gathering": 1441,
      "pointing": 1442,
      "silver": 1443,
      "sliding": 1444,
      "vegetables": 1445,
      "platform": 1446,
      "cers": 1447,
      "made": 1448,
      "nel": 1449,
      "sof": 1450,
      "iness": 1451,
      "before": 1452,
      "shoo": 1453,
      "ural": 1454,
      "streets": 1455,
      "feet": 1456,
      "athle": 1457,
      "competing": 1458,
      "biker": 1459,
      "facing": 1460,
      "counter": 1461,
      "chasing": 1462,
      "screen": 1463,
      "wedding": 1464,
      "pon": 1465,
      "stretch": 1466,
      "crouch": 1467,
      "business": 1468,
      "helmets": 1469,
      "huge": 1470,
      "speaking": 1471,
      "sled": 1472,
      "ton": 1473,
      "well": 1474,
      "sting": 1475,
      "ely": 1476,
      "bride": 1477,
      "father": 1478,
      "chef": 1479,
      "mmer": 1480,
      "tries": 1481,
      "teams": 1482,
      "surfing": 1483,
      "cano": 1484,
      "laptop": 1485,
      "classroom": 1486,
      "lights": 1487,
      "soldi": 1488,
      "sculp": 1489,
      "tradition": 1490,
      "bur": 1491,
      "ced": 1492,
      "gard": 1493,
      "pes": 1494,
      "que": 1495,
      "tun": 1496,
      "vide": 1497,
      "wrap": 1498,
      "ining": 1499,
      "ghting": 1500,
      "seen": 1501,
      "life": 1502,
      "fighting": 1503,
      "sings": 1504,
      "waits": 1505,
      "marath": 1506,
      "decor": 1507,
      "climbs": 1508,
      "purse": 1509,
      "produ": 1510,
      "sticks": 1511,
      "skier": 1512,
      "traditional": 1513,
      "marathon": 1514,
      "son": 1515,
      "shad": 1516,
      "urban": 1517,
      "part": 1518,
      "talk": 1519,
      "custo": 1520,
      "spec": 1521,
      "clown": 1522,
      "plane": 1523,
      "kissing": 1524,
      "animal": 1525,
      "musicians": 1526,
      "ien": 1527,
      "town": 1528,
      "trun": 1529,
      "stroller": 1530,
      "oper": 1531,
      "allow": 1532,
      "cover": 1533,
      "walkway": 1534,
      "throw": 1535,
      "skating": 1536,
      "camp": 1537,
      "same": 1538,
      "females": 1539,
      "writing": 1540,
      "cand": 1541,
      "har": 1542,
      "ked": 1543,
      "lf": 1544,
      "pat": 1545,
      "sup": 1546,
      "use": 1547,
      "val": 1548,
      "indoor": 1549,
      "christ": 1550,
      "hole": 1551,
      "runner": 1552,
      "partic": 1553,
      "diving": 1554,
      "sunset": 1555,
      "exam": 1556,
      "shoulder": 1557,
      "kneeling": 1558,
      "video": 1559,
      "hoo": 1560,
      "ia": 1561,
      "pen": 1562,
      "ror": 1563,
      "sort": 1564,
      "touch": 1565,
      "lebr": 1566,
      "ator": 1567,
      "blowing": 1568,
      "els": 1569,
      "waving": 1570,
      "golf": 1571,
      "chest": 1572,
      "swim": 1573,
      "bald": 1574,
      "gymna": 1575,
      "attempting": 1576,
      "scooter": 1577,
      "violin": 1578,
      "christmas": 1579,
      "gian": 1580,
      "lan": 1581,
      "rink": 1582,
      "leash": 1583,
      "makes": 1584,
      "overlooking": 1585,
      "tables": 1586,
      "cloth": 1587,
      "signs": 1588,
      "clou": 1589,
      "enjoy": 1590,
      "balan": 1591,
      "outfits": 1592,
      "resting": 1593,
      "course": 1594,
      "electric": 1595,
      "cat": 1596,
      "fin": 1597,
      "good": 1598,
      "leg": 1599,
      "chines": 1600,
      "adver": 1601,
      "celebr": 1602,
      "cuss": 1603,
      "officer": 1604,
      "cheerlead": 1605,
      "multic": 1606,
      "bubbles": 1607,
      "washing": 1608,
      "mirror": 1609,
      "artist": 1610,
      "says": 1611,
      "chinese": 1612,
      "advert": 1613,
      "cont": 1614,
      "farm": 1615,
      "ies": 1616,
      "min": 1617,
      "port": 1618,
      "ref": 1619,
      "leans": 1620,
      "atten": 1621,
      "stun": 1622,
      "lay": 1623,
      "tool": 1624,
      "ching": 1625,
      "brun": 1626,
      "fixing": 1627,
      "cafe": 1628,
      "collar": 1629,
      "rolling": 1630,
      "pier": 1631,
      "brightly": 1632,
      "faces": 1633,
      "foll": 1634,
      "prin": 1635,
      "balloons": 1636,
      "square": 1637,
      "giant": 1638,
      "ast": 1639,
      "del": 1640,
      "tack": 1641,
      "ert": 1642,
      "alone": 1643,
      "gro": 1644,
      "heav": 1645,
      "rub": 1646,
      "die": 1647,
      "helping": 1648,
      "micro": 1649,
      "foreground": 1650,
      "ession": 1651,
      "not": 1652,
      "umbrellas": 1653,
      "leather": 1654,
      "discuss": 1655,
      "teenage": 1656,
      "brunette": 1657,
      "able": 1658,
      "dau": 1659,
      "ges": 1660,
      "mers": 1661,
      "ners": 1662,
      "van": 1663,
      "vice": 1664,
      "repair": 1665,
      "ering": 1666,
      "leep": 1667,
      "legs": 1668,
      "stad": 1669,
      "chur": 1670,
      "asleep": 1671,
      "meat": 1672,
      "sea": 1673,
      "lies": 1674,
      "load": 1675,
      "headphones": 1676,
      "guard": 1677,
      "dancers": 1678,
      "plate": 1679,
      "ative": 1680,
      "canoe": 1681,
      "sculpture": 1682,
      "daught": 1683,
      "dra": 1684,
      "dish": 1685,
      "fts": 1686,
      "str": 1687,
      "string": 1688,
      "ese": 1689,
      "ched": 1690,
      "wears": 1691,
      "tail": 1692,
      "office": 1693,
      "trash": 1694,
      "doorway": 1695,
      "stuff": 1696,
      "ffic": 1697,
      "sandals": 1698,
      "swings": 1699,
      "slee": 1700,
      "passing": 1701,
      "falling": 1702,
      "prof": 1703,
      "officers": 1704,
      "drawing": 1705,
      "grocer": 1706,
      "stadium": 1707,
      "don": 1708,
      "ddle": 1709,
      "ele": 1710,
      "fur": 1711,
      "hall": 1712,
      "ima": 1713,
      "lu": 1714,
      "olored": 1715,
      "hiking": 1716,
      "eng": 1717,
      "rol": 1718,
      "held": 1719,
      "accor": 1720,
      "most": 1721,
      "move": 1722,
      "sca": 1723,
      "heads": 1724,
      "shoe": 1725,
      "comple": 1726,
      "booth": 1727,
      "dirty": 1728,
      "toys": 1729,
      "musical": 1730,
      "skiing": 1731,
      "photographer": 1732,
      "block": 1733,
      "barefoot": 1734,
      "hammer": 1735,
      "garden": 1736,
      "particip": 1737,
      "multicolored": 1738,
      "church": 1739,
      "accordi": 1740,
      "fan": 1741,
      "kn": 1742,
      "kar": 1743,
      "low": 1744,
      "ot": 1745,
      "inclu": 1746,
      "mance": 1747,
      "teach": 1748,
      "formance": 1749,
      "throws": 1750,
      "singer": 1751,
      "traffic": 1752,
      "males": 1753,
      "performance": 1754,
      "spend": 1755,
      "picking": 1756,
      "reaching": 1757,
      "finish": 1758,
      "accordion": 1759,
      "fra": 1760,
      "hou": 1761,
      "hear": 1762,
      "kha": 1763,
      "py": 1764,
      "pond": 1765,
      "pati": 1766,
      "stor": 1767,
      "straw": 1768,
      "laun": 1769,
      "elves": 1770,
      "shallow": 1771,
      "clean": 1772,
      "digging": 1773,
      "flu": 1774,
      "drum": 1775,
      "below": 1776,
      "relaxing": 1777,
      "members": 1778,
      "daughter": 1779,
      "cts": 1780,
      "cul": 1781,
      "how": 1782,
      "ige": 1783,
      "nap": 1784,
      "pup": 1785,
      "pour": 1786,
      "tou": 1787,
      "atop": 1788,
      "lab": 1789,
      "pea": 1790,
      "seat": 1791,
      "upside": 1792,
      "fest": 1793,
      "moving": 1794,
      "deep": 1795,
      "bicyclist": 1796,
      "stud": 1797,
      "eye": 1798,
      "hugging": 1799,
      "catching": 1800,
      "catches": 1801,
      "passes": 1802,
      "gives": 1803,
      "direction": 1804,
      "soft": 1805,
      "tunnel": 1806,
      "microscope": 1807,
      "bro": 1808,
      "cri": 1809,
      "ctive": 1810,
      "dun": 1811,
      "fair": 1812,
      "ness": 1813,
      "ature": 1814,
      "step": 1815,
      "allen": 1816,
      "ches": 1817,
      "pede": 1818,
      "robe": 1819,
      "hoop": 1820,
      "bly": 1821,
      "beige": 1822,
      "shows": 1823,
      "cold": 1824,
      "balls": 1825,
      "post": 1826,
      "here": 1827,
      "paved": 1828,
      "sleeps": 1829,
      "flies": 1830,
      "leaping": 1831,
      "present": 1832,
      "sweeping": 1833,
      "stunt": 1834,
      "aster": 1835,
      "bin": 1836,
      "gate": 1837,
      "hur": 1838,
      "ater": 1839,
      "ens": 1840,
      "ital": 1841,
      "teeth": 1842,
      "hose": 1843,
      "lots": 1844,
      "skin": 1845,
      "scaff": 1846,
      "flat": 1847,
      "speed": 1848,
      "coats": 1849,
      "desert": 1850,
      "conversing": 1851,
      "wards": 1852,
      "swimsuit": 1853,
      "splashing": 1854,
      "kayak": 1855,
      "chain": 1856,
      "individuals": 1857,
      "circle": 1858,
      "trunks": 1859,
      "hoodie": 1860,
      "karate": 1861,
      "pedestri": 1862,
      "fre": 1863,
      "igh": 1864,
      "lone": 1865,
      "these": 1866,
      "stack": 1867,
      "cho": 1868,
      "alls": 1869,
      "racket": 1870,
      "ried": 1871,
      "stream": 1872,
      "appro": 1873,
      "neath": 1874,
      "formal": 1875,
      "contain": 1876,
      "closed": 1877,
      "sport": 1878,
      "fully": 1879,
      "deck": 1880,
      "jogging": 1881,
      "sax": 1882,
      "underneath": 1883,
      "wea": 1884,
      "suspend": 1885,
      "exc": 1886,
      "balcon": 1887,
      "points": 1888,
      "plants": 1889,
      "padd": 1890,
      "wrestling": 1891,
      "telescope": 1892,
      "customers": 1893,
      "covering": 1894,
      "heavy": 1895,
      "sleeve": 1896,
      "bb": 1897,
      "bun": 1898,
      "cyclist": 1899,
      "fting": 1900,
      "fant": 1901,
      "lers": 1902,
      "wine": 1903,
      "thems": 1904,
      "without": 1905,
      "ophone": 1906,
      "opposing": 1907,
      "gra": 1908,
      "local": 1909,
      "magaz": 1910,
      "carni": 1911,
      "rug": 1912,
      "gage": 1913,
      "clear": 1914,
      "tramp": 1915,
      "dances": 1916,
      "oline": 1917,
      "project": 1918,
      "hula": 1919,
      "cane": 1920,
      "opening": 1921,
      "curly": 1922,
      "shoulders": 1923,
      "hiker": 1924,
      "spray": 1925,
      "including": 1926,
      "themselves": 1927,
      "carnival": 1928,
      "ka": 1929,
      "kind": 1930,
      "mural": 1931,
      "pin": 1932,
      "tong": 1933,
      "zed": 1934,
      "infant": 1935,
      "atta": 1936,
      "entr": 1937,
      "ork": 1938,
      "ung": 1939,
      "taken": 1940,
      "runners": 1941,
      "crying": 1942,
      "bath": 1943,
      "moto": 1944,
      "wooded": 1945,
      "ggling": 1946,
      "tricks": 1947,
      "crosswalk": 1948,
      "nav": 1949,
      "sheet": 1950,
      "must": 1951,
      "pulled": 1952,
      "makeup": 1953,
      "matching": 1954,
      "dinner": 1955,
      "produce": 1956,
      "trampoline": 1957,
      "bra": 1958,
      "center": 1959,
      "fly": 1960,
      "lunch": 1961,
      "spot": 1962,
      "ina": 1963,
      "rece": 1964,
      "stroll": 1965,
      "sewing": 1966,
      "tub": 1967,
      "picnic": 1968,
      "bicyclists": 1969,
      "performer": 1970,
      "surface": 1971,
      "dles": 1972,
      "books": 1973,
      "firefight": 1974,
      "driver": 1975,
      "nose": 1976,
      "vely": 1977,
      "knee": 1978,
      "attempts": 1979,
      "brush": 1980,
      "athlete": 1981,
      "gymnast": 1982,
      "stuffed": 1983,
      "profession": 1984,
      "festiv": 1985,
      "drop": 1986,
      "oly": 1987,
      "pit": 1988,
      "press": 1989,
      "sid": 1990,
      "sco": 1991,
      "ual": 1992,
      "inning": 1993,
      "third": 1994,
      "hims": 1995,
      "lays": 1996,
      "ower": 1997,
      "orien": 1998,
      "blouse": 1999,
      "bever": 2000,
      "log": 2001,
      "goes": 2002,
      "pushes": 2003,
      "help": 2004,
      "compan": 2005,
      "sandy": 2006,
      "slope": 2007,
      "boxes": 2008,
      "chases": 2009,
      "botto": 2010,
      "club": 2011,
      "button": 2012,
      "style": 2013,
      "hikers": 2014,
      "pitcher": 2015,
      "teenagers": 2016,
      "cheerleaders": 2017,
      "softball": 2018,
      "pedestrians": 2019,
      "approach": 2020,
      "balcony": 2021,
      "himself": 2022,
      "oriental": 2023,
      "care": 2024,
      "gon": 2025,
      "hal": 2026,
      "jam": 2027,
      "lid": 2028,
      "mop": 2029,
      "mate": 2030,
      "pal": 2031,
      "san": 2032,
      "war": 2033,
      "wel": 2034,
      "inspec": 2035,
      "ited": 2036,
      "ares": 2037,
      "icycle": 2038,
      "ship": 2039,
      "seven": 2040,
      "lift": 2041,
      "waterfall": 2042,
      "skis": 2043,
      "sprink": 2044,
      "put": 2045,
      "puts": 2046,
      "device": 2047,
      "bent": 2048,
      "type": 2049,
      "design": 2050,
      "pulls": 2051,
      "staircase": 2052,
      "rollerbla": 2053,
      "steep": 2054,
      "multi": 2055,
      "speaks": 2056,
      "advertise": 2057,
      "festival": 2058,
      "da": 2059,
      "fallen": 2060,
      "ns": 2061,
      "vil": 2062,
      "warm": 2063,
      "angs": 2064,
      "atting": 2065,
      "stool": 2066,
      "irts": 2067,
      "ashi": 2068,
      "ics": 2069,
      "robes": 2070,
      "shar": 2071,
      "podi": 2072,
      "overalls": 2073,
      "travel": 2074,
      "puddle": 2075,
      "marching": 2076,
      "dancer": 2077,
      "cast": 2078,
      "boats": 2079,
      "enjoys": 2080,
      "drives": 2081,
      "evening": 2082,
      "shaking": 2083,
      "gentlemen": 2084,
      "wetsuit": 2085,
      "golden": 2086,
      "keyboard": 2087,
      "grocery": 2088,
      "scape": 2089,
      "fresh": 2090,
      "cted": 2091,
      "fashi": 2092,
      "hangs": 2093,
      "jap": 2094,
      "mound": 2095,
      "nice": 2096,
      "native": 2097,
      "pian": 2098,
      "sy": 2099,
      "ars": 2100,
      "chal": 2101,
      "grind": 2102,
      "vement": 2103,
      "apers": 2104,
      "figu": 2105,
      "tracks": 2106,
      "headed": 2107,
      "jean": 2108,
      "fast": 2109,
      "ledge": 2110,
      "barbe": 2111,
      "foreign": 2112,
      "ages": 2113,
      "windows": 2114,
      "sheep": 2115,
      "shaving": 2116,
      "kicks": 2117,
      "curb": 2118,
      "garb": 2119,
      "birds": 2120,
      "protective": 2121,
      "porch": 2122,
      "teenager": 2123,
      "fingers": 2124,
      "wrapped": 2125,
      "cloudy": 2126,
      "khaki": 2127,
      "laundry": 2128,
      "pouring": 2129,
      "japan": 2130,
      "bit": 2131,
      "bread": 2132,
      "cting": 2133,
      "ei": 2134,
      "emer": 2135,
      "ggage": 2136,
      "ker": 2137,
      "mess": 2138,
      "za": 2139,
      "enga": 2140,
      "oppo": 2141,
      "arena": 2142,
      "tex": 2143,
      "airplane": 2144,
      "polo": 2145,
      "poles": 2146,
      "apart": 2147,
      "backyard": 2148,
      "feed": 2149,
      "moves": 2150,
      "tran": 2151,
      "checking": 2152,
      "saw": 2153,
      "sale": 2154,
      "colors": 2155,
      "pipe": 2156,
      "chase": 2157,
      "protest": 2158,
      "reaches": 2159,
      "blocks": 2160,
      "shoveling": 2161,
      "shooting": 2162,
      "soldiers": 2163,
      "luggage": 2164,
      "saxophone": 2165,
      "paddling": 2166,
      "attached": 2167,
      "palm": 2168,
      "podium": 2169,
      "fashion": 2170,
      "piano": 2171,
      "chalk": 2172,
      "opposite": 2173,
      "\".": 2174,
      "ged": 2175,
      "pill": 2176,
      "swor": 2177,
      "tar": 2178,
      "vac": 2179,
      "was": 2180,
      "york": 2181,
      "inflat": 2182,
      "recor": 2183,
      "arrow": 2184,
      "oufla": 2185,
      "ising": 2186,
      "itor": 2187,
      "oppon": 2188,
      "grab": 2189,
      "ears": 2190,
      "sition": 2191,
      "rack": 2192,
      "raft": 2193,
      "oney": 2194,
      "bran": 2195,
      "bric": 2196,
      "poss": 2197,
      "poster": 2198,
      "position": 2199,
      "fix": 2200,
      "skirts": 2201,
      "pajam": 2202,
      "pavement": 2203,
      "bage": 2204,
      "cones": 2205,
      "flor": 2206,
      "bandan": 2207,
      "rollers": 2208,
      "wheelchair": 2209,
      "denim": 2210,
      "kiss": 2211,
      "railroad": 2212,
      "goalie": 2213,
      "fenced": 2214,
      "camoufla": 2215,
      "soldier": 2216,
      "balancing": 2217,
      "image": 2218,
      "rugby": 2219,
      "tongue": 2220,
      "inflatable": 2221,
      "camouflage": 2222,
      "aks": 2223,
      "bm": 2224,
      "ci": 2225,
      "cool": 2226,
      "cyclists": 2227,
      "ef": 2228,
      "fans": 2229,
      "flight": 2230,
      "sal": 2231,
      "tro": 2232,
      "refe": 2233,
      "wild": 2234,
      "escal": 2235,
      "char": 2236,
      "meet": 2237,
      "beam": 2238,
      "shade": 2239,
      "buying": 2240,
      "juggling": 2241,
      "riders": 2242,
      "tractor": 2243,
      "eats": 2244,
      "tops": 2245,
      "married": 2246,
      "fabric": 2247,
      "walls": 2248,
      "jockey": 2249,
      "sail": 2250,
      "speak": 2251,
      "tyard": 2252,
      "floating": 2253,
      "motorcycles": 2254,
      "bikers": 2255,
      "courtyard": 2256,
      "laughs": 2257,
      "happily": 2258,
      "entertain": 2259,
      "ized": 2260,
      "raised": 2261,
      "finger": 2262,
      "super": 2263,
      "tools": 2264,
      "frame": 2265,
      "student": 2266,
      "skinned": 2267,
      "mustach": 2268,
      "professional": 2269,
      "bottom": 2270,
      "rollersk": 2271,
      "amp": 2272,
      "bble": 2273,
      "cus": 2274,
      "fis": 2275,
      "fir": 2276,
      "free": 2277,
      "fold": 2278,
      "ging": 2279,
      "olding": 2280,
      "pig": 2281,
      "spo": 2282,
      "vic": 2283,
      "wk": 2284,
      "you": 2285,
      "onic": 2286,
      "oustic": 2287,
      "toss": 2288,
      "ids": 2289,
      "gril": 2290,
      "groom": 2291,
      "doctor": 2292,
      "rac": 2293,
      "shown": 2294,
      "rists": 2295,
      "com": 2296,
      "coach": 2297,
      "socks": 2298,
      "live": 2299,
      "living": 2300,
      "bucking": 2301,
      "carpet": 2302,
      "backwards": 2303,
      "tube": 2304,
      "action": 2305,
      "acoustic": 2306,
      "tory": 2307,
      "colle": 2308,
      "plant": 2309,
      "towel": 2310,
      "eved": 2311,
      "marketplace": 2312,
      "paren": 2313,
      "carriage": 2314,
      "jerseys": 2315,
      "garbage": 2316,
      "cheering": 2317,
      "mix": 2318,
      "bubble": 2319,
      "closeup": 2320,
      "relax": 2321,
      "stretched": 2322,
      "touching": 2323,
      "goods": 2324,
      "peace": 2325,
      "hurdle": 2326,
      "scaffolding": 2327,
      "suspended": 2328,
      "excited": 2329,
      "santa": 2330,
      "multiple": 2331,
      "either": 2332,
      "pajamas": 2333,
      "floral": 2334,
      "bandanna": 2335,
      "boun": 2336,
      "cue": 2337,
      "casian": 2338,
      "egg": 2339,
      "hay": 2340,
      "hones": 2341,
      "spa": 2342,
      "yo": 2343,
      "invol": 2344,
      "ane": 2345,
      "thumb": 2346,
      "orn": 2347,
      "chop": 2348,
      "plaza": 2349,
      "bling": 2350,
      "ribb": 2351,
      "airport": 2352,
      "main": 2353,
      "achu": 2354,
      "parachu": 2355,
      "snack": 2356,
      "act": 2357,
      "acting": 2358,
      "mom": 2359,
      "model": 2360,
      "scu": 2361,
      "stacle": 2362,
      "ations": 2363,
      "climber": 2364,
      "paints": 2365,
      "underwater": 2366,
      "barrel": 2367,
      "corn": 2368,
      "welding": 2369,
      "summer": 2370,
      "sleeved": 2371,
      "pige": 2372,
      "obstacle": 2373,
      "desc": 2374,
      "serving": 2375,
      "backpacks": 2376,
      "bank": 2377,
      "stove": 2378,
      "landscape": 2379,
      "sporting": 2380,
      "dining": 2381,
      "animals": 2382,
      "german": 2383,
      "kneels": 2384,
      "hooded": 2385,
      "caught": 2386,
      "caucasian": 2387,
      "athletic": 2388,
      "magazine": 2389,
      "recei": 2390,
      "olymp": 2391,
      "half": 2392,
      "advertisement": 2393,
      "japanese": 2394,
      "escalator": 2395,
      "fisher": 2396,
      ".\"": 2397,
      "cling": 2398,
      "easter": 2399,
      "gas": 2400,
      "hy": 2401,
      "mor": 2402,
      "money": 2403,
      "oc": 2404,
      "youth": 2405,
      "ze": 2406,
      "rests": 2407,
      "erc": 2408,
      "orchest": 2409,
      "iron": 2410,
      "grand": 2411,
      "cere": 2412,
      "mpet": 2413,
      "liqu": 2414,
      "amuse": 2415,
      "loc": 2416,
      "apple": 2417,
      "neon": 2418,
      "thrown": 2419,
      "tery": 2420,
      "dio": 2421,
      "acti": 2422,
      "mobi": 2423,
      "hawk": 2424,
      "bending": 2425,
      "ropes": 2426,
      "ffy": 2427,
      "sandwi": 2428,
      "weight": 2429,
      "trumpet": 2430,
      "drive": 2431,
      "muzz": 2432,
      "polka": 2433,
      "shaw": 2434,
      "shaped": 2435,
      "vehicles": 2436,
      "seems": 2437,
      "brushing": 2438,
      "neckla": 2439,
      "checkered": 2440,
      "individual": 2441,
      "pony": 2442,
      "decorated": 2443,
      "operating": 2444,
      "candy": 2445,
      "harness": 2446,
      "examining": 2447,
      "participating": 2448,
      "teacher": 2449,
      "gravel": 2450,
      "bmx": 2451,
      "referee": 2452,
      "grilling": 2453,
      "orchestra": 2454,
      "amusement": 2455,
      "bir": 2456,
      "cone": 2457,
      "fle": 2458,
      "hound": 2459,
      "jung": 2460,
      "pop": 2461,
      "pil": 2462,
      "pine": 2463,
      "rout": 2464,
      "rowing": 2465,
      "twi": 2466,
      "zer": 2467,
      "thin": 2468,
      "only": 2469,
      "hitting": 2470,
      "atv": 2471,
      "wire": 2472,
      "wide": 2473,
      "pee": 2474,
      "doll": 2475,
      "gestu": 2476,
      "racer": 2477,
      "beg": 2478,
      "shed": 2479,
      "shep": 2480,
      "ilt": 2481,
      "map": 2482,
      "neigh": 2483,
      "heels": 2484,
      "bathr": 2485,
      "things": 2486,
      "wagon": 2487,
      "headscarf": 2488,
      "haircut": 2489,
      "jewel": 2490,
      "studio": 2491,
      "benches": 2492,
      "sets": 2493,
      "exerc": 2494,
      "sticking": 2495,
      "passeng": 2496,
      "dump": 2497,
      "compete": 2498,
      "turning": 2499,
      "boxing": 2500,
      "attempt": 2501,
      "practice": 2502,
      "photographs": 2503,
      "craft": 2504,
      "muddy": 2505,
      "vision": 2506,
      "presen": 2507,
      "crouches": 2508,
      "patter": 2509,
      "reflec": 2510,
      "print": 2511,
      "hallway": 2512,
      "knit": 2513,
      "heart": 2514,
      "tourists": 2515,
      "presentation": 2516,
      "firefighters": 2517,
      "sharing": 2518,
      "barbecue": 2519,
      "feeding": 2520,
      "opponent": 2521,
      "possi": 2522,
      "scuba": 2523,
      "mobile": 2524,
      "jungle": 2525,
      "passengers": 2526,
      "ais": 2527,
      "bill": 2528,
      "ech": 2529,
      "emb": 2530,
      "eight": 2531,
      "gan": 2532,
      "nur": 2533,
      "prop": 2534,
      "range": 2535,
      "sack": 2536,
      "sink": 2537,
      "wad": 2538,
      "xi": 2539,
      "yhound": 2540,
      "iny": 2541,
      "inery": 2542,
      "inters": 2543,
      "stones": 2544,
      "also": 2545,
      "order": 2546,
      "etrack": 2547,
      "come": 2548,
      "comm": 2549,
      "ceiling": 2550,
      "baller": 2551,
      "ility": 2552,
      "groups": 2553,
      "herd": 2554,
      "tile": 2555,
      "keep": 2556,
      "greyhound": 2557,
      "jumpsuit": 2558,
      "rench": 2559,
      "cleans": 2560,
      "crash": 2561,
      "tum": 2562,
      "trop": 2563,
      "guitars": 2564,
      "ggy": 2565,
      "gged": 2566,
      "skateboards": 2567,
      "speech": 2568,
      "bars": 2569,
      "motorcyclist": 2570,
      "sized": 2571,
      "leaf": 2572,
      "pull": 2573,
      "ously": 2574,
      "machinery": 2575,
      "surrounding": 2576,
      "start": 2577,
      "policeman": 2578,
      "drummer": 2579,
      "viewing": 2580,
      "snowboarding": 2581,
      "cook": 2582,
      "garage": 2583,
      "fruits": 2584,
      "slides": 2585,
      "turns": 2586,
      "ethnic": 2587,
      "loading": 2588,
      "eleph": 2589,
      "patio": 2590,
      "motocross": 2591,
      "navy": 2592,
      "figure": 2593,
      "sword": 2594,
      "mustache": 2595,
      "racetrack": 2596,
      "sandwich": 2597,
      "bathroom": 2598,
      "ahead": 2599,
      "aqu": 2600,
      "cess": 2601,
      "dread": 2602,
      "ext": 2603,
      "ection": 2604,
      "hers": 2605,
      "if": 2606,
      "ience": 2607,
      "moun": 2608,
      "mall": 2609,
      "nas": 2610,
      "num": 2611,
      "narrow": 2612,
      "rough": 2613,
      "spar": 2614,
      "song": 2615,
      "erial": 2616,
      "aters": 2617,
      "lamp": 2618,
      "itten": 2619,
      "oping": 2620,
      "test": 2621,
      "hosp": 2622,
      "blow": 2623,
      "rier": 2624,
      "seum": 2625,
      "tag": 2626,
      "bushes": 2627,
      "loy": 2628,
      "locks": 2629,
      "brow": 2630,
      "great": 2631,
      "boardwalk": 2632,
      "headband": 2633,
      "ways": 2634,
      "jects": 2635,
      "puck": 2636,
      "surg": 2637,
      "cape": 2638,
      "baskets": 2639,
      "horseback": 2640,
      "exhi": 2641,
      "nail": 2642,
      "swimmer": 2643,
      "drill": 2644,
      "museum": 2645,
      "hillside": 2646,
      "newly": 2647,
      "leaving": 2648,
      "sells": 2649,
      "smoke": 2650,
      "vendors": 2651,
      "borhood": 2652,
      "stopped": 2653,
      "medical": 2654,
      "tattooed": 2655,
      "petting": 2656,
      "member": 2657,
      "observe": 2658,
      "shoot": 2659,
      "crouching": 2660,
      "indoors": 2661,
      "lane": 2662,
      "discussion": 2663,
      "fancy": 2664,
      "cricket": 2665,
      "dune": 2666,
      "entrance": 2667,
      "beverage": 2668,
      "villa": 2669,
      "first": 2670,
      "college": 2671,
      "eastern": 2672,
      "ceremon": 2673,
      "birth": 2674,
      "routine": 2675,
      "neighborhood": 2676,
      "possibly": 2677,
      "intersection": 2678,
      "herself": 2679,
      "hospital": 2680,
      "cru": 2681,
      "clap": 2682,
      "clay": 2683,
      "loung": 2684,
      "mel": 2685,
      "mly": 2686,
      "oon": 2687,
      "tes": 2688,
      "strap": 2689,
      "labor": 2690,
      "enger": 2691,
      "dot": 2692,
      "hoops": 2693,
      "cobble": 2694,
      "seats": 2695,
      "buy": 2696,
      "outstretched": 2697,
      "tight": 2698,
      "skates": 2699,
      "cond": 2700,
      "condu": 2701,
      "spi": 2702,
      "maroon": 2703,
      "odd": 2704,
      "guitarist": 2705,
      "helps": 2706,
      "uniformed": 2707,
      "float": 2708,
      "crew": 2709,
      "microphones": 2710,
      "pizz": 2711,
      "pipes": 2712,
      "hugs": 2713,
      "army": 2714,
      "ills": 2715,
      "wheels": 2716,
      "folding": 2717,
      "silhou": 2718,
      "squatting": 2719,
      "nets": 2720,
      "crafts": 2721,
      "bottles": 2722,
      "mixing": 2723,
      "ference": 2724,
      "buckets": 2725,
      "funny": 2726,
      "fencing": 2727,
      "cardboard": 2728,
      "celebrating": 2729,
      "rubber": 2730,
      "dishes": 2731,
      "tails": 2732,
      "mostly": 2733,
      "complete": 2734,
      "patient": 2735,
      "puppy": 2736,
      "choir": 2737,
      "container": 2738,
      "ornate": 2739,
      "shepherd": 2740,
      "birthday": 2741,
      "aw": 2742,
      "aking": 2743,
      "bass": 2744,
      "fell": 2745,
      "gall": 2746,
      "kite": 2747,
      "lines": 2748,
      "nit": 2749,
      "os": 2750,
      "pri": 2751,
      "patch": 2752,
      "punch": 2753,
      "rural": 2754,
      "tour": 2755,
      "intent": 2756,
      "lection": 2757,
      "stra": 2758,
      "stares": 2759,
      "wife": 2760,
      "cked": 2761,
      "tel": 2762,
      "tered": 2763,
      "blows": 2764,
      "bean": 2765,
      "lip": 2766,
      "libr": 2767,
      "bul": 2768,
      "amid": 2769,
      "broom": 2770,
      "tially": 2771,
      "carving": 2772,
      "paras": 2773,
      "backs": 2774,
      "formation": 2775,
      "conference": 2776,
      "handstand": 2777,
      "more": 2778,
      "moment": 2779,
      "mohawk": 2780,
      "spinning": 2781,
      "pump": 2782,
      "derby": 2783,
      "doors": 2784,
      "dead": 2785,
      "demon": 2786,
      "flops": 2787,
      "colum": 2788,
      "ends": 2789,
      "chee": 2790,
      "stripes": 2791,
      "quet": 2792,
      "cuts": 2793,
      "storefront": 2794,
      "coloring": 2795,
      "firetruck": 2796,
      "bowls": 2797,
      "balance": 2798,
      "simil": 2799,
      "pieces": 2800,
      "item": 2801,
      "calf": 2802,
      "gency": 2803,
      "merch": 2804,
      "focus": 2805,
      "smokes": 2806,
      "leading": 2807,
      "born": 2808,
      "scenery": 2809,
      "belt": 2810,
      "employ": 2811,
      "flipping": 2812,
      "vegetable": 2813,
      "tattoos": 2814,
      "spraying": 2815,
      "stretching": 2816,
      "control": 2817,
      "furnit": 2818,
      "tourist": 2819,
      "sleeveless": 2820,
      "inspecting": 2821,
      "grinding": 2822,
      "apartment": 2823,
      "vacu": 2824,
      "comfor": 2825,
      "space": 2826,
      "ribbon": 2827,
      "fisherman": 2828,
      "activ": 2829,
      "reflective": 2830,
      "dreadlocks": 2831,
      "library": 2832,
      "demonstr": 2833,
      "similar": 2834,
      "employe": 2835,
      "furniture": 2836,
      "bing": 2837,
      "bould": 2838,
      "clad": 2839,
      "eu": 2840,
      "eur": 2841,
      "jet": 2842,
      "lond": 2843,
      "my": 2844,
      "rons": 2845,
      "sad": 2846,
      "vo": 2847,
      "theater": 2848,
      "arch": 2849,
      "organ": 2850,
      "ident": 2851,
      "tee": 2852,
      "hotel": 2853,
      "unicycle": 2854,
      "races": 2855,
      "ghts": 2856,
      "cot": 2857,
      "seas": 2858,
      "chick": 2859,
      "ilts": 2860,
      "lifting": 2861,
      "bush": 2862,
      "ama": 2863,
      "bris": 2864,
      "ties": 2865,
      "tied": 2866,
      "partially": 2867,
      "crane": 2868,
      "overhead": 2869,
      "boards": 2870,
      "dimly": 2871,
      "moder": 2872,
      "peri": 2873,
      "spread": 2874,
      "got": 2875,
      "horn": 2876,
      "pret": 2877,
      "plu": 2878,
      "motorbike": 2879,
      "objects": 2880,
      "name": 2881,
      "naked": 2882,
      "balding": 2883,
      "dust": 2884,
      "duck": 2885,
      "nighttime": 2886,
      "stairway": 2887,
      "factory": 2888,
      "banner": 2889,
      "rainy": 2890,
      "starting": 2891,
      "gymnas": 2892,
      "computers": 2893,
      "batter": 2894,
      "listens": 2895,
      "turned": 2896,
      "letes": 2897,
      "television": 2898,
      "raises": 2899,
      "sofa": 2900,
      "chefs": 2901,
      "candles": 2902,
      "gymnastic": 2903,
      "balances": 2904,
      "following": 2905,
      "discussing": 2906,
      "engine": 2907,
      "houses": 2908,
      "fluffy": 2909,
      "broken": 2910,
      "approaching": 2911,
      "moped": 2912,
      "castle": 2913,
      "emergency": 2914,
      "folded": 2915,
      "parents": 2916,
      "pigeons": 2917,
      "jewelry": 2918,
      "numer": 2919,
      "pizza": 2920,
      "intently": 2921,
      "europe": 2922,
      "london": 2923,
      "gymnasium": 2924,
      "12": 2925,
      "20": 2926,
      "cla": 2927,
      "cop": 2928,
      "cel": 2929,
      "dough": 2930,
      "eath": 2931,
      "fu": 2932,
      "gam": 2933,
      "ior": 2934,
      "ible": 2935,
      "ja": 2936,
      "ky": 2937,
      "kni": 2938,
      "may": 2939,
      "ocul": 2940,
      "papers": 2941,
      "sor": 2942,
      "sne": 2943,
      "slight": 2944,
      "ump": 2945,
      "zen": 2946,
      "inte": 2947,
      "lear": 2948,
      "hits": 2949,
      "stro": 2950,
      "tech": 2951,
      "ooms": 2952,
      "ica": 2953,
      "rod": 2954,
      "unk": 2955,
      "redheaded": 2956,
      "adjust": 2957,
      "share": 2958,
      "rick": 2959,
      "forward": 2960,
      "sem": 2961,
      "secur": 2962,
      "taxi": 2963,
      "lie": 2964,
      "bystand": 2965,
      "downtown": 2966,
      "pod": 2967,
      "world": 2968,
      "assist": 2969,
      "bleach": 2970,
      "terrain": 2971,
      "smaller": 2972,
      "motion": 2973,
      "ions": 2974,
      "push": 2975,
      "beneath": 2976,
      "cameras": 2977,
      "job": 2978,
      "ending": 2979,
      "carry": 2980,
      "mmed": 2981,
      "plates": 2982,
      "barber": 2983,
      "photos": 2984,
      "teammate": 2985,
      "crosses": 2986,
      "pies": 2987,
      "fireman": 2988,
      "training": 2989,
      "trucks": 2990,
      "swimmers": 2991,
      "flowered": 2992,
      "catcher": 2993,
      "note": 2994,
      "newborn": 2995,
      "shakes": 2996,
      "shaved": 2997,
      "rainbow": 2998,
      "called": 2999,
      "stomach": 3000,
      "point": 3001,
      "material": 3002,
      "trailer": 3003,
      "pottery": 3004,
      "borne": 3005,
      "paddle": 3006,
      "protesting": 3007,
      "shovels": 3008,
      "scream": 3009,
      "wrestle": 3010,
      "electronic": 3011,
      "raising": 3012,
      "amongst": 3013,
      "camel": 3014,
      "waterski": 3015,
      "observing": 3016,
      "shades": 3017,
      "advertising": 3018,
      "follows": 3019,
      "participate": 3020,
      "directions": 3021,
      "binocul": 3022,
      "engaged": 3023,
      "branch": 3024,
      "spoon": 3025,
      "liquid": 3026,
      "necklace": 3027,
      "ballerina": 3028,
      "elephant": 3029,
      "village": 3030,
      "lounging": 3031,
      "numerous": 3032,
      "security": 3033,
      "bad": 3034,
      "bound": 3035,
      "bby": 3036,
      "bell": 3037,
      "cree": 3038,
      "dad": 3039,
      "eled": 3040,
      "far": 3041,
      "fted": 3042,
      "gers": 3043,
      "gown": 3044,
      "ire": 3045,
      "ive": 3046,
      "iff": 3047,
      "lst": 3048,
      "loun": 3049,
      "mc": 3050,
      "mis": 3051,
      "mates": 3052,
      "mini": 3053,
      "nam": 3054,
      "nature": 3055,
      "om": 3056,
      "oes": 3057,
      "pping": 3058,
      "rows": 3059,
      "sen": 3060,
      "sely": 3061,
      "win": 3062,
      "zing": 3063,
      "ants": 3064,
      "thus": 3065,
      "attra": 3066,
      "ately": 3067,
      "enthus": 3068,
      "ites": 3069,
      "itors": 3070,
      "whilst": 3071,
      "peering": 3072,
      "eds": 3073,
      "blur": 3074,
      "eling": 3075,
      "ador": 3076,
      "admir": 3077,
      "shining": 3078,
      "airborne": 3079,
      "ticket": 3080,
      "upon": 3081,
      "poor": 3082,
      "biking": 3083,
      "fea": 3084,
      "congre": 3085,
      "consi": 3086,
      "dig": 3087,
      "angel": 3088,
      "tricycle": 3089,
      "fake": 3090,
      "tents": 3091,
      "performers": 3092,
      "social": 3093,
      "quick": 3094,
      "shops": 3095,
      "proje": 3096,
      "tower": 3097,
      "aud": 3098,
      "express": 3099,
      "hug": 3100,
      "firemen": 3101,
      "passenger": 3102,
      "caps": 3103,
      "athletes": 3104,
      "skiers": 3105,
      "akers": 3106,
      "gift": 3107,
      "machines": 3108,
      "wheelbar": 3109,
      "interacting": 3110,
      "rings": 3111,
      "calm": 3112,
      "converse": 3113,
      "casual": 3114,
      "scarves": 3115,
      "steel": 3116,
      "silly": 3117,
      "leads": 3118,
      "homeless": 3119,
      "photographed": 3120,
      "glove": 3121,
      "izing": 3122,
      "guns": 3123,
      "splashes": 3124,
      "cards": 3125,
      "trunk": 3126,
      "follow": 3127,
      "rubs": 3128,
      "repairs": 3129,
      "guards": 3130,
      "donkey": 3131,
      "teaching": 3132,
      "story": 3133,
      "weaving": 3134,
      "sprinkler": 3135,
      "rollerblades": 3136,
      "pillow": 3137,
      "charac": 3138,
      "receiving": 3139,
      "aisle": 3140,
      "billboard": 3141,
      "wading": 3142,
      "cobblestone": 3143,
      "straight": 3144,
      "vacuum": 3145,
      "modern": 3146,
      "pretty": 3147,
      "slightly": 3148,
      "binoculars": 3149,
      "lounge": 3150,
      "admiring": 3151,
      "ax": 3152,
      "craw": 3153,
      "centr": 3154,
      "fit": 3155,
      "fed": 3156,
      "glid": 3157,
      "imp": 3158,
      "kin": 3159,
      "oven": 3160,
      "pir": 3161,
      "plo": 3162,
      "pay": 3163,
      "power": 3164,
      "sla": 3165,
      "sque": 3166,
      "tv": 3167,
      "trol": 3168,
      "ut": 3169,
      "ually": 3170,
      "va": 3171,
      "ware": 3172,
      "xy": 3173,
      "incl": 3174,
      "oned": 3175,
      "leot": 3176,
      "ara": 3177,
      "arc": 3178,
      "oud": 3179,
      "sters": 3180,
      "lacross": 3181,
      "tomat": 3182,
      "chan": 3183,
      "opes": 3184,
      "tea": 3185,
      "places": 3186,
      "robat": 3187,
      "mex": 3188,
      "been": 3189,
      "cock": 3190,
      "comb": 3191,
      "comes": 3192,
      "coaster": 3193,
      "semi": 3194,
      "tape": 3195,
      "tage": 3196,
      "lips": 3197,
      "lifted": 3198,
      "tist": 3199,
      "carts": 3200,
      "keys": 3201,
      "aps": 3202,
      "appl": 3203,
      "waterfront": 3204,
      "waterway": 3205,
      "sniff": 3206,
      "feat": 3207,
      "conven": 3208,
      "contest": 3209,
      "overweight": 3210,
      "handle": 3211,
      "acrobat": 3212,
      "science": 3213,
      "span": 3214,
      "spon": 3215,
      "mart": 3216,
      "debris": 3217,
      "used": 3218,
      "tending": 3219,
      "collec": 3220,
      "joh": 3221,
      "checks": 3222,
      "mming": 3223,
      "sailing": 3224,
      "barrier": 3225,
      "autum": 3226,
      "dusk": 3227,
      "flips": 3228,
      "tires": 3229,
      "lecture": 3230,
      "praying": 3231,
      "filling": 3232,
      "official": 3233,
      "cups": 3234,
      "landing": 3235,
      "paddles": 3236,
      "entering": 3237,
      "butter": 3238,
      "wings": 3239,
      "telephone": 3240,
      "gundy": 3241,
      "portra": 3242,
      "observes": 3243,
      "laptops": 3244,
      "burgundy": 3245,
      "shadow": 3246,
      "customer": 3247,
      "examines": 3248,
      "lanter": 3249,
      "farmer": 3250,
      "attention": 3251,
      "deli": 3252,
      "groceries": 3253,
      "donal": 3254,
      "flute": 3255,
      "studying": 3256,
      "chainsaw": 3257,
      "bundle": 3258,
      "navig": 3259,
      "spotted": 3260,
      "messy": 3261,
      "transport": 3262,
      "target": 3263,
      "meeting": 3264,
      "eggs": 3265,
      "thumbs": 3266,
      "gestures": 3267,
      "commun": 3268,
      "tropical": 3269,
      "browsing": 3270,
      "ceremony": 3271,
      "sneakers": 3272,
      "rickshaw": 3273,
      "bystanders": 3274,
      "bleachers": 3275,
      "consisting": 3276,
      "wheelbarrow": 3277,
      "leotard": 3278,
      "lacrosse": 3279,
      "autumn": 3280,
      "ail": 3281,
      "bs": 3282,
      "bou": 3283,
      "bam": 3284,
      "biting": 3285,
      "bite": 3286,
      "call": 3287,
      "dro": 3288,
      "fat": 3289,
      "hen": 3290,
      "ied": 3291,
      "lly": 3292,
      "mass": 3293,
      "mped": 3294,
      "poo": 3295,
      "rad": 3296,
      "tas": 3297,
      "ude": 3298,
      "ument": 3299,
      "vin": 3300,
      "vas": 3301,
      "ws": 3302,
      "wares": 3303,
      "ino": 3304,
      "inju": 3305,
      "tho": 3306,
      "recl": 3307,
      "erry": 3308,
      "arn": 3309,
      "arter": 3310,
      "andise": 3311,
      "stare": 3312,
      "still": 3313,
      "wires": 3314,
      "chess": 3315,
      "eter": 3316,
      "teal": 3317,
      "placing": 3318,
      "shirted": 3319,
      "covers": 3320,
      "cep": 3321,
      "loom": 3322,
      "bron": 3323,
      "tired": 3324,
      "watermel": 3325,
      "juice": 3326,
      "backdrop": 3327,
      "skater": 3328,
      "skaters": 3329,
      "bies": 3330,
      "crown": 3331,
      "snowsuit": 3332,
      "tug": 3333,
      "diver": 3334,
      "handing": 3335,
      "tray": 3336,
      "accompan": 3337,
      "movie": 3338,
      "heading": 3339,
      "dec": 3340,
      "def": 3341,
      "defen": 3342,
      "suitcase": 3343,
      "bricks": 3344,
      "brief": 3345,
      "horiz": 3346,
      "quo": 3347,
      "quarter": 3348,
      "shoppers": 3349,
      "forehead": 3350,
      "experi": 3351,
      "human": 3352,
      "nament": 3353,
      "umin": 3354,
      "bagpipes": 3355,
      "ballet": 3356,
      "highway": 3357,
      "angle": 3358,
      "give": 3359,
      "paperwork": 3360,
      "serves": 3361,
      "banan": 3362,
      "banjo": 3363,
      "ities": 3364,
      "cowboys": 3365,
      "wheelie": 3366,
      "knees": 3367,
      "cooks": 3368,
      "monument": 3369,
      "falls": 3370,
      "venue": 3371,
      "listen": 3372,
      "potat": 3373,
      "stops": 3374,
      "cray": 3375,
      "alleyway": 3376,
      "newspapers": 3377,
      "wrestler": 3378,
      "blankets": 3379,
      "countryside": 3380,
      "seem": 3381,
      "visiting": 3382,
      "visible": 3383,
      "scooters": 3384,
      "cause": 3385,
      "kayaks": 3386,
      "sweeps": 3387,
      "shadows": 3388,
      "touches": 3389,
      "reflection": 3390,
      "attending": 3391,
      "tackle": 3392,
      "repairing": 3393,
      "strange": 3394,
      "cular": 3395,
      "puppies": 3396,
      "scaffold": 3397,
      "sides": 3398,
      "beverages": 3399,
      "inspects": 3400,
      "rollerblading": 3401,
      "texas": 3402,
      "pillows": 3403,
      "record": 3404,
      "pigtails": 3405,
      "tossing": 3406,
      "yoga": 3407,
      "olympics": 3408,
      "exercise": 3409,
      "presenting": 3410,
      "patterned": 3411,
      "exhibit": 3412,
      "clapping": 3413,
      "beanie": 3414,
      "merchandise": 3415,
      "boulder": 3416,
      "chicken": 3417,
      "gymnastics": 3418,
      "cello": 3419,
      "games": 3420,
      "knife": 3421,
      "umpire": 3422,
      "screaming": 3423,
      "mcdonal": 3424,
      "trolley": 3425,
      "applying": 3426,
      "spanish": 3427,
      "bamboo": 3428,
      "cro": 3429,
      "cil": 3430,
      "cans": 3431,
      "dj": 3432,
      "done": 3433,
      "eas": 3434,
      "every": 3435,
      "hun": 3436,
      "lat": 3437,
      "link": 3438,
      "mur": 3439,
      "mower": 3440,
      "plies": 3441,
      "rk": 3442,
      "ris": 3443,
      "rice": 3444,
      "rally": 3445,
      "tiny": 3446,
      "ues": 3447,
      "uts": 3448,
      "yarn": 3449,
      "ings": 3450,
      "ret": 3451,
      "reli": 3452,
      "remo": 3453,
      "retri": 3454,
      "maneu": 3455,
      "artwo": 3456,
      "stle": 3457,
      "stir": 3458,
      "ora": 3459,
      "chin": 3460,
      "china": 3461,
      "chatting": 3462,
      "assem": 3463,
      "gras": 3464,
      "placed": 3465,
      "ically": 3466,
      "domin": 3467,
      "played": 3468,
      "playfully": 3469,
      "ersby": 3470,
      "unus": 3471,
      "blind": 3472,
      "meas": 3473,
      "bead": 3474,
      "riot": 3475,
      "rized": 3476,
      "separ": 3477,
      "section": 3478,
      "second": 3479,
      "soap": 3480,
      "soda": 3481,
      "lifts": 3482,
      "logs": 3483,
      "tights": 3484,
      "mag": 3485,
      "pocket": 3486,
      "fier": 3487,
      "jud": 3488,
      "ull": 3489,
      "larger": 3490,
      "gathers": 3491,
      "snowshoes": 3492,
      "tux": 3493,
      "dives": 3494,
      "handrail": 3495,
      "watched": 3496,
      "mock": 3497,
      "wake": 3498,
      "scouts": 3499,
      "closely": 3500,
      "sunlight": 3501,
      "depart": 3502,
      "bicy": 3503,
      "cage": 3504,
      "shorel": 3505,
      "torch": 3506,
      "colla": 3507,
      "joy": 3508,
      "gger": 3509,
      "cheese": 3510,
      "couples": 3511,
      "underwear": 3512,
      "trip": 3513,
      "process": 3514,
      "weap": 3515,
      "crossed": 3516,
      "slic": 3517,
      "explo": 3518,
      "floats": 3519,
      "hut": 3520,
      "huddle": 3521,
      "treat": 3522,
      "passersby": 3523,
      "motorcyclists": 3524,
      "mug": 3525,
      "news": 3526,
      "opens": 3527,
      "even": 3528,
      "dusty": 3529,
      "anges": 3530,
      "turquo": 3531,
      "raining": 3532,
      "teens": 3533,
      "planting": 3534,
      "rapids": 3535,
      "picks": 3536,
      "belong": 3537,
      "lighted": 3538,
      "drawn": 3539,
      "medium": 3540,
      "practices": 3541,
      "cycling": 3542,
      "kayaking": 3543,
      "crouched": 3544,
      "burning": 3545,
      "camping": 3546,
      "supplies": 3547,
      "celebration": 3548,
      "printed": 3549,
      "tackling": 3550,
      "elev": 3551,
      "finished": 3552,
      "khakis": 3553,
      "laundro": 3554,
      "swimsuits": 3555,
      "weather": 3556,
      "suspenders": 3557,
      "magazines": 3558,
      "motorized": 3559,
      "firefighter": 3560,
      "company": 3561,
      "carefully": 3562,
      "traveling": 3563,
      "syn": 3564,
      "fashioned": 3565,
      "washer": 3566,
      "itorium": 3567,
      "salon": 3568,
      "rollerskating": 3569,
      "involved": 3570,
      "parachute": 3571,
      "descent": 3572,
      "location": 3573,
      "ponytail": 3574,
      "pilot": 3575,
      "surgery": 3576,
      "cheek": 3577,
      "focused": 3578,
      "2012": 3579,
      "learning": 3580,
      "adjusting": 3581,
      "creek": 3582,
      "enthusia": 3583,
      "auditorium": 3584,
      "arcade": 3585,
      "john": 3586,
      "injured": 3587,
      "artwork": 3588,
      "department": 3589,
      "shoreline": 3590,
      "turquoise": 3591,
      "laundromat": 3592,
      "00": 3593,
      "ai": 3594,
      "aim": 3595,
      "fic": 3596,
      "floo": 3597,
      "gla": 3598,
      "gap": 3599,
      "ious": 3600,
      "late": 3601,
      "non": 3602,
      "ox": 3603,
      "overs": 3604,
      "ption": 3605,
      "pins": 3606,
      "pops": 3607,
      "ric": 3608,
      "spark": 3609,
      "tread": 3610,
      "valley": 3611,
      "won": 3612,
      "zes": 3613,
      "zens": 3614,
      "inten": 3615,
      "than": 3616,
      "rec": 3617,
      "lean": 3618,
      "leas": 3619,
      "legging": 3620,
      "arri": 3621,
      "hip": 3622,
      "hike": 3623,
      "hiding": 3624,
      "stall": 3625,
      "stilts": 3626,
      "launch": 3627,
      "laden": 3628,
      "ened": 3629,
      "ents": 3630,
      "will": 3631,
      "oranges": 3632,
      "esma": 3633,
      "opter": 3634,
      "ides": 3635,
      "asia": 3636,
      "earphones": 3637,
      "icy": 3638,
      "icopter": 3639,
      "hol": 3640,
      "blood": 3641,
      "racers": 3642,
      "rafting": 3643,
      "blazer": 3644,
      "coast": 3645,
      "fork": 3646,
      "seag": 3647,
      "soon": 3648,
      "buff": 3649,
      "butch": 3650,
      "lobby": 3651,
      "smoo": 3652,
      "walked": 3653,
      "timate": 3654,
      "upward": 3655,
      "pots": 3656,
      "posed": 3657,
      "juggles": 3658,
      "sideways": 3659,
      "single": 3660,
      "ongo": 3661,
      "frozen": 3662,
      "tutu": 3663,
      "divers": 3664,
      "waist": 3665,
      "scien": 3666,
      "workout": 3667,
      "workshop": 3668,
      "america": 3669,
      "headdress": 3670,
      "igning": 3671,
      "goat": 3672,
      "march": 3673,
      "asians": 3674,
      "tenance": 3675,
      "cab": 3676,
      "roadside": 3677,
      "helicopter": 3678,
      "qui": 3679,
      "cute": 3680,
      "tribal": 3681,
      "whom": 3682,
      "creating": 3683,
      "surfs": 3684,
      "canad": 3685,
      "canvas": 3686,
      "shape": 3687,
      "displaying": 3688,
      "displays": 3689,
      "serve": 3690,
      "service": 3691,
      "facility": 3692,
      "interview": 3693,
      "bridesma": 3694,
      "toddlers": 3695,
      "foli": 3696,
      "monitor": 3697,
      "casually": 3698,
      "raption": 3699,
      "numbers": 3700,
      "pads": 3701,
      "belts": 3702,
      "lighting": 3703,
      "hotdog": 3704,
      "rooftop": 3705,
      "washes": 3706,
      "lens": 3707,
      "gaze": 3708,
      "gazes": 3709,
      "decorative": 3710,
      "products": 3711,
      "special": 3712,
      "candle": 3713,
      "harvest": 3714,
      "atory": 3715,
      "cloud": 3716,
      "celebrate": 3717,
      "contraption": 3718,
      "trashcan": 3719,
      "furry": 3720,
      "finishing": 3721,
      "brother": 3722,
      "stepping": 3723,
      "sprayed": 3724,
      "score": 3725,
      "approaches": 3726,
      "chalkboard": 3727,
      "branches": 3728,
      "speaker": 3729,
      "involving": 3730,
      "chopping": 3731,
      "maintenance": 3732,
      "morning": 3733,
      "located": 3734,
      "driveway": 3735,
      "pillar": 3736,
      "twir": 3737,
      "peeking": 3738,
      "embracing": 3739,
      "nurses": 3740,
      "silhouette": 3741,
      "gallery": 3742,
      "amidst": 3743,
      "activity": 3744,
      "interesting": 3745,
      "stroke": 3746,
      "quickly": 3747,
      "incline": 3748,
      "mexican": 3749,
      "portrait": 3750,
      "transportation": 3751,
      "bouquet": 3752,
      "quarterback": 3753,
      "experiment": 3754,
      "retrie": 3755,
      "collared": 3756,
      "leggings": 3757,
      "aid": 3758,
      "ailing": 3759,
      "aband": 3760,
      "broad": 3761,
      "bbles": 3762,
      "cident": 3763,
      "dep": 3764,
      "esta": 3765,
      "east": 3766,
      "find": 3767,
      "french": 3768,
      "gie": 3769,
      "harm": 3770,
      "io": 3771,
      "ists": 3772,
      "kilt": 3773,
      "mill": 3774,
      "rin": 3775,
      "rit": 3776,
      "ske": 3777,
      "tress": 3778,
      "trench": 3779,
      "ute": 3780,
      "vine": 3781,
      "ination": 3782,
      "really": 3783,
      "releas": 3784,
      "lets": 3785,
      "lego": 3786,
      "arrange": 3787,
      "outing": 3788,
      "ouble": 3789,
      "ata": 3790,
      "atm": 3791,
      "ston": 3792,
      "state": 3793,
      "sturing": 3794,
      "aling": 3795,
      "almost": 3796,
      "iss": 3797,
      "wig": 3798,
      "cker": 3799,
      "ldo": 3800,
      "orm": 3801,
      "chron": 3802,
      "cherry": 3803,
      "ety": 3804,
      "iden": 3805,
      "peer": 3806,
      "grad": 3807,
      "tell": 3808,
      "menu": 3809,
      "unhappy": 3810,
      "gesturing": 3811,
      "blish": 3812,
      "elmo": 3813,
      "adju": 3814,
      "mechan": 3815,
      "beret": 3816,
      "shine": 3817,
      "shiny": 3818,
      "rifle": 3819,
      "cola": 3820,
      "ford": 3821,
      "fort": 3822,
      "mpy": 3823,
      "sees": 3824,
      "tags": 3825,
      "lim": 3826,
      "built": 3827,
      "love": 3828,
      "brass": 3829,
      "tiled": 3830,
      "tips": 3831,
      "tively": 3832,
      "upset": 3833,
      "aprons": 3834,
      "ney": 3835,
      "need": 3836,
      "jumped": 3837,
      "ular": 3838,
      "ulls": 3839,
      "indu": 3840,
      "jumper": 3841,
      "pale": 3842,
      "crates": 3843,
      "concentr": 3844,
      "dive": 3845,
      "footed": 3846,
      "handed": 3847,
      "crowds": 3848,
      "wai": 3849,
      "scra": 3850,
      "scent": 3851,
      "hawai": 3852,
      "staff": 3853,
      "spring": 3854,
      "jeep": 3855,
      "guide": 3856,
      "mark": 3857,
      "flan": 3858,
      "bends": 3859,
      "stump": 3860,
      "cakes": 3861,
      "colate": 3862,
      "jogs": 3863,
      "unique": 3864,
      "chewing": 3865,
      "ational": 3866,
      "sawing": 3867,
      "painter": 3868,
      "tripod": 3869,
      "types": 3870,
      "weigh": 3871,
      "ague": 3872,
      "sleep": 3873,
      "fishes": 3874,
      "noon": 3875,
      "illumin": 3876,
      "hills": 3877,
      "highchair": 3878,
      "sive": 3879,
      "ducks": 3880,
      "cellphones": 3881,
      "gious": 3882,
      "pathway": 3883,
      "turban": 3884,
      "raincoat": 3885,
      "boxer": 3886,
      "wheeler": 3887,
      "classic": 3888,
      "stoop": 3889,
      "monkey": 3890,
      "afternoon": 3891,
      "tooth": 3892,
      "scenic": 3893,
      "diner": 3894,
      "writes": 3895,
      "breakdancing": 3896,
      "brushes": 3897,
      "displayed": 3898,
      "gazing": 3899,
      "checkers": 3900,
      "circular": 3901,
      "sledding": 3902,
      "gardening": 3903,
      "decorations": 3904,
      "operates": 3905,
      "pencil": 3906,
      "clouds": 3907,
      "farmers": 3908,
      "heavily": 3909,
      "dragging": 3910,
      "images": 3911,
      "booths": 3912,
      "known": 3913,
      "cleaner": 3914,
      "stacked": 3915,
      "chocolate": 3916,
      "containing": 3917,
      "pinata": 3918,
      "bathtub": 3919,
      "strolls": 3920,
      "sidel": 3921,
      "designs": 3922,
      "protesters": 3923,
      "recording": 3924,
      "grabs": 3925,
      "grabbing": 3926,
      "vices": 3927,
      "bouncing": 3928,
      "chopsticks": 3929,
      "olympic": 3930,
      "muzzle": 3931,
      "muzzled": 3932,
      "begins": 3933,
      "dumpster": 3934,
      "pattern": 3935,
      "sparring": 3936,
      "strapped": 3937,
      "awning": 3938,
      "tournament": 3939,
      "bulldo": 3940,
      "parasailing": 3941,
      "pumpkin": 3942,
      "employees": 3943,
      "sorting": 3944,
      "attractive": 3945,
      "digital": 3946,
      "squee": 3947,
      "sniffing": 3948,
      "featuring": 3949,
      "butterfly": 3950,
      "task": 3951,
      "horizon": 3952,
      "potato": 3953,
      "religious": 3954,
      "bicycling": 3955,
      "belongings": 3956,
      "synchron": 3957,
      "quiet": 3958,
      "canadian": 3959,
      "foliage": 3960,
      "establish": 3961,
      "gradu": 3962,
      "adjusts": 3963,
      "11": 3964,
      "chis": 3965,
      "citi": 3966,
      "cial": 3967,
      "ded": 3968,
      "ders": 3969,
      "dam": 3970,
      "een": 3971,
      "eag": 3972,
      "elabor": 3973,
      "fer": 3974,
      "hon": 3975,
      "had": 3976,
      "hallow": 3977,
      "kim": 3978,
      "lin": 3979,
      "lish": 3980,
      "osa": 3981,
      "powd": 3982,
      "pans": 3983,
      "sar": 3984,
      "sion": 3985,
      "signing": 3986,
      "tying": 3987,
      "when": 3988,
      "inner": 3989,
      "anti": 3990,
      "thou": 3991,
      "regi": 3992,
      "erly": 3993,
      "lem": 3994,
      "level": 3995,
      "league": 3996,
      "manne": 3997,
      "histor": 3998,
      "attered": 3999,
      "stay": 4000,
      "strolling": 4001,
      "stination": 4002,
      "alle": 4003,
      "labe": 4004,
      "toi": 4005,
      "oring": 4006,
      "challen": 4007,
      "ets": 4008,
      "opoly": 4009,
      "ider": 4010,
      "ount": 4011,
      "peers": 4012,
      "asc": 4013,
      "plain": 4014,
      "icans": 4015,
      "walmart": 4016,
      "redhead": 4017,
      "rabb": 4018,
      "beat": 4019,
      "because": 4020,
      "shelf": 4021,
      "hispan": 4022,
      "coca": 4023,
      "commer": 4024,
      "mple": 4025,
      "secu": 4026,
      "chip": 4027,
      "chief": 4028,
      "lion": 4029,
      "lively": 4030,
      "buried": 4031,
      "amount": 4032,
      "logo": 4033,
      "downhill": 4034,
      "brit": 4035,
      "brant": 4036,
      "times": 4037,
      "somewhere": 4038,
      "ult": 4039,
      "inder": 4040,
      "india": 4041,
      "skills": 4042,
      "bie": 4043,
      "babies": 4044,
      "conf": 4045,
      "conne": 4046,
      "elds": 4047,
      "boarding": 4048,
      "lasso": 4049,
      "build": 4050,
      "accident": 4051,
      "scrubs": 4052,
      "fields": 4053,
      "split": 4054,
      "spins": 4055,
      "marsh": 4056,
      "marble": 4057,
      "destination": 4058,
      "tender": 4059,
      "midst": 4060,
      "stuck": 4061,
      "cabin": 4062,
      "foods": 4063,
      "drant": 4064,
      "strial": 4065,
      "stripe": 4066,
      "underground": 4067,
      "purses": 4068,
      "looked": 4069,
      "daytime": 4070,
      "darkened": 4071,
      "bartender": 4072,
      "teammates": 4073,
      "sure": 4074,
      "create": 4075,
      "wheeled": 4076,
      "flash": 4077,
      "canal": 4078,
      "cannon": 4079,
      "trains": 4080,
      "deser": 4081,
      "much": 4082,
      "muscul": 4083,
      "packing": 4084,
      "packed": 4085,
      "package": 4086,
      "skies": 4087,
      "anging": 4088,
      "colorfully": 4089,
      "shaggy": 4090,
      "turtle": 4091,
      "series": 4092,
      "banners": 4093,
      "masks": 4094,
      "itive": 4095,
      "hardwood": 4096,
      "stocking": 4097,
      "monopoly": 4098,
      "cases": 4099,
      "casino": 4100,
      "fountains": 4101,
      "filming": 4102,
      "carrier": 4103,
      "forested": 4104,
      "doesn": 4105,
      "batman": 4106,
      "kisses": 4107,
      "bedroom": 4108,
      "stem": 4109,
      "vending": 4110,
      "vibrant": 4111,
      "tching": 4112,
      "arium": 4113,
      "clutte": 4114,
      "homemade": 4115,
      "photographers": 4116,
      "shower": 4117,
      "protect": 4118,
      "cigar": 4119,
      "dinosa": 4120,
      "variety": 4121,
      "waiter": 4122,
      "barefooted": 4123,
      "draws": 4124,
      "hammock": 4125,
      "lent": 4126,
      "artists": 4127,
      "splashed": 4128,
      "directing": 4129,
      "sprays": 4130,
      "zzy": 4131,
      "camels": 4132,
      "stretches": 4133,
      "canoes": 4134,
      "product": 4135,
      "clowns": 4136,
      "campfire": 4137,
      "support": 4138,
      "cheerleading": 4139,
      "tackled": 4140,
      "notes": 4141,
      "loaded": 4142,
      "draped": 4143,
      "stringed": 4144,
      "complex": 4145,
      "completed": 4146,
      "hammering": 4147,
      "napping": 4148,
      "pours": 4149,
      "cries": 4150,
      "skinny": 4151,
      "speeding": 4152,
      "spotlight": 4153,
      "companion": 4154,
      "figures": 4155,
      "transit": 4156,
      "jockeys": 4157,
      "sailboat": 4158,
      "victory": 4159,
      "onica": 4160,
      "parent": 4161,
      "mixer": 4162,
      "hydrant": 4163,
      "gesture": 4164,
      "crashing": 4165,
      "aqua": 4166,
      "aquarium": 4167,
      "mounta": 4168,
      "surgical": 4169,
      "nails": 4170,
      "laboratory": 4171,
      "conductor": 4172,
      "silhouet": 4173,
      "columns": 4174,
      "employee": 4175,
      "european": 4176,
      "notebook": 4177,
      "waterskiing": 4178,
      "feather": 4179,
      "congreg": 4180,
      "projector": 4181,
      "followed": 4182,
      "warehouse": 4183,
      "xyl": 4184,
      "acrobatic": 4185,
      "sponge": 4186,
      "lanterns": 4187,
      "navigates": 4188,
      "communic": 4189,
      "vintage": 4190,
      "crayons": 4191,
      "easel": 4192,
      "murky": 4193,
      "unusual": 4194,
      "beads": 4195,
      "judges": 4196,
      "tuxed": 4197,
      "bridesmaids": 4198,
      "abandoned": 4199,
      "harmonica": 4200,
      "industrial": 4201,
      "hawaiian": 4202,
      "flannel": 4203,
      "toothbrush": 4204,
      "squeezing": 4205,
      "synchronized": 4206,
      "establishment": 4207,
      "halloween": 4208,
      "mannequ": 4209,
      "labeled": 4210,
      "hispanic": 4211,
      "commercial": 4212,
      "muscular": 4213,
      "cluttered": 4214,
      "dinosaur": 4215,
      "10": 4216,
      "ado": 4217,
      "award": 4218,
      "await": 4219,
      "brace": 4220,
      "bbling": 4221,
      "bongo": 4222,
      "clar": 4223,
      "dess": 4224,
      "fill": 4225,
      "gth": 4226,
      "hour": 4227,
      "hine": 4228,
      "hus": 4229,
      "jenga": 4230,
      "lining": 4231,
      "mit": 4232,
      "mbo": 4233,
      "mad": 4234,
      "mowing": 4235,
      "mitten": 4236,
      "noo": 4237,
      "nun": 4238,
      "nine": 4239,
      "nude": 4240,
      "oil": 4241,
      "otic": 4242,
      "roo": 4243,
      "rise": 4244,
      "sear": 4245,
      "swa": 4246,
      "slip": 4247,
      "tw": 4248,
      "ttes": 4249,
      "ured": 4250,
      "ums": 4251,
      "vent": 4252,
      "viron": 4253,
      "wrist": 4254,
      "year": 4255,
      "zone": 4256,
      "zard": 4257,
      "zip": 4258,
      "int": 4259,
      "iner": 4260,
      "ank": 4261,
      "any": 4262,
      "ingred": 4263,
      "though": 4264,
      "thick": 4265,
      "return": 4266,
      "erness": 4267,
      "leop": 4268,
      "legged": 4269,
      "thedr": 4270,
      "stal": 4271,
      "alt": 4272,
      "ised": 4273,
      "laid": 4274,
      "environ": 4275,
      "opy": 4276,
      "ided": 4277,
      "gry": 4278,
      "grown": 4279,
      "earth": 4280,
      "alling": 4281,
      "dol": 4282,
      "hoe": 4283,
      "hore": 4284,
      "holid": 4285,
      "blower": 4286,
      "adow": 4287,
      "ramid": 4288,
      "rafts": 4289,
      "memor": 4290,
      "meadow": 4291,
      "beers": 4292,
      "beating": 4293,
      "shack": 4294,
      "rip": 4295,
      "riers": 4296,
      "coll": 4297,
      "seating": 4298,
      "selec": 4299,
      "vering": 4300,
      "frying": 4301,
      "licking": 4302,
      "bucks": 4303,
      "lock": 4304,
      "tiger": 4305,
      "upwards": 4306,
      "maj": 4307,
      "mail": 4308,
      "ultimate": 4309,
      "paralle": 4310,
      "greet": 4311,
      "backseat": 4312,
      "rugs": 4313,
      "rustic": 4314,
      "bled": 4315,
      "snork": 4316,
      "feature": 4317,
      "crops": 4318,
      "bathe": 4319,
      "cons": 4320,
      "confet": 4321,
      "tured": 4322,
      "tubes": 4323,
      "termin": 4324,
      "dyed": 4325,
      "scrap": 4326,
      "scopes": 4327,
      "workman": 4328,
      "tablecloth": 4329,
      "topless": 4330,
      "spir": 4331,
      "sprin": 4332,
      "sunbathing": 4333,
      "marked": 4334,
      "marker": 4335,
      "usa": 4336,
      "mentary": 4337,
      "bend": 4338,
      "cameraman": 4339,
      "woodland": 4340,
      "ieval": 4341,
      "cave": 4342,
      "casting": 4343,
      "cathedr": 4344,
      "collie": 4345,
      "ended": 4346,
      "univers": 4347,
      "drying": 4348,
      "antly": 4349,
      "striking": 4350,
      "sage": 4351,
      "purchase": 4352,
      "mountainous": 4353,
      "typing": 4354,
      "auto": 4355,
      "stores": 4356,
      "were": 4357,
      "crosscountry": 4358,
      "exiting": 4359,
      "flock": 4360,
      "rolls": 4361,
      "mouths": 4362,
      "cler": 4363,
      "surfers": 4364,
      "fireworks": 4365,
      "bows": 4366,
      "desks": 4367,
      "passer": 4368,
      "sip": 4369,
      "polish": 4370,
      "disc": 4371,
      "tracksuit": 4372,
      "turkey": 4373,
      "facial": 4374,
      "starring": 4375,
      "mascot": 4376,
      "policemen": 4377,
      "chased": 4378,
      "temple": 4379,
      "snowboards": 4380,
      "fog": 4381,
      "foggy": 4382,
      "pointed": 4383,
      "monk": 4384,
      "monitors": 4385,
      "apples": 4386,
      "prepared": 4387,
      "mattress": 4388,
      "battle": 4389,
      "skyline": 4390,
      "skydiving": 4391,
      "rails": 4392,
      "squats": 4393,
      "lands": 4394,
      "fetch": 4395,
      "picket": 4396,
      "written": 4397,
      "barely": 4398,
      "hotdogs": 4399,
      "medieval": 4400,
      "cigarettes": 4401,
      "wrestlers": 4402,
      "ize": 4403,
      "resort": 4404,
      "visor": 4405,
      "railings": 4406,
      "berry": 4407,
      "dryer": 4408,
      "burgers": 4409,
      "ients": 4410,
      "harbor": 4411,
      "patrons": 4412,
      "examine": 4413,
      "videota": 4414,
      "cheerleader": 4415,
      "piercing": 4416,
      "prints": 4417,
      "seafood": 4418,
      "sculptures": 4419,
      "strings": 4420,
      "elementary": 4421,
      "lush": 4422,
      "rolled": 4423,
      "completing": 4424,
      "framed": 4425,
      "pyramid": 4426,
      "storm": 4427,
      "puppet": 4428,
      "peaks": 4429,
      "speeds": 4430,
      "reception": 4431,
      "designed": 4432,
      "advertisements": 4433,
      "daily": 4434,
      "warming": 4435,
      "travels": 4436,
      "grinds": 4437,
      "barbecu": 4438,
      "tarp": 4439,
      "trotting": 4440,
      "wilderness": 4441,
      "supermarket": 4442,
      "rollerskates": 4443,
      "doctors": 4444,
      "snacks": 4445,
      "barrels": 4446,
      "pigeon": 4447,
      "occup": 4448,
      "shawl": 4449,
      "necklaces": 4450,
      "dolls": 4451,
      "begin": 4452,
      "exercising": 4453,
      "presents": 4454,
      "ordering": 4455,
      "greyhounds": 4456,
      "trophy": 4457,
      "extre": 4458,
      "mounted": 4459,
      "exhib": 4460,
      "newlywed": 4461,
      "dotted": 4462,
      "condition": 4463,
      "conducting": 4464,
      "fellow": 4465,
      "punching": 4466,
      "column": 4467,
      "activities": 4468,
      "demonstration": 4469,
      "cotton": 4470,
      "season": 4471,
      "fuzzy": 4472,
      "maybe": 4473,
      "bounds": 4474,
      "miniature": 4475,
      "named": 4476,
      "blurred": 4477,
      "adorned": 4478,
      "character": 4479,
      "characters": 4480,
      "vacuuming": 4481,
      "axe": 4482,
      "crawls": 4483,
      "fedora": 4484,
      "pirate": 4485,
      "slacks": 4486,
      "convention": 4487,
      "poodle": 4488,
      "radio": 4489,
      "watermelons": 4490,
      "accompanied": 4491,
      "defender": 4492,
      "bananas": 4493,
      "mcdonald": 4494,
      "measuring": 4495,
      "separate": 4496,
      "enthusiastic": 4497,
      "treadmill": 4498,
      "wonder": 4499,
      "buffet": 4500,
      "scientist": 4501,
      "identi": 4502,
      "illuminated": 4503,
      "sidelines": 4504,
      "kimon": 4505,
      "british": 4506,
      "mountainto": 4507,
      "silhouetted": 4508,
      "xylophone": 4509,
      "husband": 4510,
      "mitt": 4511,
      "ingredients": 4512,
      "leopard": 4513,
      "environment": 4514,
      "holiday": 4515,
      "confetti": 4516,
      "cathedral": 4517,
      "\",": 4518,
      "aboard": 4519,
      "bon": 4520,
      "bil": 4521,
      "bones": 4522,
      "cco": 4523,
      "cycle": 4524,
      "cash": 4525,
      "civ": 4526,
      "cats": 4527,
      "cession": 4528,
      "det": 4529,
      "drain": 4530,
      "double": 4531,
      "ec": 4532,
      "em": 4533,
      "ere": 4534,
      "est": 4535,
      "elding": 4536,
      "fying": 4537,
      "gn": 4538,
      "gress": 4539,
      "gig": 4540,
      "hunch": 4541,
      "hops": 4542,
      "ku": 4543,
      "kit": 4544,
      "kno": 4545,
      "lon": 4546,
      "moo": 4547,
      "mouse": 4548,
      "nes": 4549,
      "ok": 4550,
      "osk": 4551,
      "olive": 4552,
      "ran": 4553,
      "soup": 4554,
      "sound": 4555,
      "sam": 4556,
      "scr": 4557,
      "sash": 4558,
      "sance": 4559,
      "ula": 4560,
      "ustr": 4561,
      "vor": 4562,
      "wand": 4563,
      "wish": 4564,
      "yon": 4565,
      "zor": 4566,
      "zoo": 4567,
      "zom": 4568,
      "inis": 4569,
      "infl": 4570,
      "information": 4571,
      "anvil": 4572,
      "anci": 4573,
      "inging": 4574,
      "thy": 4575,
      "reg": 4576,
      "erie": 4577,
      "lemon": 4578,
      "attack": 4579,
      "atula": 4580,
      "woven": 4581,
      "alco": 4582,
      "ison": 4583,
      "within": 4584,
      "toe": 4585,
      "chu": 4586,
      "chure": 4587,
      "whis": 4588,
      "whistle": 4589,
      "bob": 4590,
      "asking": 4591,
      "kings": 4592,
      "grip": 4593,
      "dots": 4594,
      "rot": 4595,
      "unte": 4596,
      "unloading": 4597,
      "rag": 4598,
      "raking": 4599,
      "raise": 4600,
      "ravine": 4601,
      "razor": 4602,
      "shouting": 4603,
      "rimmed": 4604,
      "cocon": 4605,
      "tau": 4606,
      "tamb": 4607,
      "talent": 4608,
      "soars": 4609,
      "frown": 4610,
      "lime": 4611,
      "licks": 4612,
      "bud": 4613,
      "bump": 4614,
      "ami": 4615,
      "lovely": 4616,
      "walkers": 4617,
      "brind": 4618,
      "brooms": 4619,
      "tip": 4620,
      "upright": 4621,
      "mac": 4622,
      "polit": 4623,
      "elling": 4624,
      "watering": 4625,
      "somebody": 4626,
      "heal": 4627,
      "ulting": 4628,
      "dressing": 4629,
      "words": 4630,
      "rush": 4631,
      "rusty": 4632,
      "skill": 4633,
      "skull": 4634,
      "jumpsuits": 4635,
      "bib": 4636,
      "rent": 4637,
      "renais": 4638,
      "paci": 4639,
      "cry": 4640,
      "crate": 4641,
      "bak": 4642,
      "bably": 4643,
      "contemp": 4644,
      "snowball": 4645,
      "personnel": 4646,
      "overlook": 4647,
      "mber": 4648,
      "terrier": 4649,
      "ians": 4650,
      "handbag": 4651,
      "handheld": 4652,
      "actor": 4653,
      "accep": 4654,
      "atee": 4655,
      "nearly": 4656,
      "lling": 4657,
      "scant": 4658,
      "scaling": 4659,
      "sciss": 4660,
      "scattered": 4661,
      "haul": 4662,
      "offering": 4663,
      "swan": 4664,
      "trans": 4665,
      "spider": 4666,
      "spatula": 4667,
      "igan": 4668,
      "jewish": 4669,
      "sundress": 4670,
      "sunshine": 4671,
      "goatee": 4672,
      "pub": 4673,
      "puzz": 4674,
      "pushed": 4675,
      "favor": 4676,
      "deer": 4677,
      "devices": 4678,
      "tends": 4679,
      "surge": 4680,
      "shorter": 4681,
      "pedal": 4682,
      "cable": 4683,
      "panse": 4684,
      "ggle": 4685,
      "ggers": 4686,
      "strike": 4687,
      "boogie": 4688,
      "quad": 4689,
      "skateboarders": 4690,
      "climbers": 4691,
      "curi": 4692,
      "saus": 4693,
      "sample": 4694,
      "ently": 4695,
      "pleas": 4696,
      "progress": 4697,
      "probably": 4698,
      "teddy": 4699,
      "barric": 4700,
      "barriers": 4701,
      "muslim": 4702,
      "slow": 4703,
      "slopes": 4704,
      "expanse": 4705,
      "crest": 4706,
      "creates": 4707,
      "piles": 4708,
      "constructed": 4709,
      "husky": 4710,
      "flames": 4711,
      "flaming": 4712,
      "canyon": 4713,
      "armed": 4714,
      "essor": 4715,
      "bowtie": 4716,
      "flowery": 4717,
      "noses": 4718,
      "capped": 4719,
      "mule": 4720,
      "velin": 4721,
      "athers": 4722,
      "evil": 4723,
      "instructor": 4724,
      "floors": 4725,
      "shake": 4726,
      "shingles": 4727,
      "nightclub": 4728,
      "bodysuit": 4729,
      "clothed": 4730,
      "bikinis": 4731,
      "kicked": 4732,
      "riverbank": 4733,
      "stars": 4734,
      "boxers": 4735,
      "submer": 4736,
      "wheelchairs": 4737,
      "volunte": 4738,
      "stern": 4739,
      "affe": 4740,
      "merry": 4741,
      "pray": 4742,
      "plank": 4743,
      "mats": 4744,
      "mature": 4745,
      "proud": 4746,
      "breath": 4747,
      "squad": 4748,
      "clutching": 4749,
      "border": 4750,
      "crafting": 4751,
      "gloved": 4752,
      "miami": 4753,
      "blocking": 4754,
      "grills": 4755,
      "relay": 4756,
      "length": 4757,
      "pitching": 4758,
      "direct": 4759,
      "portable": 4760,
      "champ": 4761,
      "checked": 4762,
      "checkout": 4763,
      "circus": 4764,
      "kiosk": 4765,
      "cardigan": 4766,
      "waterside": 4767,
      "poncho": 4768,
      "burger": 4769,
      "quest": 4770,
      "wraps": 4771,
      "operated": 4772,
      "partici": 4773,
      "hook": 4774,
      "lanes": 4775,
      "minton": 4776,
      "stunts": 4777,
      "microscopes": 4778,
      "drag": 4779,
      "dragon": 4780,
      "sleeves": 4781,
      "professor": 4782,
      "lower": 4783,
      "hearts": 4784,
      "seattle": 4785,
      "brochure": 4786,
      "heavyset": 4787,
      "bunny": 4788,
      "wineglasses": 4789,
      "strollers": 4790,
      "dropping": 4791,
      "scooping": 4792,
      "bottoms": 4793,
      "sprinklers": 4794,
      "sharp": 4795,
      "system": 4796,
      "symbo": 4797,
      "texting": 4798,
      "swords": 4799,
      "fixes": 4800,
      "cier": 4801,
      "beams": 4802,
      "superman": 4803,
      "spots": 4804,
      "relaxes": 4805,
      "excitedly": 4806,
      "ribbons": 4807,
      "occur": 4808,
      "liquor": 4809,
      "popcorn": 4810,
      "knitting": 4811,
      "nurse": 4812,
      "propped": 4813,
      "ceremonial": 4814,
      "completely": 4815,
      "lipstick": 4816,
      "saddle": 4817,
      "vocal": 4818,
      "identical": 4819,
      "javelin": 4820,
      "assisting": 4821,
      "waterskier": 4822,
      "badge": 4823,
      "badminton": 4824,
      "belly": 4825,
      "gowns": 4826,
      "missing": 4827,
      "senior": 4828,
      "feathered": 4829,
      "congregate": 4830,
      "socializing": 4831,
      "expression": 4832,
      "tomatoes": 4833,
      "convenience": 4834,
      "those": 4835,
      "bronco": 4836,
      "briefcase": 4837,
      "latin": 4838,
      "stirring": 4839,
      "assembled": 4840,
      "grasping": 4841,
      "magni": 4842,
      "wakeboard": 4843,
      "weapon": 4844,
      "elevated": 4845,
      "aiming": 4846,
      "glacier": 4847,
      "seagulls": 4848,
      "sooners": 4849,
      "butcher": 4850,
      "smooth": 4851,
      "harvesting": 4852,
      "legos": 4853,
      "arrangement": 4854,
      "seesaw": 4855,
      "bulldozer": 4856,
      "citizens": 4857,
      "damaged": 4858,
      "elaborate": 4859,
      "saris": 4860,
      "thought": 4861,
      "connected": 4862,
      "deserted": 4863,
      "clarin": 4864,
      "dessert": 4865,
      "mittens": 4866,
      "major": 4867,
      "parallel": 4868,
      "features": 4869,
      "university": 4870,
      "mountaintop": 4871,
      "civil": 4872,
      "hunched": 4873,
      "scratch": 4874,
      "ancient": 4875,
      "alcohol": 4876,
      "political": 4877,
      "renaissance": 4878,
      "actors": 4879,
      "scantily": 4880,
      "scissors": 4881,
      "favorite": 4882,
      "!\"": 4883,
      "'.": 4884,
      "aver": 4885,
      "bay": 4886,
      "cen": 4887,
      "cuit": 4888,
      "cows": 4889,
      "cinder": 4890,
      "drun": 4891,
      "deter": 4892,
      "eque": 4893,
      "found": 4894,
      "fills": 4895,
      "gl": 4896,
      "gue": 4897,
      "haps": 4898,
      "ike": 4899,
      "iors": 4900,
      "ipod": 4901,
      "kil": 4902,
      "kly": 4903,
      "kins": 4904,
      "kitten": 4905,
      "kites": 4906,
      "lou": 4907,
      "lli": 4908,
      "mou": 4909,
      "mma": 4910,
      "mind": 4911,
      "mops": 4912,
      "nal": 4913,
      "nder": 4914,
      "oar": 4915,
      "oid": 4916,
      "ota": 4917,
      "pow": 4918,
      "pride": 4919,
      "punk": 4920,
      "sling": 4921,
      "south": 4922,
      "slab": 4923,
      "var": 4924,
      "vig": 4925,
      "want": 4926,
      "xim": 4927,
      "your": 4928,
      "zy": 4929,
      "inspect": 4930,
      "answ": 4931,
      "angry": 4932,
      "thre": 4933,
      "rer": 4934,
      "real": 4935,
      "resp": 4936,
      "rect": 4937,
      "recre": 4938,
      "repor": 4939,
      "rehear": 4940,
      "returns": 4941,
      "era": 4942,
      "eria": 4943,
      "onts": 4944,
      "theme": 4945,
      "arr": 4946,
      "hic": 4947,
      "hift": 4948,
      "atus": 4949,
      "sted": 4950,
      "stride": 4951,
      "states": 4952,
      "wool": 4953,
      "island": 4954,
      "last": 4955,
      "lable": 4956,
      "wiping": 4957,
      "orary": 4958,
      "escape": 4959,
      "chat": 4960,
      "chunk": 4961,
      "iding": 4962,
      "idated": 4963,
      "ared": 4964,
      "pel": 4965,
      "peach": 4966,
      "peak": 4967,
      "pelling": 4968,
      "boss": 4969,
      "asph": 4970,
      "gram": 4971,
      "grima": 4972,
      "early": 4973,
      "earrings": 4974,
      "text": 4975,
      "icature": 4976,
      "robot": 4977,
      "holes": 4978,
      "unfinished": 4979,
      "unknown": 4980,
      "unidenti": 4981,
      "geo": 4982,
      "adles": 4983,
      "admi": 4984,
      "rake": 4985,
      "girlfriend": 4986,
      "shel": 4987,
      "shap": 4988,
      "shines": 4989,
      "shelves": 4990,
      "comic": 4991,
      "sew": 4992,
      "selection": 4993,
      "sored": 4994,
      "solo": 4995,
      "solit": 4996,
      "somb": 4997,
      "solid": 4998,
      "vertic": 4999
    },
    "merges": [
      [
        "i",
        "n"
      ],
      [
        "a",
        "n"
      ],
      [
        "in",
        "g"
      ],
      [
        "t",
        "h"
      ],
      [
        "r",
        "e"
      ],
      [
        "e",
        "r"
      ],
      [
        "o",
        "n"
      ],
      [
        "l",
        "e"
      ],
      [
        "th",
        "e"
      ],
      [
        "m",
        "an"
      ],
      [
        "a",
        "r"
      ],
      [
        "h",
        "i"
      ],
      [
        "o",
        "u"
      ],
      [
        "an",
        "d"
      ],
      [
        "a",
        "t"
      ],
      [
        "s",
        "t"
      ],
      [
        "w",
        "o"
      ],
      [
        "a",
        "l"
      ],
      [
        "i",
        "s"
      ],
      [
        "l",
        "a"
      ],
      [
        "e",
        "n"
      ],
      [
        "o",
        "f"
      ],
      [
        "i",
        "t"
      ],
      [
        "w",
        "i"
      ],
      [
        "o",
        "w"
      ],
      [
        "c",
        "k"
      ],
      [
        "wi",
        "th"
      ],
      [
        "t",
        "o"
      ],
      [
        "l",
        "d"
      ],
      [
        "o",
        "r"
      ],
      [
        "i",
        "r"
      ],
      [
        "e",
        "s"
      ],
      [
        "c",
        "h"
      ],
      [
        "e",
        "t"
      ],
      [
        "o",
        "p"
      ],
      [
        "i",
        "d"
      ],
      [
        "ou",
        "n"
      ],
      [
        "a",
        "re"
      ],
      [
        "w",
        "hi"
      ],
      [
        "p",
        "e"
      ],
      [
        "b",
        "o"
      ],
      [
        "a",
        "s"
      ],
      [
        "k",
        "ing"
      ],
      [
        "g",
        "r"
      ],
      [
        "wo",
        "man"
      ],
      [
        "t",
        "wo"
      ],
      [
        "e",
        "ar"
      ],
      [
        "t",
        "e"
      ],
      [
        "o",
        "o"
      ],
      [
        "p",
        "la"
      ],
      [
        "al",
        "l"
      ],
      [
        "m",
        "en"
      ],
      [
        "e",
        "d"
      ],
      [
        "i",
        "c"
      ],
      [
        "d",
        "o"
      ],
      [
        "op",
        "le"
      ],
      [
        "pe",
        "ople"
      ],
      [
        "pla",
        "y"
      ],
      [
        "r",
        "o"
      ],
      [
        "h",
        "o"
      ],
      [
        "er",
        "s"
      ],
      [
        "u",
        "n"
      ],
      [
        "g",
        "e"
      ],
      [
        "t",
        "ing"
      ],
      [
        "t",
        "s"
      ],
      [
        "s",
        "hi"
      ],
      [
        "b",
        "l"
      ],
      [
        "s",
        "s"
      ],
      [
        "w",
        "al"
      ],
      [
        "w",
        "ear"
      ],
      [
        "re",
        "d"
      ],
      [
        "shi",
        "r"
      ],
      [
        "s",
        "it"
      ],
      [
        "wear",
        "ing"
      ],
      [
        "st",
        "and"
      ],
      [
        "e",
        "l"
      ],
      [
        "a",
        "d"
      ],
      [
        "shir",
        "t"
      ],
      [
        "ow",
        "n"
      ],
      [
        "r",
        "a"
      ],
      [
        "id",
        "e"
      ],
      [
        "oun",
        "g"
      ],
      [
        "y",
        "oung"
      ],
      [
        "g",
        "h"
      ],
      [
        "whi",
        "te"
      ],
      [
        "m",
        "e"
      ],
      [
        "ir",
        "l"
      ],
      [
        "g",
        "irl"
      ],
      [
        "bo",
        "y"
      ],
      [
        "b",
        "e"
      ],
      [
        "s",
        "h"
      ],
      [
        "u",
        "e"
      ],
      [
        "do",
        "g"
      ],
      [
        "b",
        "la"
      ],
      [
        "on",
        "e"
      ],
      [
        "bla",
        "ck"
      ],
      [
        "r",
        "i"
      ],
      [
        "ld",
        "ing"
      ],
      [
        "hi",
        "s"
      ],
      [
        "c",
        "o"
      ],
      [
        "a",
        "ck"
      ],
      [
        "whi",
        "le"
      ],
      [
        "c",
        "e"
      ],
      [
        "f",
        "or"
      ],
      [
        "th",
        "er"
      ],
      [
        "w",
        "at"
      ],
      [
        "ou",
        "p"
      ],
      [
        "bl",
        "ue"
      ],
      [
        "m",
        "p"
      ],
      [
        "s",
        "e"
      ],
      [
        "t",
        "a"
      ],
      [
        "u",
        "r"
      ],
      [
        "s",
        "o"
      ],
      [
        "v",
        "er"
      ],
      [
        "sit",
        "ting"
      ],
      [
        "c",
        "hi"
      ],
      [
        "b",
        "all"
      ],
      [
        "l",
        "oo"
      ],
      [
        "a",
        "ir"
      ],
      [
        "oun",
        "d"
      ],
      [
        "chi",
        "ld"
      ],
      [
        "f",
        "r"
      ],
      [
        "i",
        "l"
      ],
      [
        "l",
        "i"
      ],
      [
        "st",
        "re"
      ],
      [
        "stand",
        "ing"
      ],
      [
        "play",
        "ing"
      ],
      [
        "gr",
        "oup"
      ],
      [
        "b",
        "u"
      ],
      [
        "v",
        "e"
      ],
      [
        "a",
        "m"
      ],
      [
        "l",
        "o"
      ],
      [
        "ar",
        "d"
      ],
      [
        "stre",
        "et"
      ],
      [
        "b",
        "y"
      ],
      [
        "d",
        "own"
      ],
      [
        "ou",
        "t"
      ],
      [
        "re",
        "e"
      ],
      [
        "h",
        "er"
      ],
      [
        "wal",
        "king"
      ],
      [
        "s",
        "m"
      ],
      [
        "on",
        "t"
      ],
      [
        "a",
        "y"
      ],
      [
        "wal",
        "k"
      ],
      [
        "b",
        "r"
      ],
      [
        "t",
        "i"
      ],
      [
        "fr",
        "ont"
      ],
      [
        "u",
        "p"
      ],
      [
        "o",
        "ther"
      ],
      [
        "m",
        "a"
      ],
      [
        "ho",
        "lding"
      ],
      [
        "c",
        "ar"
      ],
      [
        "p",
        "o"
      ],
      [
        "k",
        "e"
      ],
      [
        "a",
        "p"
      ],
      [
        "f",
        "i"
      ],
      [
        "n",
        "e"
      ],
      [
        "el",
        "l"
      ],
      [
        "re",
        "ss"
      ],
      [
        "wat",
        "er"
      ],
      [
        "so",
        "me"
      ],
      [
        "h",
        "e"
      ],
      [
        "j",
        "u"
      ],
      [
        "t",
        "le"
      ],
      [
        "u",
        "l"
      ],
      [
        "d",
        "ress"
      ],
      [
        "s",
        "ide"
      ],
      [
        "wo",
        "r"
      ],
      [
        "r",
        "un"
      ],
      [
        "th",
        "ree"
      ],
      [
        "a",
        "ch"
      ],
      [
        "y",
        "ing"
      ],
      [
        "p",
        "ar"
      ],
      [
        "th",
        "r"
      ],
      [
        "l",
        "it"
      ],
      [
        "g",
        "re"
      ],
      [
        "b",
        "ack"
      ],
      [
        "in",
        "d"
      ],
      [
        "wo",
        "men"
      ],
      [
        "h",
        "at"
      ],
      [
        "r",
        "u"
      ],
      [
        "s",
        "k"
      ],
      [
        "loo",
        "king"
      ],
      [
        "u",
        "it"
      ],
      [
        "gre",
        "en"
      ],
      [
        "ju",
        "mp"
      ],
      [
        "l",
        "ar"
      ],
      [
        "lit",
        "tle"
      ],
      [
        "b",
        "i"
      ],
      [
        "g",
        "a"
      ],
      [
        "re",
        "n"
      ],
      [
        "for",
        "m"
      ],
      [
        "gh",
        "t"
      ],
      [
        "ou",
        "ts"
      ],
      [
        "as",
        "s"
      ],
      [
        "r",
        "id"
      ],
      [
        "b",
        "le"
      ],
      [
        "outs",
        "ide"
      ],
      [
        "c",
        "le"
      ],
      [
        "ou",
        "gh"
      ],
      [
        "s",
        "n"
      ],
      [
        "f",
        "e"
      ],
      [
        "gr",
        "ound"
      ],
      [
        "lar",
        "ge"
      ],
      [
        "p",
        "a"
      ],
      [
        "k",
        "s"
      ],
      [
        "c",
        "r"
      ],
      [
        "o",
        "ld"
      ],
      [
        "s",
        "ing"
      ],
      [
        "thr",
        "ough"
      ],
      [
        "b",
        "a"
      ],
      [
        "on",
        "g"
      ],
      [
        "br",
        "own"
      ],
      [
        "y",
        "ell"
      ],
      [
        "c",
        "on"
      ],
      [
        "sn",
        "ow"
      ],
      [
        "p",
        "ers"
      ],
      [
        "yell",
        "ow"
      ],
      [
        "child",
        "ren"
      ],
      [
        "pers",
        "on"
      ],
      [
        "o",
        "ver"
      ],
      [
        "e",
        "ld"
      ],
      [
        "f",
        "ro"
      ],
      [
        "bo",
        "ard"
      ],
      [
        "la",
        "ss"
      ],
      [
        "m",
        "b"
      ],
      [
        "t",
        "u"
      ],
      [
        "fro",
        "m"
      ],
      [
        "t",
        "er"
      ],
      [
        "the",
        "ir"
      ],
      [
        "i",
        "an"
      ],
      [
        "d",
        "i"
      ],
      [
        "in",
        "to"
      ],
      [
        "l",
        "y"
      ],
      [
        "f",
        "oo"
      ],
      [
        "h",
        "and"
      ],
      [
        "n",
        "ing"
      ],
      [
        "wat",
        "ch"
      ],
      [
        "x",
        "t"
      ],
      [
        "sm",
        "all"
      ],
      [
        "th",
        "ing"
      ],
      [
        "bu",
        "i"
      ],
      [
        "t",
        "ra"
      ],
      [
        "in",
        "k"
      ],
      [
        "bui",
        "lding"
      ],
      [
        "a",
        "c"
      ],
      [
        "m",
        "o"
      ],
      [
        "at",
        "e"
      ],
      [
        "ne",
        "xt"
      ],
      [
        "ow",
        "d"
      ],
      [
        "ou",
        "r"
      ],
      [
        "cr",
        "owd"
      ],
      [
        "n",
        "ear"
      ],
      [
        "j",
        "ack"
      ],
      [
        "dress",
        "ed"
      ],
      [
        "i",
        "on"
      ],
      [
        "l",
        "l"
      ],
      [
        "jack",
        "et"
      ],
      [
        "d",
        "y"
      ],
      [
        "g",
        "lass"
      ],
      [
        "gr",
        "ass"
      ],
      [
        "ma",
        "le"
      ],
      [
        "v",
        "ing"
      ],
      [
        "w",
        "a"
      ],
      [
        "s",
        "c"
      ],
      [
        "rid",
        "ing"
      ],
      [
        "an",
        "ge"
      ],
      [
        "run",
        "ning"
      ],
      [
        "b",
        "as"
      ],
      [
        "h",
        "a"
      ],
      [
        "tu",
        "re"
      ],
      [
        "of",
        "f"
      ],
      [
        "s",
        "w"
      ],
      [
        "wor",
        "k"
      ],
      [
        "c",
        "li"
      ],
      [
        "an",
        "other"
      ],
      [
        "ar",
        "ound"
      ],
      [
        "st",
        "a"
      ],
      [
        "am",
        "er"
      ],
      [
        "e",
        "p"
      ],
      [
        "fi",
        "eld"
      ],
      [
        "t",
        "r"
      ],
      [
        "c",
        "er"
      ],
      [
        "y",
        "cle"
      ],
      [
        "ta",
        "ble"
      ],
      [
        "p",
        "er"
      ],
      [
        "e",
        "at"
      ],
      [
        "c",
        "lo"
      ],
      [
        "side",
        "walk"
      ],
      [
        "t",
        "al"
      ],
      [
        "to",
        "p"
      ],
      [
        "k",
        "et"
      ],
      [
        "s",
        "p"
      ],
      [
        "re",
        "ad"
      ],
      [
        "or",
        "ange"
      ],
      [
        "glass",
        "es"
      ],
      [
        "it",
        "y"
      ],
      [
        "be",
        "ach"
      ],
      [
        "he",
        "ad"
      ],
      [
        "o",
        "re"
      ],
      [
        "in",
        "e"
      ],
      [
        "h",
        "one"
      ],
      [
        "i",
        "g"
      ],
      [
        "ro",
        "ss"
      ],
      [
        "w",
        "ay"
      ],
      [
        "h",
        "air"
      ],
      [
        "h",
        "ind"
      ],
      [
        "j",
        "e"
      ],
      [
        "stand",
        "s"
      ],
      [
        "p",
        "ink"
      ],
      [
        "s",
        "un"
      ],
      [
        "sit",
        "s"
      ],
      [
        "jump",
        "ing"
      ],
      [
        "be",
        "hind"
      ],
      [
        "st",
        "ru"
      ],
      [
        "g",
        "u"
      ],
      [
        "f",
        "ul"
      ],
      [
        "ic",
        "e"
      ],
      [
        "il",
        "ing"
      ],
      [
        "g",
        "o"
      ],
      [
        "p",
        "u"
      ],
      [
        "p",
        "ic"
      ],
      [
        "par",
        "k"
      ],
      [
        "d",
        "er"
      ],
      [
        "ta",
        "in"
      ],
      [
        "bi",
        "ke"
      ],
      [
        "m",
        "ar"
      ],
      [
        "do",
        "or"
      ],
      [
        "i",
        "ck"
      ],
      [
        "back",
        "ground"
      ],
      [
        "f",
        "a"
      ],
      [
        "d",
        "e"
      ],
      [
        "as",
        "ian"
      ],
      [
        "on",
        "d"
      ],
      [
        "c",
        "ity"
      ],
      [
        "u",
        "s"
      ],
      [
        "men",
        "t"
      ],
      [
        "t",
        "en"
      ],
      [
        "w",
        "all"
      ],
      [
        "ro",
        "ck"
      ],
      [
        "girl",
        "s"
      ],
      [
        "m",
        "s"
      ],
      [
        "b",
        "ic"
      ],
      [
        "o",
        "d"
      ],
      [
        "d",
        "an"
      ],
      [
        "play",
        "er"
      ],
      [
        "an",
        "s"
      ],
      [
        "pic",
        "ture"
      ],
      [
        "f",
        "l"
      ],
      [
        "per",
        "form"
      ],
      [
        "s",
        "ur"
      ],
      [
        "loo",
        "ks"
      ],
      [
        "d",
        "le"
      ],
      [
        "b",
        "en"
      ],
      [
        "c",
        "amer"
      ],
      [
        "oo",
        "l"
      ],
      [
        "m",
        "et"
      ],
      [
        "v",
        "es"
      ],
      [
        "ti",
        "on"
      ],
      [
        "dog",
        "s"
      ],
      [
        "f",
        "our"
      ],
      [
        "sh",
        "or"
      ],
      [
        "g",
        "uit"
      ],
      [
        "guit",
        "ar"
      ],
      [
        "r",
        "op"
      ],
      [
        "th",
        "at"
      ],
      [
        "ver",
        "al"
      ],
      [
        "camer",
        "a"
      ],
      [
        "se",
        "veral"
      ],
      [
        "pe",
        "d"
      ],
      [
        "old",
        "er"
      ],
      [
        "wo",
        "od"
      ],
      [
        "m",
        "id"
      ],
      [
        "s",
        "uit"
      ],
      [
        "g",
        "et"
      ],
      [
        "i",
        "e"
      ],
      [
        "oun",
        "tain"
      ],
      [
        "ir",
        "t"
      ],
      [
        "so",
        "c"
      ],
      [
        "st",
        "u"
      ],
      [
        "ho",
        "ld"
      ],
      [
        "c",
        "a"
      ],
      [
        "tal",
        "king"
      ],
      [
        "s",
        "ho"
      ],
      [
        "to",
        "r"
      ],
      [
        "some",
        "thing"
      ],
      [
        "la",
        "dy"
      ],
      [
        "c",
        "ing"
      ],
      [
        "bl",
        "ond"
      ],
      [
        "f",
        "f"
      ],
      [
        "boy",
        "s"
      ],
      [
        "l",
        "ing"
      ],
      [
        "p",
        "an"
      ],
      [
        "oo",
        "m"
      ],
      [
        "soc",
        "cer"
      ],
      [
        "co",
        "l"
      ],
      [
        "foo",
        "d"
      ],
      [
        "al",
        "ong"
      ],
      [
        "ro",
        "ad"
      ],
      [
        "walk",
        "s"
      ],
      [
        "gu",
        "y"
      ],
      [
        "b",
        "ri"
      ],
      [
        "is",
        "h"
      ],
      [
        "bu",
        "s"
      ],
      [
        "wor",
        "king"
      ],
      [
        "c",
        "t"
      ],
      [
        "h",
        "el"
      ],
      [
        "sk",
        "ate"
      ],
      [
        "j",
        "o"
      ],
      [
        "to",
        "ge"
      ],
      [
        "toge",
        "ther"
      ],
      [
        "gr",
        "ay"
      ],
      [
        "g",
        "g"
      ],
      [
        "h",
        "or"
      ],
      [
        "sm",
        "iling"
      ],
      [
        "en",
        "d"
      ],
      [
        "un",
        "i"
      ],
      [
        "le",
        "s"
      ],
      [
        "ch",
        "e"
      ],
      [
        "bic",
        "ycle"
      ],
      [
        "k",
        "id"
      ],
      [
        "k",
        "es"
      ],
      [
        "ig",
        "n"
      ],
      [
        "d",
        "r"
      ],
      [
        "e",
        "y"
      ],
      [
        "play",
        "s"
      ],
      [
        "ga",
        "me"
      ],
      [
        "h",
        "as"
      ],
      [
        "an",
        "t"
      ],
      [
        "st",
        "ri"
      ],
      [
        "co",
        "mp"
      ],
      [
        "bo",
        "o"
      ],
      [
        "ben",
        "ch"
      ],
      [
        "p",
        "re"
      ],
      [
        "q",
        "u"
      ],
      [
        "uni",
        "form"
      ],
      [
        "it",
        "s"
      ],
      [
        "s",
        "and"
      ],
      [
        "le",
        "d"
      ],
      [
        "s",
        "wi"
      ],
      [
        "hold",
        "s"
      ],
      [
        "at",
        "ion"
      ],
      [
        "foo",
        "t"
      ],
      [
        "skate",
        "board"
      ],
      [
        "fa",
        "ce"
      ],
      [
        "c",
        "tion"
      ],
      [
        "at",
        "ch"
      ],
      [
        "car",
        "r"
      ],
      [
        "pan",
        "ts"
      ],
      [
        "cli",
        "mb"
      ],
      [
        "c",
        "u"
      ],
      [
        "hi",
        "m"
      ],
      [
        "ch",
        "air"
      ],
      [
        "c",
        "oup"
      ],
      [
        "m",
        "m"
      ],
      [
        "s",
        "a"
      ],
      [
        "s",
        "pe"
      ],
      [
        "pa",
        "in"
      ],
      [
        "r",
        "oom"
      ],
      [
        "d",
        "irt"
      ],
      [
        "un",
        "der"
      ],
      [
        "shor",
        "ts"
      ],
      [
        "sta",
        "ge"
      ],
      [
        "p",
        "ur"
      ],
      [
        "p",
        "ing"
      ],
      [
        "u",
        "mb"
      ],
      [
        "bo",
        "at"
      ],
      [
        "carr",
        "ying"
      ],
      [
        "ba",
        "by"
      ],
      [
        "coup",
        "le"
      ],
      [
        "en",
        "t"
      ],
      [
        "p",
        "l"
      ],
      [
        "b",
        "and"
      ],
      [
        "o",
        "l"
      ],
      [
        "the",
        "m"
      ],
      [
        "fe",
        "male"
      ],
      [
        "g",
        "s"
      ],
      [
        "s",
        "et"
      ],
      [
        "bas",
        "e"
      ],
      [
        "ra",
        "ce"
      ],
      [
        "t",
        "an"
      ],
      [
        "t",
        "ri"
      ],
      [
        "out",
        "door"
      ],
      [
        "t",
        "ree"
      ],
      [
        "loo",
        "k"
      ],
      [
        "d",
        "ay"
      ],
      [
        "sh",
        "op"
      ],
      [
        "d",
        "ar"
      ],
      [
        "m",
        "ic"
      ],
      [
        "p",
        "le"
      ],
      [
        "m",
        "ountain"
      ],
      [
        "p",
        "ro"
      ],
      [
        "l",
        "ong"
      ],
      [
        "co",
        "at"
      ],
      [
        "p",
        "ool"
      ],
      [
        "bas",
        "ket"
      ],
      [
        "ta",
        "king"
      ],
      [
        "ow",
        "ing"
      ],
      [
        "p",
        "hone"
      ],
      [
        "s",
        "ign"
      ],
      [
        "dar",
        "k"
      ],
      [
        "e",
        "ach"
      ],
      [
        "t",
        "ow"
      ],
      [
        "mid",
        "dle"
      ],
      [
        "te",
        "d"
      ],
      [
        "b",
        "ar"
      ],
      [
        "do",
        "ing"
      ],
      [
        "c",
        "or"
      ],
      [
        "p",
        "ho"
      ],
      [
        "t",
        "y"
      ],
      [
        "pho",
        "to"
      ],
      [
        "te",
        "am"
      ],
      [
        "watch",
        "ing"
      ],
      [
        "ac",
        "ross"
      ],
      [
        "the",
        "re"
      ],
      [
        "it",
        "ing"
      ],
      [
        "ic",
        "an"
      ],
      [
        "a",
        "u"
      ],
      [
        "je",
        "ans"
      ],
      [
        "are",
        "a"
      ],
      [
        "ou",
        "th"
      ],
      [
        "w",
        "ho"
      ],
      [
        "st",
        "ore"
      ],
      [
        "f",
        "ore"
      ],
      [
        "jump",
        "s"
      ],
      [
        "m",
        "us"
      ],
      [
        "w",
        "e"
      ],
      [
        "hand",
        "s"
      ],
      [
        "c",
        "ross"
      ],
      [
        "s",
        "l"
      ],
      [
        "s",
        "u"
      ],
      [
        "hel",
        "met"
      ],
      [
        "hor",
        "se"
      ],
      [
        "e",
        "x"
      ],
      [
        "f",
        "lo"
      ],
      [
        "en",
        "ce"
      ],
      [
        "n",
        "i"
      ],
      [
        "w",
        "ind"
      ],
      [
        "to",
        "y"
      ],
      [
        "st",
        "s"
      ],
      [
        "perform",
        "ing"
      ],
      [
        "ro",
        "ll"
      ],
      [
        "sw",
        "ing"
      ],
      [
        "eat",
        "ing"
      ],
      [
        "mus",
        "ic"
      ],
      [
        "base",
        "ball"
      ],
      [
        "mo",
        "tor"
      ],
      [
        "col",
        "or"
      ],
      [
        "be",
        "ing"
      ],
      [
        "sw",
        "eat"
      ],
      [
        "stri",
        "ped"
      ],
      [
        "foot",
        "ball"
      ],
      [
        "ur",
        "ing"
      ],
      [
        "a",
        "g"
      ],
      [
        "c",
        "re"
      ],
      [
        "u",
        "sing"
      ],
      [
        "w",
        "he"
      ],
      [
        "m",
        "outh"
      ],
      [
        "s",
        "es"
      ],
      [
        "re",
        "l"
      ],
      [
        "kid",
        "s"
      ],
      [
        "a",
        "b"
      ],
      [
        "c",
        "l"
      ],
      [
        "man",
        "y"
      ],
      [
        "d",
        "ing"
      ],
      [
        "i",
        "red"
      ],
      [
        "s",
        "le"
      ],
      [
        "ad",
        "ul"
      ],
      [
        "it",
        "ch"
      ],
      [
        "pur",
        "ple"
      ],
      [
        "mic",
        "rop"
      ],
      [
        "p",
        "i"
      ],
      [
        "li",
        "ght"
      ],
      [
        "con",
        "stru"
      ],
      [
        "h",
        "u"
      ],
      [
        "ck",
        "s"
      ],
      [
        "at",
        "ing"
      ],
      [
        "sur",
        "f"
      ],
      [
        "f",
        "la"
      ],
      [
        "th",
        "is"
      ],
      [
        "c",
        "an"
      ],
      [
        "ha",
        "ired"
      ],
      [
        "tow",
        "ard"
      ],
      [
        "fi",
        "re"
      ],
      [
        "n",
        "is"
      ],
      [
        "en",
        "jo"
      ],
      [
        "tra",
        "in"
      ],
      [
        "o",
        "b"
      ],
      [
        "ar",
        "m"
      ],
      [
        "es",
        "s"
      ],
      [
        "po",
        "sing"
      ],
      [
        "ap",
        "er"
      ],
      [
        "run",
        "s"
      ],
      [
        "ten",
        "nis"
      ],
      [
        "wind",
        "ow"
      ],
      [
        "n",
        "a"
      ],
      [
        "read",
        "ing"
      ],
      [
        "play",
        "ers"
      ],
      [
        "sun",
        "glasses"
      ],
      [
        "constru",
        "ction"
      ],
      [
        "t",
        "ru"
      ],
      [
        "u",
        "m"
      ],
      [
        "n",
        "er"
      ],
      [
        "swi",
        "mm"
      ],
      [
        "d",
        "ri"
      ],
      [
        "clo",
        "thing"
      ],
      [
        "b",
        "ow"
      ],
      [
        "st",
        "ick"
      ],
      [
        "basket",
        "ball"
      ],
      [
        "microp",
        "hone"
      ],
      [
        "as",
        "h"
      ],
      [
        "ce",
        "an"
      ],
      [
        "ve",
        "red"
      ],
      [
        "pa",
        "st"
      ],
      [
        "fl",
        "ow"
      ],
      [
        "f",
        "ish"
      ],
      [
        "o",
        "cean"
      ],
      [
        "d",
        "es"
      ],
      [
        "t",
        "re"
      ],
      [
        "ad",
        "e"
      ],
      [
        "sh",
        "e"
      ],
      [
        "co",
        "vered"
      ],
      [
        "eld",
        "er"
      ],
      [
        "c",
        "atch"
      ],
      [
        "d",
        "uring"
      ],
      [
        "p",
        "ass"
      ],
      [
        "t",
        "ting"
      ],
      [
        "in",
        "st"
      ],
      [
        "work",
        "ers"
      ],
      [
        "motor",
        "c"
      ],
      [
        "n",
        "o"
      ],
      [
        "ou",
        "ch"
      ],
      [
        "watch",
        "es"
      ],
      [
        "bri",
        "ght"
      ],
      [
        "climb",
        "ing"
      ],
      [
        "re",
        "sta"
      ],
      [
        "ba",
        "g"
      ],
      [
        "dan",
        "cing"
      ],
      [
        "resta",
        "ur"
      ],
      [
        "a",
        "ga"
      ],
      [
        "il",
        "l"
      ],
      [
        "b",
        "al"
      ],
      [
        "c",
        "ap"
      ],
      [
        "m",
        "u"
      ],
      [
        "hi",
        "ll"
      ],
      [
        "elder",
        "ly"
      ],
      [
        "restaur",
        "ant"
      ],
      [
        "r",
        "ound"
      ],
      [
        "v",
        "el"
      ],
      [
        "hi",
        "gh"
      ],
      [
        "out",
        "f"
      ],
      [
        "aga",
        "inst"
      ],
      [
        "p",
        "ack"
      ],
      [
        "s",
        "i"
      ],
      [
        "le",
        "y"
      ],
      [
        "sm",
        "i"
      ],
      [
        "a",
        "th"
      ],
      [
        "at",
        "ed"
      ],
      [
        "shir",
        "ts"
      ],
      [
        "ne",
        "w"
      ],
      [
        "umb",
        "rel"
      ],
      [
        "umbrel",
        "la"
      ],
      [
        "op",
        "en"
      ],
      [
        "e",
        "v"
      ],
      [
        "f",
        "t"
      ],
      [
        "sk",
        "i"
      ],
      [
        "rid",
        "es"
      ],
      [
        "mar",
        "ket"
      ],
      [
        "d",
        "u"
      ],
      [
        "v",
        "ers"
      ],
      [
        "the",
        "y"
      ],
      [
        "ver",
        "y"
      ],
      [
        "ab",
        "out"
      ],
      [
        "b",
        "ear"
      ],
      [
        "an",
        "g"
      ],
      [
        "lo",
        "red"
      ],
      [
        "a",
        "k"
      ],
      [
        "wood",
        "en"
      ],
      [
        "tre",
        "es"
      ],
      [
        "in",
        "stru"
      ],
      [
        "fi",
        "ve"
      ],
      [
        "wa",
        "iting"
      ],
      [
        "ha",
        "ving"
      ],
      [
        "boo",
        "k"
      ],
      [
        "flo",
        "or"
      ],
      [
        "color",
        "ful"
      ],
      [
        "ou",
        "se"
      ],
      [
        "th",
        "ers"
      ],
      [
        "dr",
        "in"
      ],
      [
        "swimm",
        "ing"
      ],
      [
        "get",
        "ting"
      ],
      [
        "le",
        "a"
      ],
      [
        "co",
        "stu"
      ],
      [
        "l",
        "ine"
      ],
      [
        "tru",
        "ck"
      ],
      [
        "p",
        "ul"
      ],
      [
        "po",
        "l"
      ],
      [
        "tr",
        "ying"
      ],
      [
        "motorc",
        "ycle"
      ],
      [
        "an",
        "ing"
      ],
      [
        "sh",
        "a"
      ],
      [
        "il",
        "y"
      ],
      [
        "car",
        "t"
      ],
      [
        "sh",
        "ing"
      ],
      [
        "ni",
        "ght"
      ],
      [
        "re",
        "st"
      ],
      [
        "c",
        "ell"
      ],
      [
        "d",
        "is"
      ],
      [
        "ou",
        "s"
      ],
      [
        "a",
        "ge"
      ],
      [
        "b",
        "es"
      ],
      [
        "y",
        "cli"
      ],
      [
        "bus",
        "y"
      ],
      [
        "f",
        "ence"
      ],
      [
        "ow",
        "s"
      ],
      [
        "sing",
        "ing"
      ],
      [
        "ck",
        "et"
      ],
      [
        "r",
        "ide"
      ],
      [
        "g",
        "i"
      ],
      [
        "p",
        "ie"
      ],
      [
        "bear",
        "d"
      ],
      [
        "st",
        "air"
      ],
      [
        "bo",
        "dy"
      ],
      [
        "ep",
        "s"
      ],
      [
        "an",
        "ce"
      ],
      [
        "ma",
        "ch"
      ],
      [
        "pa",
        "th"
      ],
      [
        "le",
        "ss"
      ],
      [
        "comp",
        "et"
      ],
      [
        "clo",
        "the"
      ],
      [
        "l",
        "er"
      ],
      [
        "la",
        "ying"
      ],
      [
        "hat",
        "s"
      ],
      [
        "k",
        "itch"
      ],
      [
        "kitch",
        "en"
      ],
      [
        "tra",
        "ck"
      ],
      [
        "i",
        "p"
      ],
      [
        "p",
        "aper"
      ],
      [
        "in",
        "side"
      ],
      [
        "st",
        "ic"
      ],
      [
        "bi",
        "k"
      ],
      [
        "k",
        "ick"
      ],
      [
        "o",
        "thers"
      ],
      [
        "t",
        "ur"
      ],
      [
        "on",
        "s"
      ],
      [
        "c",
        "our"
      ],
      [
        "grass",
        "y"
      ],
      [
        "ep",
        "ing"
      ],
      [
        "sur",
        "round"
      ],
      [
        "gg",
        "ing"
      ],
      [
        "cell",
        "phone"
      ],
      [
        "s",
        "er"
      ],
      [
        "la",
        "u"
      ],
      [
        "ma",
        "king"
      ],
      [
        "some",
        "one"
      ],
      [
        "bi",
        "g"
      ],
      [
        "bri",
        "ck"
      ],
      [
        "a",
        "ff"
      ],
      [
        "f",
        "ac"
      ],
      [
        "or",
        "t"
      ],
      [
        "ri",
        "ver"
      ],
      [
        "n",
        "y"
      ],
      [
        "v",
        "ie"
      ],
      [
        "gr",
        "ap"
      ],
      [
        "back",
        "pack"
      ],
      [
        "clothe",
        "s"
      ],
      [
        "al",
        "s"
      ],
      [
        "ta",
        "kes"
      ],
      [
        "b",
        "an"
      ],
      [
        "s",
        "ell"
      ],
      [
        "je",
        "ct"
      ],
      [
        "met",
        "al"
      ],
      [
        "outf",
        "it"
      ],
      [
        "c",
        "oun"
      ],
      [
        "i",
        "m"
      ],
      [
        "ra",
        "in"
      ],
      [
        "ful",
        "l"
      ],
      [
        "toward",
        "s"
      ],
      [
        "lau",
        "gh"
      ],
      [
        "st",
        "one"
      ],
      [
        "ck",
        "ey"
      ],
      [
        "enjo",
        "ying"
      ],
      [
        "f",
        "li"
      ],
      [
        "st",
        "ar"
      ],
      [
        "ve",
        "st"
      ],
      [
        "c",
        "es"
      ],
      [
        "m",
        "as"
      ],
      [
        "t",
        "ic"
      ],
      [
        "it",
        "i"
      ],
      [
        "bo",
        "x"
      ],
      [
        "co",
        "lored"
      ],
      [
        "pol",
        "ice"
      ],
      [
        "d",
        "d"
      ],
      [
        "p",
        "are"
      ],
      [
        "c",
        "ow"
      ],
      [
        "h",
        "ard"
      ],
      [
        "read",
        "y"
      ],
      [
        "su",
        "b"
      ],
      [
        "whe",
        "el"
      ],
      [
        "op",
        "e"
      ],
      [
        "ra",
        "w"
      ],
      [
        "tan",
        "k"
      ],
      [
        "pie",
        "ce"
      ],
      [
        "la",
        "p"
      ],
      [
        "h",
        "ouse"
      ],
      [
        "a",
        "fr"
      ],
      [
        "v",
        "ol"
      ],
      [
        "in",
        "es"
      ],
      [
        "in",
        "ter"
      ],
      [
        "at",
        "es"
      ],
      [
        "st",
        "er"
      ],
      [
        "photo",
        "grap"
      ],
      [
        "it",
        "ion"
      ],
      [
        "or",
        "s"
      ],
      [
        "un",
        "ch"
      ],
      [
        "pain",
        "ting"
      ],
      [
        "d",
        "ru"
      ],
      [
        "g",
        "y"
      ],
      [
        "h",
        "ang"
      ],
      [
        "r",
        "ing"
      ],
      [
        "it",
        "e"
      ],
      [
        "te",
        "en"
      ],
      [
        "vie",
        "w"
      ],
      [
        "a",
        "bo"
      ],
      [
        "oo",
        "d"
      ],
      [
        "br",
        "id"
      ],
      [
        "ti",
        "re"
      ],
      [
        "work",
        "er"
      ],
      [
        "sweat",
        "er"
      ],
      [
        "f",
        "ri"
      ],
      [
        "le",
        "c"
      ],
      [
        "la",
        "ke"
      ],
      [
        "tri",
        "ck"
      ],
      [
        "abo",
        "ve"
      ],
      [
        "a",
        "f"
      ],
      [
        "c",
        "al"
      ],
      [
        "g",
        "en"
      ],
      [
        "ble",
        "s"
      ],
      [
        "afr",
        "ican"
      ],
      [
        "the",
        "red"
      ],
      [
        "amer",
        "ican"
      ],
      [
        "go",
        "ing"
      ],
      [
        "roll",
        "er"
      ],
      [
        "adul",
        "ts"
      ],
      [
        "c",
        "lass"
      ],
      [
        "k",
        "ne"
      ],
      [
        "m",
        "er"
      ],
      [
        "ch",
        "as"
      ],
      [
        "on",
        "to"
      ],
      [
        "ir",
        "d"
      ],
      [
        "bo",
        "t"
      ],
      [
        "te",
        "mp"
      ],
      [
        "snow",
        "y"
      ],
      [
        "snow",
        "board"
      ],
      [
        "dan",
        "ce"
      ],
      [
        "c",
        "oo"
      ],
      [
        "to",
        "dd"
      ],
      [
        "wa",
        "ve"
      ],
      [
        "shop",
        "ping"
      ],
      [
        "surround",
        "ed"
      ],
      [
        "f",
        "o"
      ],
      [
        "on",
        "es"
      ],
      [
        "uniform",
        "s"
      ],
      [
        "fri",
        "end"
      ],
      [
        "f",
        "am"
      ],
      [
        "st",
        "o"
      ],
      [
        "li",
        "ke"
      ],
      [
        "ga",
        "ther"
      ],
      [
        "crowd",
        "ed"
      ],
      [
        "outdoor",
        "s"
      ],
      [
        "g",
        "ear"
      ],
      [
        "po",
        "in"
      ],
      [
        "p",
        "ra"
      ],
      [
        "smi",
        "les"
      ],
      [
        "bes",
        "ide"
      ],
      [
        "po",
        "le"
      ],
      [
        "con",
        "vers"
      ],
      [
        "m",
        "on"
      ],
      [
        "c",
        "ur"
      ],
      [
        "ho",
        "ckey"
      ],
      [
        "ap",
        "p"
      ],
      [
        "pl",
        "an"
      ],
      [
        "drin",
        "king"
      ],
      [
        "sub",
        "way"
      ],
      [
        "af",
        "ter"
      ],
      [
        "d",
        "en"
      ],
      [
        "y",
        "ard"
      ],
      [
        "lo",
        "t"
      ],
      [
        "sho",
        "es"
      ],
      [
        "fam",
        "ily"
      ],
      [
        "m",
        "es"
      ],
      [
        "ar",
        "t"
      ],
      [
        "men",
        "ts"
      ],
      [
        "be",
        "au"
      ],
      [
        "flow",
        "ers"
      ],
      [
        "brid",
        "ge"
      ],
      [
        "c",
        "as"
      ],
      [
        "f",
        "all"
      ],
      [
        "i",
        "v"
      ],
      [
        "s",
        "car"
      ],
      [
        "pre",
        "par"
      ],
      [
        "todd",
        "ler"
      ],
      [
        "f",
        "ountain"
      ],
      [
        "ar",
        "ms"
      ],
      [
        "ti",
        "ful"
      ],
      [
        "ga",
        "thered"
      ],
      [
        "guy",
        "s"
      ],
      [
        "ev",
        "ent"
      ],
      [
        "gy",
        "m"
      ],
      [
        "beau",
        "tiful"
      ],
      [
        "f",
        "il"
      ],
      [
        "hang",
        "ing"
      ],
      [
        "a",
        "way"
      ],
      [
        "ar",
        "y"
      ],
      [
        "sm",
        "o"
      ],
      [
        "pre",
        "pare"
      ],
      [
        "le",
        "ap"
      ],
      [
        "ou",
        "ld"
      ],
      [
        "gr",
        "aff"
      ],
      [
        "car",
        "ri"
      ],
      [
        "prepar",
        "ing"
      ],
      [
        "m",
        "at"
      ],
      [
        "p",
        "r"
      ],
      [
        "x",
        "ing"
      ],
      [
        "pe",
        "ar"
      ],
      [
        "ra",
        "cing"
      ],
      [
        "ball",
        "o"
      ],
      [
        "rop",
        "e"
      ],
      [
        "p",
        "h"
      ],
      [
        "le",
        "aning"
      ],
      [
        "st",
        "eps"
      ],
      [
        "en",
        "ing"
      ],
      [
        "ra",
        "p"
      ],
      [
        "ta",
        "ke"
      ],
      [
        "off",
        "ic"
      ],
      [
        "comp",
        "u"
      ],
      [
        "sle",
        "eping"
      ],
      [
        "ob",
        "ject"
      ],
      [
        "costu",
        "me"
      ],
      [
        "at",
        "temp"
      ],
      [
        "ma",
        "ke"
      ],
      [
        "shor",
        "t"
      ],
      [
        "fore",
        "st"
      ],
      [
        "fish",
        "ing"
      ],
      [
        "graff",
        "iti"
      ],
      [
        "do",
        "es"
      ],
      [
        "ap",
        "pear"
      ],
      [
        "tra",
        "il"
      ],
      [
        "mach",
        "ine"
      ],
      [
        "b",
        "at"
      ],
      [
        "k",
        "is"
      ],
      [
        "pla",
        "id"
      ],
      [
        "sk",
        "y"
      ],
      [
        "shirt",
        "less"
      ],
      [
        "ra",
        "il"
      ],
      [
        "di",
        "es"
      ],
      [
        "adul",
        "t"
      ],
      [
        "stair",
        "s"
      ],
      [
        "c",
        "up"
      ],
      [
        "chair",
        "s"
      ],
      [
        "b",
        "ed"
      ],
      [
        "st",
        "e"
      ],
      [
        "b",
        "re"
      ],
      [
        "s",
        "il"
      ],
      [
        "v",
        "ed"
      ],
      [
        "tr",
        "y"
      ],
      [
        "rock",
        "s"
      ],
      [
        "s",
        "qu"
      ],
      [
        "t",
        "all"
      ],
      [
        "be",
        "e"
      ],
      [
        "gen",
        "tle"
      ],
      [
        "j",
        "ers"
      ],
      [
        "l",
        "and"
      ],
      [
        "v",
        "en"
      ],
      [
        "w",
        "et"
      ],
      [
        "y",
        "s"
      ],
      [
        "in",
        "ed"
      ],
      [
        "ck",
        "ing"
      ],
      [
        "to",
        "o"
      ],
      [
        "ju",
        "st"
      ],
      [
        "sun",
        "ny"
      ],
      [
        "sell",
        "ing"
      ],
      [
        "pra",
        "ct"
      ],
      [
        "jers",
        "ey"
      ],
      [
        "b",
        "et"
      ],
      [
        "m",
        "ing"
      ],
      [
        "v",
        "end"
      ],
      [
        "le",
        "ad"
      ],
      [
        "st",
        "at"
      ],
      [
        "li",
        "st"
      ],
      [
        "po",
        "t"
      ],
      [
        "set",
        "ting"
      ],
      [
        "ag",
        "ed"
      ],
      [
        "e",
        "qu"
      ],
      [
        "is",
        "e"
      ],
      [
        "fr",
        "is"
      ],
      [
        "po",
        "se"
      ],
      [
        "par",
        "ade"
      ],
      [
        "ycli",
        "st"
      ],
      [
        "vol",
        "ley"
      ],
      [
        "n",
        "et"
      ],
      [
        "v",
        "i"
      ],
      [
        "at",
        "i"
      ],
      [
        "st",
        "ance"
      ],
      [
        "scar",
        "f"
      ],
      [
        "h",
        "app"
      ],
      [
        "m",
        "atch"
      ],
      [
        "n",
        "umb"
      ],
      [
        "p",
        "s"
      ],
      [
        "t",
        "ch"
      ],
      [
        "ar",
        "i"
      ],
      [
        "bo",
        "th"
      ],
      [
        "ti",
        "me"
      ],
      [
        "pu",
        "tting"
      ],
      [
        "ten",
        "t"
      ],
      [
        "cor",
        "ner"
      ],
      [
        "cl",
        "u"
      ],
      [
        "equ",
        "ip"
      ],
      [
        "volley",
        "ball"
      ],
      [
        "b",
        "or"
      ],
      [
        "r",
        "on"
      ],
      [
        "er",
        "y"
      ],
      [
        "st",
        "op"
      ],
      [
        "thr",
        "owing"
      ],
      [
        "pu",
        "shing"
      ],
      [
        "fris",
        "bee"
      ],
      [
        "f",
        "et"
      ],
      [
        "i",
        "al"
      ],
      [
        "r",
        "ow"
      ],
      [
        "la",
        "dies"
      ],
      [
        "ho",
        "me"
      ],
      [
        "bl",
        "ic"
      ],
      [
        "ra",
        "mp"
      ],
      [
        "ha",
        "ve"
      ],
      [
        "pu",
        "blic"
      ],
      [
        "dr",
        "ink"
      ],
      [
        "we",
        "en"
      ],
      [
        "sl",
        "ide"
      ],
      [
        "fla",
        "g"
      ],
      [
        "photograp",
        "h"
      ],
      [
        "bet",
        "ween"
      ],
      [
        "c",
        "ra"
      ],
      [
        "c",
        "ouch"
      ],
      [
        "g",
        "ar"
      ],
      [
        "p",
        "ick"
      ],
      [
        "hi",
        "cle"
      ],
      [
        "sh",
        "ow"
      ],
      [
        "fr",
        "uit"
      ],
      [
        "ve",
        "hicle"
      ],
      [
        "sc",
        "en"
      ],
      [
        "laugh",
        "ing"
      ],
      [
        "compu",
        "ter"
      ],
      [
        "p",
        "ad"
      ],
      [
        "s",
        "ch"
      ],
      [
        "read",
        "s"
      ],
      [
        "picture",
        "s"
      ],
      [
        "che",
        "er"
      ],
      [
        "whe",
        "re"
      ],
      [
        "instru",
        "ments"
      ],
      [
        "equip",
        "ment"
      ],
      [
        "b",
        "ird"
      ],
      [
        "g",
        "lo"
      ],
      [
        "l",
        "s"
      ],
      [
        "sh",
        "ould"
      ],
      [
        "bi",
        "kes"
      ],
      [
        "pro",
        "te"
      ],
      [
        "sch",
        "ool"
      ],
      [
        "g",
        "old"
      ],
      [
        "m",
        "ul"
      ],
      [
        "pla",
        "stic"
      ],
      [
        "all",
        "y"
      ],
      [
        "par",
        "ty"
      ],
      [
        "sp",
        "or"
      ],
      [
        "wood",
        "s"
      ],
      [
        "spe",
        "a"
      ],
      [
        "cow",
        "boy"
      ],
      [
        "bot",
        "tle"
      ],
      [
        "m",
        "i"
      ],
      [
        "m",
        "il"
      ],
      [
        "re",
        "ach"
      ],
      [
        "whi",
        "ch"
      ],
      [
        "play",
        "ground"
      ],
      [
        "po",
        "ses"
      ],
      [
        "wor",
        "ks"
      ],
      [
        "con",
        "cre"
      ],
      [
        "spe",
        "ct"
      ],
      [
        "sweat",
        "shirt"
      ],
      [
        "concre",
        "te"
      ],
      [
        "c",
        "ig"
      ],
      [
        "u",
        "re"
      ],
      [
        "w",
        "ard"
      ],
      [
        "do",
        "ck"
      ],
      [
        "fe",
        "ren"
      ],
      [
        "stat",
        "ue"
      ],
      [
        "b",
        "el"
      ],
      [
        "c",
        "tor"
      ],
      [
        "d",
        "in"
      ],
      [
        "w",
        "inter"
      ],
      [
        "mid",
        "air"
      ],
      [
        "gg",
        "les"
      ],
      [
        "e",
        "mp"
      ],
      [
        "i",
        "um"
      ],
      [
        "w",
        "r"
      ],
      [
        "bl",
        "o"
      ],
      [
        "sho",
        "vel"
      ],
      [
        "numb",
        "er"
      ],
      [
        "w",
        "hat"
      ],
      [
        "in",
        "i"
      ],
      [
        "se",
        "ated"
      ],
      [
        "bu",
        "cket"
      ],
      [
        "ve",
        "get"
      ],
      [
        "sk",
        "irt"
      ],
      [
        "sc",
        "ope"
      ],
      [
        "t",
        "at"
      ],
      [
        "at",
        "ors"
      ],
      [
        "sh",
        "es"
      ],
      [
        "di",
        "stance"
      ],
      [
        "t",
        "te"
      ],
      [
        "in",
        "s"
      ],
      [
        "an",
        "im"
      ],
      [
        "at",
        "tire"
      ],
      [
        "st",
        "ation"
      ],
      [
        "op",
        "s"
      ],
      [
        "pla",
        "ce"
      ],
      [
        "ba",
        "gs"
      ],
      [
        "si",
        "x"
      ],
      [
        "v",
        "ari"
      ],
      [
        "le",
        "ft"
      ],
      [
        "la",
        "d"
      ],
      [
        "en",
        "ter"
      ],
      [
        "sit",
        "e"
      ],
      [
        "be",
        "er"
      ],
      [
        "ri",
        "st"
      ],
      [
        "ri",
        "ght"
      ],
      [
        "li",
        "gh"
      ],
      [
        "wa",
        "it"
      ],
      [
        "sl",
        "id"
      ],
      [
        "music",
        "ian"
      ],
      [
        "cre",
        "am"
      ],
      [
        "fli",
        "p"
      ],
      [
        "coo",
        "king"
      ],
      [
        "g",
        "er"
      ],
      [
        "l",
        "ined"
      ],
      [
        "ed",
        "ge"
      ],
      [
        "bl",
        "an"
      ],
      [
        "ve",
        "sts"
      ],
      [
        "rid",
        "er"
      ],
      [
        "sc",
        "re"
      ],
      [
        "cu",
        "tting"
      ],
      [
        "tur",
        "n"
      ],
      [
        "kne",
        "el"
      ],
      [
        "fil",
        "led"
      ],
      [
        "b",
        "are"
      ],
      [
        "d",
        "raw"
      ],
      [
        "al",
        "ley"
      ],
      [
        "gr",
        "ill"
      ],
      [
        "ho",
        "t"
      ],
      [
        "building",
        "s"
      ],
      [
        "cli",
        "ff"
      ],
      [
        "new",
        "sp"
      ],
      [
        "pul",
        "ling"
      ],
      [
        "c",
        "ture"
      ],
      [
        "m",
        "ed"
      ],
      [
        "m",
        "other"
      ],
      [
        "r",
        "y"
      ],
      [
        "le",
        "t"
      ],
      [
        "pain",
        "t"
      ],
      [
        "cig",
        "are"
      ],
      [
        "veget",
        "a"
      ],
      [
        "tat",
        "too"
      ],
      [
        "p",
        "et"
      ],
      [
        "w",
        "rest"
      ],
      [
        "ro",
        "of"
      ],
      [
        "bu",
        "t"
      ],
      [
        "skateboard",
        "er"
      ],
      [
        "friend",
        "s"
      ],
      [
        "appear",
        "s"
      ],
      [
        "bre",
        "ak"
      ],
      [
        "pract",
        "ic"
      ],
      [
        "d",
        "s"
      ],
      [
        "sh",
        "owing"
      ],
      [
        "bu",
        "b"
      ],
      [
        "fe",
        "w"
      ],
      [
        "clo",
        "se"
      ],
      [
        "hor",
        "ses"
      ],
      [
        "mountain",
        "s"
      ],
      [
        "cross",
        "ing"
      ],
      [
        "instru",
        "ment"
      ],
      [
        "cour",
        "t"
      ],
      [
        "spect",
        "ators"
      ],
      [
        "blan",
        "ket"
      ],
      [
        "p",
        "air"
      ],
      [
        "ic",
        "al"
      ],
      [
        "car",
        "s"
      ],
      [
        "fi",
        "ght"
      ],
      [
        "ba",
        "thing"
      ],
      [
        "stru",
        "cture"
      ],
      [
        "us",
        "es"
      ],
      [
        "cu",
        "t"
      ],
      [
        "beard",
        "ed"
      ],
      [
        "e",
        "lec"
      ],
      [
        "h",
        "am"
      ],
      [
        "t",
        "ers"
      ],
      [
        "w",
        "ash"
      ],
      [
        "re",
        "la"
      ],
      [
        "le",
        "n"
      ],
      [
        "st",
        "y"
      ],
      [
        "of",
        "fe"
      ],
      [
        "dress",
        "es"
      ],
      [
        "con",
        "cer"
      ],
      [
        "near",
        "by"
      ],
      [
        "perform",
        "s"
      ],
      [
        "suit",
        "s"
      ],
      [
        "coun",
        "try"
      ],
      [
        "elec",
        "tr"
      ],
      [
        "i",
        "z"
      ],
      [
        "se",
        "e"
      ],
      [
        "ap",
        "ron"
      ],
      [
        "go",
        "al"
      ],
      [
        "dri",
        "ving"
      ],
      [
        "bow",
        "ling"
      ],
      [
        "flow",
        "er"
      ],
      [
        "ycli",
        "sts"
      ],
      [
        "snowboard",
        "er"
      ],
      [
        "carri",
        "es"
      ],
      [
        "concer",
        "t"
      ],
      [
        "w",
        "ing"
      ],
      [
        "re",
        "s"
      ],
      [
        "bu",
        "ll"
      ],
      [
        "ti",
        "al"
      ],
      [
        "sho",
        "re"
      ],
      [
        "lea",
        "ves"
      ],
      [
        "offe",
        "e"
      ],
      [
        "c",
        "offee"
      ],
      [
        "h",
        "ood"
      ],
      [
        "hi",
        "k"
      ],
      [
        "la",
        "w"
      ],
      [
        "te",
        "le"
      ],
      [
        "ro",
        "de"
      ],
      [
        "so",
        "ld"
      ],
      [
        "br",
        "u"
      ],
      [
        "ke",
        "y"
      ],
      [
        "park",
        "ed"
      ],
      [
        "stu",
        "den"
      ],
      [
        "boo",
        "ts"
      ],
      [
        "pain",
        "ted"
      ],
      [
        "mu",
        "d"
      ],
      [
        "vend",
        "or"
      ],
      [
        "vari",
        "ous"
      ],
      [
        "cigare",
        "tte"
      ],
      [
        "studen",
        "ts"
      ],
      [
        "m",
        "ir"
      ],
      [
        "v",
        "is"
      ],
      [
        "hi",
        "t"
      ],
      [
        "el",
        "f"
      ],
      [
        "ra",
        "iling"
      ],
      [
        "young",
        "er"
      ],
      [
        "ti",
        "ve"
      ],
      [
        "ind",
        "ian"
      ],
      [
        "go",
        "ggles"
      ],
      [
        "ca",
        "ke"
      ],
      [
        "sho",
        "t"
      ],
      [
        "swi",
        "ms"
      ],
      [
        "surf",
        "er"
      ],
      [
        "smi",
        "le"
      ],
      [
        "dis",
        "play"
      ],
      [
        "gentle",
        "man"
      ],
      [
        "g",
        "un"
      ],
      [
        "p",
        "itch"
      ],
      [
        "w",
        "ed"
      ],
      [
        "ar",
        "ti"
      ],
      [
        "tal",
        "ks"
      ],
      [
        "mar",
        "tial"
      ],
      [
        "fl",
        "ying"
      ],
      [
        "dru",
        "ms"
      ],
      [
        "smo",
        "king"
      ],
      [
        "ph",
        "ones"
      ],
      [
        "b",
        "unch"
      ],
      [
        "f",
        "un"
      ],
      [
        "l",
        "ying"
      ],
      [
        "s",
        "pla"
      ],
      [
        "ar",
        "ts"
      ],
      [
        "ga",
        "z"
      ],
      [
        "di",
        "re"
      ],
      [
        "rock",
        "y"
      ],
      [
        "ey",
        "es"
      ],
      [
        "fla",
        "gs"
      ],
      [
        "kick",
        "ing"
      ],
      [
        "f",
        "feren"
      ],
      [
        "i",
        "st"
      ],
      [
        "i",
        "ght"
      ],
      [
        "on",
        "look"
      ],
      [
        "co",
        "ming"
      ],
      [
        "ti",
        "e"
      ],
      [
        "par",
        "king"
      ],
      [
        "di",
        "fferen"
      ],
      [
        "jacket",
        "s"
      ],
      [
        "wa",
        "ves"
      ],
      [
        "sc",
        "oo"
      ],
      [
        "ca",
        "u"
      ],
      [
        "sa",
        "fet"
      ],
      [
        "au",
        "di"
      ],
      [
        "swing",
        "ing"
      ],
      [
        "convers",
        "ation"
      ],
      [
        "prepare",
        "s"
      ],
      [
        "newsp",
        "aper"
      ],
      [
        "rode",
        "o"
      ],
      [
        "safet",
        "y"
      ],
      [
        "a",
        "v"
      ],
      [
        "f",
        "en"
      ],
      [
        "n",
        "ic"
      ],
      [
        "p",
        "or"
      ],
      [
        "at",
        "s"
      ],
      [
        "sc",
        "ul"
      ],
      [
        "costu",
        "mes"
      ],
      [
        "cas",
        "e"
      ],
      [
        "iv",
        "id"
      ],
      [
        "glo",
        "ves"
      ],
      [
        "practic",
        "ing"
      ],
      [
        "differen",
        "t"
      ],
      [
        "c",
        "y"
      ],
      [
        "k",
        "ay"
      ],
      [
        "s",
        "ed"
      ],
      [
        "ce",
        "ment"
      ],
      [
        "cle",
        "aning"
      ],
      [
        "pre",
        "s"
      ],
      [
        "compet",
        "ition"
      ],
      [
        "list",
        "ening"
      ],
      [
        "scen",
        "e"
      ],
      [
        "lad",
        "der"
      ],
      [
        "s",
        "ay"
      ],
      [
        "ch",
        "a"
      ],
      [
        "me",
        "mb"
      ],
      [
        "ne",
        "ck"
      ],
      [
        "sw",
        "e"
      ],
      [
        "sp",
        "ra"
      ],
      [
        "skateboard",
        "ing"
      ],
      [
        "star",
        "ing"
      ],
      [
        "mas",
        "k"
      ],
      [
        "ite",
        "ms"
      ],
      [
        "teen",
        "ag"
      ],
      [
        "happ",
        "y"
      ],
      [
        "spor",
        "ts"
      ],
      [
        "onlook",
        "ers"
      ],
      [
        "b",
        "er"
      ],
      [
        "n",
        "ed"
      ],
      [
        "z",
        "z"
      ],
      [
        "ra",
        "is"
      ],
      [
        "me",
        "al"
      ],
      [
        "ind",
        "ivid"
      ],
      [
        "che",
        "ck"
      ],
      [
        "bicycle",
        "s"
      ],
      [
        "dr",
        "y"
      ],
      [
        "pl",
        "at"
      ],
      [
        "pi",
        "le"
      ],
      [
        "surf",
        "board"
      ],
      [
        "des",
        "k"
      ],
      [
        "gi",
        "ving"
      ],
      [
        "bik",
        "ini"
      ],
      [
        "ballo",
        "on"
      ],
      [
        "mil",
        "it"
      ],
      [
        "emp",
        "ty"
      ],
      [
        "law",
        "n"
      ],
      [
        "audi",
        "ence"
      ],
      [
        "individ",
        "u"
      ],
      [
        "c",
        "ir"
      ],
      [
        "k",
        "i"
      ],
      [
        "k",
        "en"
      ],
      [
        "et",
        "te"
      ],
      [
        "am",
        "ong"
      ],
      [
        "get",
        "s"
      ],
      [
        "drin",
        "ks"
      ],
      [
        "leap",
        "s"
      ],
      [
        "vi",
        "ol"
      ],
      [
        "milit",
        "ary"
      ],
      [
        "c",
        "am"
      ],
      [
        "c",
        "ard"
      ],
      [
        "e",
        "th"
      ],
      [
        "e",
        "red"
      ],
      [
        "f",
        "ing"
      ],
      [
        "wat",
        "ers"
      ],
      [
        "tr",
        "ad"
      ],
      [
        "ob",
        "ser"
      ],
      [
        "bow",
        "l"
      ],
      [
        "gather",
        "ing"
      ],
      [
        "poin",
        "ting"
      ],
      [
        "sil",
        "ver"
      ],
      [
        "slid",
        "ing"
      ],
      [
        "vegeta",
        "bles"
      ],
      [
        "plat",
        "form"
      ],
      [
        "c",
        "ers"
      ],
      [
        "m",
        "ade"
      ],
      [
        "n",
        "el"
      ],
      [
        "s",
        "of"
      ],
      [
        "in",
        "ess"
      ],
      [
        "be",
        "fore"
      ],
      [
        "sh",
        "oo"
      ],
      [
        "ur",
        "al"
      ],
      [
        "street",
        "s"
      ],
      [
        "fe",
        "et"
      ],
      [
        "ath",
        "le"
      ],
      [
        "compet",
        "ing"
      ],
      [
        "bik",
        "er"
      ],
      [
        "fac",
        "ing"
      ],
      [
        "coun",
        "ter"
      ],
      [
        "chas",
        "ing"
      ],
      [
        "scre",
        "en"
      ],
      [
        "wed",
        "ding"
      ],
      [
        "p",
        "on"
      ],
      [
        "stre",
        "tch"
      ],
      [
        "cr",
        "ouch"
      ],
      [
        "bus",
        "iness"
      ],
      [
        "helmet",
        "s"
      ],
      [
        "hu",
        "ge"
      ],
      [
        "spea",
        "king"
      ],
      [
        "s",
        "led"
      ],
      [
        "t",
        "on"
      ],
      [
        "w",
        "ell"
      ],
      [
        "st",
        "ing"
      ],
      [
        "el",
        "y"
      ],
      [
        "br",
        "ide"
      ],
      [
        "fa",
        "ther"
      ],
      [
        "che",
        "f"
      ],
      [
        "mm",
        "er"
      ],
      [
        "tri",
        "es"
      ],
      [
        "team",
        "s"
      ],
      [
        "surf",
        "ing"
      ],
      [
        "can",
        "o"
      ],
      [
        "lap",
        "top"
      ],
      [
        "class",
        "room"
      ],
      [
        "ligh",
        "ts"
      ],
      [
        "sold",
        "i"
      ],
      [
        "scul",
        "p"
      ],
      [
        "trad",
        "ition"
      ],
      [
        "b",
        "ur"
      ],
      [
        "c",
        "ed"
      ],
      [
        "g",
        "ard"
      ],
      [
        "p",
        "es"
      ],
      [
        "q",
        "ue"
      ],
      [
        "t",
        "un"
      ],
      [
        "v",
        "ide"
      ],
      [
        "w",
        "rap"
      ],
      [
        "in",
        "ing"
      ],
      [
        "gh",
        "ting"
      ],
      [
        "se",
        "en"
      ],
      [
        "li",
        "fe"
      ],
      [
        "fi",
        "ghting"
      ],
      [
        "sing",
        "s"
      ],
      [
        "wa",
        "its"
      ],
      [
        "mar",
        "ath"
      ],
      [
        "de",
        "cor"
      ],
      [
        "climb",
        "s"
      ],
      [
        "pur",
        "se"
      ],
      [
        "pro",
        "du"
      ],
      [
        "stick",
        "s"
      ],
      [
        "ski",
        "er"
      ],
      [
        "tradition",
        "al"
      ],
      [
        "marath",
        "on"
      ],
      [
        "s",
        "on"
      ],
      [
        "sh",
        "ad"
      ],
      [
        "ur",
        "ban"
      ],
      [
        "par",
        "t"
      ],
      [
        "tal",
        "k"
      ],
      [
        "cu",
        "sto"
      ],
      [
        "spe",
        "c"
      ],
      [
        "cl",
        "own"
      ],
      [
        "plan",
        "e"
      ],
      [
        "kis",
        "sing"
      ],
      [
        "anim",
        "al"
      ],
      [
        "musician",
        "s"
      ],
      [
        "i",
        "en"
      ],
      [
        "t",
        "own"
      ],
      [
        "t",
        "run"
      ],
      [
        "st",
        "roller"
      ],
      [
        "op",
        "er"
      ],
      [
        "all",
        "ow"
      ],
      [
        "co",
        "ver"
      ],
      [
        "walk",
        "way"
      ],
      [
        "thr",
        "ow"
      ],
      [
        "sk",
        "ating"
      ],
      [
        "ca",
        "mp"
      ],
      [
        "sa",
        "me"
      ],
      [
        "female",
        "s"
      ],
      [
        "wr",
        "iting"
      ],
      [
        "c",
        "and"
      ],
      [
        "h",
        "ar"
      ],
      [
        "k",
        "ed"
      ],
      [
        "l",
        "f"
      ],
      [
        "p",
        "at"
      ],
      [
        "s",
        "up"
      ],
      [
        "u",
        "se"
      ],
      [
        "v",
        "al"
      ],
      [
        "in",
        "door"
      ],
      [
        "ch",
        "rist"
      ],
      [
        "ho",
        "le"
      ],
      [
        "run",
        "ner"
      ],
      [
        "par",
        "tic"
      ],
      [
        "di",
        "ving"
      ],
      [
        "sun",
        "set"
      ],
      [
        "ex",
        "am"
      ],
      [
        "should",
        "er"
      ],
      [
        "kneel",
        "ing"
      ],
      [
        "vide",
        "o"
      ],
      [
        "h",
        "oo"
      ],
      [
        "i",
        "a"
      ],
      [
        "p",
        "en"
      ],
      [
        "r",
        "or"
      ],
      [
        "s",
        "ort"
      ],
      [
        "t",
        "ouch"
      ],
      [
        "le",
        "br"
      ],
      [
        "at",
        "or"
      ],
      [
        "bl",
        "owing"
      ],
      [
        "el",
        "s"
      ],
      [
        "wa",
        "ving"
      ],
      [
        "go",
        "lf"
      ],
      [
        "che",
        "st"
      ],
      [
        "swi",
        "m"
      ],
      [
        "bal",
        "d"
      ],
      [
        "gym",
        "na"
      ],
      [
        "attemp",
        "ting"
      ],
      [
        "scoo",
        "ter"
      ],
      [
        "viol",
        "in"
      ],
      [
        "christ",
        "mas"
      ],
      [
        "g",
        "ian"
      ],
      [
        "l",
        "an"
      ],
      [
        "r",
        "ink"
      ],
      [
        "le",
        "ash"
      ],
      [
        "ma",
        "kes"
      ],
      [
        "over",
        "looking"
      ],
      [
        "table",
        "s"
      ],
      [
        "clo",
        "th"
      ],
      [
        "sign",
        "s"
      ],
      [
        "cl",
        "ou"
      ],
      [
        "enjo",
        "y"
      ],
      [
        "bal",
        "an"
      ],
      [
        "outf",
        "its"
      ],
      [
        "rest",
        "ing"
      ],
      [
        "cour",
        "se"
      ],
      [
        "electr",
        "ic"
      ],
      [
        "c",
        "at"
      ],
      [
        "f",
        "in"
      ],
      [
        "g",
        "ood"
      ],
      [
        "le",
        "g"
      ],
      [
        "ch",
        "ines"
      ],
      [
        "ad",
        "ver"
      ],
      [
        "ce",
        "lebr"
      ],
      [
        "cu",
        "ss"
      ],
      [
        "offic",
        "er"
      ],
      [
        "cheer",
        "lead"
      ],
      [
        "mul",
        "tic"
      ],
      [
        "bub",
        "bles"
      ],
      [
        "wash",
        "ing"
      ],
      [
        "mir",
        "ror"
      ],
      [
        "arti",
        "st"
      ],
      [
        "say",
        "s"
      ],
      [
        "chines",
        "e"
      ],
      [
        "adver",
        "t"
      ],
      [
        "c",
        "ont"
      ],
      [
        "f",
        "arm"
      ],
      [
        "i",
        "es"
      ],
      [
        "m",
        "in"
      ],
      [
        "p",
        "ort"
      ],
      [
        "re",
        "f"
      ],
      [
        "le",
        "ans"
      ],
      [
        "at",
        "ten"
      ],
      [
        "st",
        "un"
      ],
      [
        "la",
        "y"
      ],
      [
        "to",
        "ol"
      ],
      [
        "ch",
        "ing"
      ],
      [
        "br",
        "un"
      ],
      [
        "fi",
        "xing"
      ],
      [
        "ca",
        "fe"
      ],
      [
        "col",
        "lar"
      ],
      [
        "roll",
        "ing"
      ],
      [
        "pi",
        "er"
      ],
      [
        "bright",
        "ly"
      ],
      [
        "fac",
        "es"
      ],
      [
        "fo",
        "ll"
      ],
      [
        "pr",
        "in"
      ],
      [
        "ballo",
        "ons"
      ],
      [
        "squ",
        "are"
      ],
      [
        "gian",
        "t"
      ],
      [
        "a",
        "st"
      ],
      [
        "d",
        "el"
      ],
      [
        "t",
        "ack"
      ],
      [
        "er",
        "t"
      ],
      [
        "al",
        "one"
      ],
      [
        "gr",
        "o"
      ],
      [
        "he",
        "av"
      ],
      [
        "ru",
        "b"
      ],
      [
        "di",
        "e"
      ],
      [
        "hel",
        "ping"
      ],
      [
        "mic",
        "ro"
      ],
      [
        "fore",
        "ground"
      ],
      [
        "ess",
        "ion"
      ],
      [
        "no",
        "t"
      ],
      [
        "umbrella",
        "s"
      ],
      [
        "lea",
        "ther"
      ],
      [
        "dis",
        "cuss"
      ],
      [
        "teen",
        "age"
      ],
      [
        "brun",
        "ette"
      ],
      [
        "a",
        "ble"
      ],
      [
        "d",
        "au"
      ],
      [
        "g",
        "es"
      ],
      [
        "m",
        "ers"
      ],
      [
        "n",
        "ers"
      ],
      [
        "v",
        "an"
      ],
      [
        "v",
        "ice"
      ],
      [
        "re",
        "pair"
      ],
      [
        "er",
        "ing"
      ],
      [
        "le",
        "ep"
      ],
      [
        "le",
        "gs"
      ],
      [
        "st",
        "ad"
      ],
      [
        "ch",
        "ur"
      ],
      [
        "as",
        "leep"
      ],
      [
        "me",
        "at"
      ],
      [
        "se",
        "a"
      ],
      [
        "li",
        "es"
      ],
      [
        "lo",
        "ad"
      ],
      [
        "head",
        "phones"
      ],
      [
        "gu",
        "ard"
      ],
      [
        "dan",
        "cers"
      ],
      [
        "pl",
        "ate"
      ],
      [
        "ati",
        "ve"
      ],
      [
        "cano",
        "e"
      ],
      [
        "sculp",
        "ture"
      ],
      [
        "dau",
        "ght"
      ],
      [
        "d",
        "ra"
      ],
      [
        "d",
        "ish"
      ],
      [
        "f",
        "ts"
      ],
      [
        "st",
        "r"
      ],
      [
        "st",
        "ring"
      ],
      [
        "es",
        "e"
      ],
      [
        "ch",
        "ed"
      ],
      [
        "wear",
        "s"
      ],
      [
        "ta",
        "il"
      ],
      [
        "off",
        "ice"
      ],
      [
        "tr",
        "ash"
      ],
      [
        "door",
        "way"
      ],
      [
        "stu",
        "ff"
      ],
      [
        "ff",
        "ic"
      ],
      [
        "sand",
        "als"
      ],
      [
        "swing",
        "s"
      ],
      [
        "sle",
        "e"
      ],
      [
        "pass",
        "ing"
      ],
      [
        "fall",
        "ing"
      ],
      [
        "pr",
        "of"
      ],
      [
        "offic",
        "ers"
      ],
      [
        "draw",
        "ing"
      ],
      [
        "gro",
        "cer"
      ],
      [
        "stad",
        "ium"
      ],
      [
        "d",
        "on"
      ],
      [
        "d",
        "dle"
      ],
      [
        "e",
        "le"
      ],
      [
        "f",
        "ur"
      ],
      [
        "h",
        "all"
      ],
      [
        "i",
        "ma"
      ],
      [
        "l",
        "u"
      ],
      [
        "o",
        "lored"
      ],
      [
        "hi",
        "king"
      ],
      [
        "en",
        "g"
      ],
      [
        "ro",
        "l"
      ],
      [
        "he",
        "ld"
      ],
      [
        "ac",
        "cor"
      ],
      [
        "mo",
        "st"
      ],
      [
        "mo",
        "ve"
      ],
      [
        "sc",
        "a"
      ],
      [
        "head",
        "s"
      ],
      [
        "sho",
        "e"
      ],
      [
        "comp",
        "le"
      ],
      [
        "boo",
        "th"
      ],
      [
        "dirt",
        "y"
      ],
      [
        "toy",
        "s"
      ],
      [
        "music",
        "al"
      ],
      [
        "ski",
        "ing"
      ],
      [
        "photograp",
        "her"
      ],
      [
        "blo",
        "ck"
      ],
      [
        "bare",
        "foot"
      ],
      [
        "ham",
        "mer"
      ],
      [
        "gard",
        "en"
      ],
      [
        "partic",
        "ip"
      ],
      [
        "multic",
        "olored"
      ],
      [
        "chur",
        "ch"
      ],
      [
        "accor",
        "di"
      ],
      [
        "f",
        "an"
      ],
      [
        "k",
        "n"
      ],
      [
        "k",
        "ar"
      ],
      [
        "l",
        "ow"
      ],
      [
        "o",
        "t"
      ],
      [
        "in",
        "clu"
      ],
      [
        "man",
        "ce"
      ],
      [
        "te",
        "ach"
      ],
      [
        "for",
        "mance"
      ],
      [
        "thr",
        "ows"
      ],
      [
        "sing",
        "er"
      ],
      [
        "tra",
        "ffic"
      ],
      [
        "male",
        "s"
      ],
      [
        "per",
        "formance"
      ],
      [
        "sp",
        "end"
      ],
      [
        "pick",
        "ing"
      ],
      [
        "reach",
        "ing"
      ],
      [
        "fin",
        "ish"
      ],
      [
        "accordi",
        "on"
      ],
      [
        "f",
        "ra"
      ],
      [
        "h",
        "ou"
      ],
      [
        "h",
        "ear"
      ],
      [
        "k",
        "ha"
      ],
      [
        "p",
        "y"
      ],
      [
        "p",
        "ond"
      ],
      [
        "p",
        "ati"
      ],
      [
        "st",
        "or"
      ],
      [
        "st",
        "raw"
      ],
      [
        "la",
        "un"
      ],
      [
        "el",
        "ves"
      ],
      [
        "sh",
        "allow"
      ],
      [
        "cle",
        "an"
      ],
      [
        "di",
        "gging"
      ],
      [
        "fl",
        "u"
      ],
      [
        "dru",
        "m"
      ],
      [
        "bel",
        "ow"
      ],
      [
        "rela",
        "xing"
      ],
      [
        "memb",
        "ers"
      ],
      [
        "daught",
        "er"
      ],
      [
        "c",
        "ts"
      ],
      [
        "c",
        "ul"
      ],
      [
        "h",
        "ow"
      ],
      [
        "i",
        "ge"
      ],
      [
        "n",
        "ap"
      ],
      [
        "p",
        "up"
      ],
      [
        "p",
        "our"
      ],
      [
        "t",
        "ou"
      ],
      [
        "at",
        "op"
      ],
      [
        "la",
        "b"
      ],
      [
        "pe",
        "a"
      ],
      [
        "se",
        "at"
      ],
      [
        "up",
        "side"
      ],
      [
        "fe",
        "st"
      ],
      [
        "mo",
        "ving"
      ],
      [
        "de",
        "ep"
      ],
      [
        "bic",
        "yclist"
      ],
      [
        "stu",
        "d"
      ],
      [
        "ey",
        "e"
      ],
      [
        "hu",
        "gging"
      ],
      [
        "catch",
        "ing"
      ],
      [
        "catch",
        "es"
      ],
      [
        "pass",
        "es"
      ],
      [
        "gi",
        "ves"
      ],
      [
        "dire",
        "ction"
      ],
      [
        "sof",
        "t"
      ],
      [
        "tun",
        "nel"
      ],
      [
        "micro",
        "scope"
      ],
      [
        "b",
        "ro"
      ],
      [
        "c",
        "ri"
      ],
      [
        "c",
        "tive"
      ],
      [
        "d",
        "un"
      ],
      [
        "f",
        "air"
      ],
      [
        "n",
        "ess"
      ],
      [
        "at",
        "ure"
      ],
      [
        "st",
        "ep"
      ],
      [
        "al",
        "len"
      ],
      [
        "ch",
        "es"
      ],
      [
        "pe",
        "de"
      ],
      [
        "ro",
        "be"
      ],
      [
        "ho",
        "op"
      ],
      [
        "bl",
        "y"
      ],
      [
        "be",
        "ige"
      ],
      [
        "sh",
        "ows"
      ],
      [
        "co",
        "ld"
      ],
      [
        "ball",
        "s"
      ],
      [
        "po",
        "st"
      ],
      [
        "he",
        "re"
      ],
      [
        "pa",
        "ved"
      ],
      [
        "sle",
        "eps"
      ],
      [
        "fli",
        "es"
      ],
      [
        "leap",
        "ing"
      ],
      [
        "pres",
        "ent"
      ],
      [
        "swe",
        "eping"
      ],
      [
        "stun",
        "t"
      ],
      [
        "a",
        "ster"
      ],
      [
        "b",
        "in"
      ],
      [
        "g",
        "ate"
      ],
      [
        "h",
        "ur"
      ],
      [
        "at",
        "er"
      ],
      [
        "en",
        "s"
      ],
      [
        "it",
        "al"
      ],
      [
        "te",
        "eth"
      ],
      [
        "ho",
        "se"
      ],
      [
        "lo",
        "ts"
      ],
      [
        "sk",
        "in"
      ],
      [
        "sc",
        "aff"
      ],
      [
        "fl",
        "at"
      ],
      [
        "spe",
        "ed"
      ],
      [
        "coat",
        "s"
      ],
      [
        "des",
        "ert"
      ],
      [
        "convers",
        "ing"
      ],
      [
        "ward",
        "s"
      ],
      [
        "swims",
        "uit"
      ],
      [
        "spla",
        "shing"
      ],
      [
        "kay",
        "ak"
      ],
      [
        "cha",
        "in"
      ],
      [
        "individu",
        "als"
      ],
      [
        "cir",
        "cle"
      ],
      [
        "trun",
        "ks"
      ],
      [
        "hoo",
        "die"
      ],
      [
        "kar",
        "ate"
      ],
      [
        "pede",
        "stri"
      ],
      [
        "f",
        "re"
      ],
      [
        "i",
        "gh"
      ],
      [
        "l",
        "one"
      ],
      [
        "the",
        "se"
      ],
      [
        "st",
        "ack"
      ],
      [
        "ch",
        "o"
      ],
      [
        "all",
        "s"
      ],
      [
        "ra",
        "cket"
      ],
      [
        "ri",
        "ed"
      ],
      [
        "stre",
        "am"
      ],
      [
        "ap",
        "pro"
      ],
      [
        "ne",
        "ath"
      ],
      [
        "form",
        "al"
      ],
      [
        "con",
        "tain"
      ],
      [
        "clo",
        "sed"
      ],
      [
        "sp",
        "ort"
      ],
      [
        "ful",
        "ly"
      ],
      [
        "de",
        "ck"
      ],
      [
        "jo",
        "gging"
      ],
      [
        "sa",
        "x"
      ],
      [
        "under",
        "neath"
      ],
      [
        "we",
        "a"
      ],
      [
        "su",
        "spend"
      ],
      [
        "ex",
        "c"
      ],
      [
        "bal",
        "con"
      ],
      [
        "poin",
        "ts"
      ],
      [
        "plan",
        "ts"
      ],
      [
        "pad",
        "d"
      ],
      [
        "wrest",
        "ling"
      ],
      [
        "tele",
        "scope"
      ],
      [
        "custo",
        "mers"
      ],
      [
        "cover",
        "ing"
      ],
      [
        "heav",
        "y"
      ],
      [
        "slee",
        "ve"
      ],
      [
        "b",
        "b"
      ],
      [
        "b",
        "un"
      ],
      [
        "c",
        "yclist"
      ],
      [
        "f",
        "ting"
      ],
      [
        "f",
        "ant"
      ],
      [
        "l",
        "ers"
      ],
      [
        "w",
        "ine"
      ],
      [
        "the",
        "ms"
      ],
      [
        "with",
        "out"
      ],
      [
        "op",
        "hone"
      ],
      [
        "op",
        "posing"
      ],
      [
        "gr",
        "a"
      ],
      [
        "lo",
        "cal"
      ],
      [
        "ma",
        "gaz"
      ],
      [
        "car",
        "ni"
      ],
      [
        "ru",
        "g"
      ],
      [
        "ga",
        "ge"
      ],
      [
        "cle",
        "ar"
      ],
      [
        "tra",
        "mp"
      ],
      [
        "dan",
        "ces"
      ],
      [
        "ol",
        "ine"
      ],
      [
        "pro",
        "ject"
      ],
      [
        "hu",
        "la"
      ],
      [
        "can",
        "e"
      ],
      [
        "open",
        "ing"
      ],
      [
        "cur",
        "ly"
      ],
      [
        "should",
        "ers"
      ],
      [
        "hik",
        "er"
      ],
      [
        "spra",
        "y"
      ],
      [
        "inclu",
        "ding"
      ],
      [
        "thems",
        "elves"
      ],
      [
        "carni",
        "val"
      ],
      [
        "k",
        "a"
      ],
      [
        "k",
        "ind"
      ],
      [
        "m",
        "ural"
      ],
      [
        "p",
        "in"
      ],
      [
        "t",
        "ong"
      ],
      [
        "z",
        "ed"
      ],
      [
        "in",
        "fant"
      ],
      [
        "at",
        "ta"
      ],
      [
        "en",
        "tr"
      ],
      [
        "or",
        "k"
      ],
      [
        "un",
        "g"
      ],
      [
        "ta",
        "ken"
      ],
      [
        "run",
        "ners"
      ],
      [
        "cr",
        "ying"
      ],
      [
        "ba",
        "th"
      ],
      [
        "mo",
        "to"
      ],
      [
        "wood",
        "ed"
      ],
      [
        "gg",
        "ling"
      ],
      [
        "tri",
        "cks"
      ],
      [
        "cross",
        "walk"
      ],
      [
        "na",
        "v"
      ],
      [
        "she",
        "et"
      ],
      [
        "mu",
        "st"
      ],
      [
        "pul",
        "led"
      ],
      [
        "make",
        "up"
      ],
      [
        "match",
        "ing"
      ],
      [
        "din",
        "ner"
      ],
      [
        "produ",
        "ce"
      ],
      [
        "tramp",
        "oline"
      ],
      [
        "b",
        "ra"
      ],
      [
        "c",
        "enter"
      ],
      [
        "f",
        "ly"
      ],
      [
        "l",
        "unch"
      ],
      [
        "s",
        "pot"
      ],
      [
        "in",
        "a"
      ],
      [
        "re",
        "ce"
      ],
      [
        "st",
        "roll"
      ],
      [
        "se",
        "wing"
      ],
      [
        "tu",
        "b"
      ],
      [
        "pic",
        "nic"
      ],
      [
        "bic",
        "yclists"
      ],
      [
        "perform",
        "er"
      ],
      [
        "sur",
        "face"
      ],
      [
        "dle",
        "s"
      ],
      [
        "boo",
        "ks"
      ],
      [
        "fire",
        "fight"
      ],
      [
        "dri",
        "ver"
      ],
      [
        "no",
        "se"
      ],
      [
        "vel",
        "y"
      ],
      [
        "kne",
        "e"
      ],
      [
        "attemp",
        "ts"
      ],
      [
        "bru",
        "sh"
      ],
      [
        "athle",
        "te"
      ],
      [
        "gymna",
        "st"
      ],
      [
        "stuff",
        "ed"
      ],
      [
        "prof",
        "ession"
      ],
      [
        "fest",
        "iv"
      ],
      [
        "d",
        "rop"
      ],
      [
        "o",
        "ly"
      ],
      [
        "p",
        "it"
      ],
      [
        "p",
        "ress"
      ],
      [
        "s",
        "id"
      ],
      [
        "s",
        "co"
      ],
      [
        "u",
        "al"
      ],
      [
        "in",
        "ning"
      ],
      [
        "th",
        "ird"
      ],
      [
        "hi",
        "ms"
      ],
      [
        "la",
        "ys"
      ],
      [
        "ow",
        "er"
      ],
      [
        "or",
        "ien"
      ],
      [
        "bl",
        "ouse"
      ],
      [
        "be",
        "ver"
      ],
      [
        "lo",
        "g"
      ],
      [
        "go",
        "es"
      ],
      [
        "pu",
        "shes"
      ],
      [
        "hel",
        "p"
      ],
      [
        "comp",
        "an"
      ],
      [
        "sand",
        "y"
      ],
      [
        "sl",
        "ope"
      ],
      [
        "box",
        "es"
      ],
      [
        "chas",
        "es"
      ],
      [
        "bot",
        "to"
      ],
      [
        "clu",
        "b"
      ],
      [
        "but",
        "ton"
      ],
      [
        "sty",
        "le"
      ],
      [
        "hik",
        "ers"
      ],
      [
        "pitch",
        "er"
      ],
      [
        "teenag",
        "ers"
      ],
      [
        "cheerlead",
        "ers"
      ],
      [
        "soft",
        "ball"
      ],
      [
        "pedestri",
        "ans"
      ],
      [
        "appro",
        "ach"
      ],
      [
        "balcon",
        "y"
      ],
      [
        "hims",
        "elf"
      ],
      [
        "orien",
        "tal"
      ],
      [
        "c",
        "are"
      ],
      [
        "g",
        "on"
      ],
      [
        "h",
        "al"
      ],
      [
        "j",
        "am"
      ],
      [
        "l",
        "id"
      ],
      [
        "m",
        "op"
      ],
      [
        "m",
        "ate"
      ],
      [
        "p",
        "al"
      ],
      [
        "s",
        "an"
      ],
      [
        "w",
        "ar"
      ],
      [
        "w",
        "el"
      ],
      [
        "in",
        "spec"
      ],
      [
        "it",
        "ed"
      ],
      [
        "are",
        "s"
      ],
      [
        "ic",
        "ycle"
      ],
      [
        "shi",
        "p"
      ],
      [
        "se",
        "ven"
      ],
      [
        "li",
        "ft"
      ],
      [
        "water",
        "fall"
      ],
      [
        "sk",
        "is"
      ],
      [
        "sp",
        "rink"
      ],
      [
        "pu",
        "t"
      ],
      [
        "pu",
        "ts"
      ],
      [
        "de",
        "vice"
      ],
      [
        "ben",
        "t"
      ],
      [
        "ty",
        "pe"
      ],
      [
        "des",
        "ign"
      ],
      [
        "pul",
        "ls"
      ],
      [
        "stair",
        "case"
      ],
      [
        "roller",
        "bla"
      ],
      [
        "ste",
        "ep"
      ],
      [
        "mul",
        "ti"
      ],
      [
        "spea",
        "ks"
      ],
      [
        "advert",
        "ise"
      ],
      [
        "festiv",
        "al"
      ],
      [
        "d",
        "a"
      ],
      [
        "f",
        "allen"
      ],
      [
        "n",
        "s"
      ],
      [
        "v",
        "il"
      ],
      [
        "w",
        "arm"
      ],
      [
        "an",
        "gs"
      ],
      [
        "at",
        "ting"
      ],
      [
        "st",
        "ool"
      ],
      [
        "ir",
        "ts"
      ],
      [
        "as",
        "hi"
      ],
      [
        "ic",
        "s"
      ],
      [
        "ro",
        "bes"
      ],
      [
        "sh",
        "ar"
      ],
      [
        "po",
        "di"
      ],
      [
        "over",
        "alls"
      ],
      [
        "tra",
        "vel"
      ],
      [
        "pu",
        "ddle"
      ],
      [
        "mar",
        "ching"
      ],
      [
        "dan",
        "cer"
      ],
      [
        "ca",
        "st"
      ],
      [
        "boat",
        "s"
      ],
      [
        "enjo",
        "ys"
      ],
      [
        "dri",
        "ves"
      ],
      [
        "ev",
        "ening"
      ],
      [
        "sha",
        "king"
      ],
      [
        "gentle",
        "men"
      ],
      [
        "wet",
        "suit"
      ],
      [
        "gold",
        "en"
      ],
      [
        "key",
        "board"
      ],
      [
        "grocer",
        "y"
      ],
      [
        "sca",
        "pe"
      ],
      [
        "fre",
        "sh"
      ],
      [
        "c",
        "ted"
      ],
      [
        "f",
        "ashi"
      ],
      [
        "h",
        "angs"
      ],
      [
        "j",
        "ap"
      ],
      [
        "m",
        "ound"
      ],
      [
        "n",
        "ice"
      ],
      [
        "n",
        "ative"
      ],
      [
        "p",
        "ian"
      ],
      [
        "s",
        "y"
      ],
      [
        "ar",
        "s"
      ],
      [
        "ch",
        "al"
      ],
      [
        "gr",
        "ind"
      ],
      [
        "ve",
        "ment"
      ],
      [
        "ap",
        "ers"
      ],
      [
        "fi",
        "gu"
      ],
      [
        "tra",
        "cks"
      ],
      [
        "head",
        "ed"
      ],
      [
        "je",
        "an"
      ],
      [
        "fa",
        "st"
      ],
      [
        "led",
        "ge"
      ],
      [
        "bar",
        "be"
      ],
      [
        "fore",
        "ign"
      ],
      [
        "ag",
        "es"
      ],
      [
        "window",
        "s"
      ],
      [
        "she",
        "ep"
      ],
      [
        "sha",
        "ving"
      ],
      [
        "kick",
        "s"
      ],
      [
        "cur",
        "b"
      ],
      [
        "gar",
        "b"
      ],
      [
        "bird",
        "s"
      ],
      [
        "prote",
        "ctive"
      ],
      [
        "por",
        "ch"
      ],
      [
        "teenag",
        "er"
      ],
      [
        "fing",
        "ers"
      ],
      [
        "wrap",
        "ped"
      ],
      [
        "clou",
        "dy"
      ],
      [
        "kha",
        "ki"
      ],
      [
        "laun",
        "dry"
[...]
