{
  "version": "1.0",
  "truncation": {
    "direction": "Right",
    "max_length": 512,
    "strategy": "LongestFirst",
    "stride": 0
  },
  "padding": {
    "strategy": "BatchLongest",
    "direction": "Right",
    "pad_to_multiple_of": null,
    "pad_id": 0,
    "pad_type_id": 0,
    "pad_token": "[PAD]"
  },
  "added_tokens": [
    {
      "id": 0,
      "content": "[PAD]",
      "single_word": false,
      "lstrip": false,
      "rstrip": false,
      "normalized": false,
      "special": true
    },
    {
      "id": 1,
      "content": "[UNK]",
      "single_word": false,
      "lstrip": false,
      "rstrip": false,
      "normalized": false,
      "special": true
    },
    {
      "id": 2,
      "content": "[SOS]",
      "single_word": false,
      "lstrip": false,
      "rstrip": false,
      "normalized": false,
      "special": true
    },
    {
      "id": 3,
      "content": "[EOS]",
      "single_word": false,
      "lstrip": false,
      "rstrip": false,
      "normalized": false,
      "special": true
    }
  ],
  "normalizer": {
    "type": "Sequence",
    "normalizers": [
      {
        "type": "NFD"
      },
      {
        "type": "Lowercase"
      },
      {
        "type": "StripAccents"
      }
    ]
  },
  "pre_tokenizer": {
    "type": "Whitespace"
  },
  "post_processor": {
    "type": "TemplateProcessing",
    "single": [
      {
        "SpecialToken": {
          "id": "[SOS]",
          "type_id": 0
        }
      },
      {
        "Sequence": {
          "id": "A",
          "type_id": 0
        }
      },
      {
        "SpecialToken": {
          "id": "[EOS]",
          "type_id": 0
        }
      }
    ],
    "pair": [
      {
        "Sequence": {
          "id": "A",
          "type_id": 0
        }
      },
      {
        "Sequence": {
          "id": "B",
          "type_id": 1
        }
      }
    ],
    "special_tokens": {
      "[EOS]": {
        "id": "[EOS]",
        "ids": [
          3
        ],
        "tokens": [
          "[EOS]"
        ]
      },
      "[SOS]": {
        "id": "[SOS]",
        "ids": [
          2
        ],
        "tokens": [
          "[SOS]"
        ]
      }
    }
  },
  "decoder": null,
  "model": {
    "type": "BPE",
    "dropout": null,
    "unk_token": "[UNK]",
    "continuing_subword_prefix": null,
    "end_of_word_suffix": null,
    "fuse_unk": false,
    "byte_fallback": false,
    "ignore_merges": false,
    "vocab": {
      "[PAD]": 0,
      "[UNK]": 1,
      "[SOS]": 2,
      "[EOS]": 3,
      "!": 4,
      "\"": 5,
      "#": 6,
      "%": 7,
      "&": 8,
      "'": 9,
      "(": 10,
      ")": 11,
      ",": 12,
      "-": 13,
      ".": 14,
      "/": 15,
      "0": 16,
      "1": 17,
      "2": 18,
      "3": 19,
      "4": 20,
      "5": 21,
      "6": 22,
      "7": 23,
      "8": 24,
      "9": 25,
      ":": 26,
      ";": 27,
      "?": 28,
      "@": 29,
      "_": 30,
      "a": 31,
      "b": 32,
      "c": 33,
      "d": 34,
      "e": 35,
      "f": 36,
      "g": 37,
      "h": 38,
      "i": 39,
      "j": 40,
      "k": 41,
      "l": 42,
      "m": 43,
      "n": 44,
      "o": 45,
      "p": 46,
      "q": 47,
      "r": 48,
      "s": 49,
      "t": 50,
      "u": 51,
      "v": 52,
      "w": 53,
      "x": 54,
      "y": 55,
      "z": 56,
      "ß": 57,
      "–": 58,
      "‘": 59,
      "’": 60,
      "“": 61,
      "”": 62,
      "„": 63,
      "in": 64,
      "en": 65,
      "ein": 66,
      "er": 67,
      "ch": 68,
      "au": 69,
      "eine": 70,
      "an": 71,
      "un": 72,
      "ei": 73,
      "st": 74,
      "sch": 75,
      "einem": 76,
      "ge": 77,
      "it": 78,
      "ie": 79,
      "und": 80,
      "auf": 81,
      "man": 82,
      "ar": 83,
      "mann": 84,
      "mit": 85,
      "der": 86,
      "einer": 87,
      "al": 88,
      "on": 89,
      "rau": 90,
      "hr": 91,
      "de": 92,
      "ra": 93,
      "wei": 94,
      "sp": 95,
      "te": 96,
      "or": 97,
      "ten": 98,
      "ter": 99,
      "as": 100,
      "el": 101,
      "frau": 102,
      "kl": 103,
      "ck": 104,
      "ro": 105,
      "gen": 106,
      "ich": 107,
      "einen": 108,
      "die": 109,
      "iel": 110,
      "ahr": 111,
      "im": 112,
      "zu": 113,
      "zwei": 114,
      "eh": 115,
      "den": 116,
      "bl": 117,
      "spiel": 118,
      "ma": 119,
      "men": 120,
      "ber": 121,
      "ben": 122,
      "am": 123,
      "le": 124,
      "ur": 125,
      "jun": 126,
      "gt": 127,
      "be": 128,
      "gr": 129,
      "bei": 130,
      "chen": 131,
      "and": 132,
      "rei": 133,
      "la": 134,
      "em": 135,
      "itz": 136,
      "steh": 137,
      "vor": 138,
      "ne": 139,
      "sitz": 140,
      "schw": 141,
      "ers": 142,
      "sich": 143,
      "ier": 144,
      "fahr": 145,
      "all": 146,
      "ßen": 147,
      "von": 148,
      "re": 149,
      "dem": 150,
      "junge": 151,
      "hal": 152,
      "kin": 153,
      "schen": 154,
      "ho": 155,
      "ung": 156,
      "dchen": 157,
      "ger": 158,
      "madchen": 159,
      "um": 160,
      "ße": 161,
      "pp": 162,
      "hund": 163,
      "sen": 164,
      "geh": 165,
      "at": 166,
      "il": 167,
      "arz": 168,
      "ft": 169,
      "erson": 170,
      "person": 171,
      "ut": 172,
      "et": 173,
      "schwarz": 174,
      "ball": 175,
      "stra": 176,
      "aus": 177,
      "eines": 178,
      "gel": 179,
      "blau": 180,
      "manner": 181,
      "was": 182,
      "cht": 183,
      "es": 184,
      "steht": 185,
      "klei": 186,
      "pf": 187,
      "nen": 188,
      "ot": 189,
      "ander": 190,
      "ir": 191,
      "ppe": 192,
      "bo": 193,
      "tra": 194,
      "hin": 195,
      "sitzt": 196,
      "na": 197,
      "uber": 198,
      "se": 199,
      "isch": 200,
      "ver": 201,
      "straße": 202,
      "end": 203,
      "gru": 204,
      "spr": 205,
      "halt": 206,
      "bau": 207,
      "gruppe": 208,
      "wahr": 209,
      "hem": 210,
      "ko": 211,
      "wahrend": 212,
      "unter": 213,
      "menschen": 214,
      "ik": 215,
      "das": 216,
      "ol": 217,
      "spielt": 218,
      "ist": 219,
      "ihr": 220,
      "ser": 221,
      "hemd": 222,
      "ru": 223,
      "lan": 224,
      "schau": 225,
      "we": 226,
      "ba": 227,
      "tet": 228,
      "personen": 229,
      "ent": 230,
      "rad": 231,
      "cke": 232,
      "fu": 233,
      "me": 234,
      "wasser": 235,
      "drei": 236,
      "blauen": 237,
      "kleid": 238,
      "kind": 239,
      "lu": 240,
      "gro": 241,
      "ze": 242,
      "brau": 243,
      "uh": 244,
      "aar": 245,
      "eil": 246,
      "stehen": 247,
      "weißen": 248,
      "kinder": 249,
      "neben": 250,
      "far": 251,
      "ingt": 252,
      "fel": 253,
      "ren": 254,
      "sitzen": 255,
      "hinter": 256,
      "dur": 257,
      "frauen": 258,
      "durch": 259,
      "arbei": 260,
      "roten": 261,
      "wa": 262,
      "lauf": 263,
      "hand": 264,
      "fen": 265,
      "spielen": 266,
      "he": 267,
      "her": 268,
      "fahrt": 269,
      "grun": 270,
      "geht": 271,
      "lie": 272,
      "leu": 273,
      "tr": 274,
      "farben": 275,
      "ka": 276,
      "alter": 277,
      "weiß": 278,
      "is": 279,
      "br": 280,
      "sa": 281,
      "tragt": 282,
      "teil": 283,
      "ell": 284,
      "ober": 285,
      "iert": 286,
      "kt": 287,
      "sie": 288,
      "lang": 289,
      "ja": 290,
      "lich": 291,
      "da": 292,
      "ick": 293,
      "fe": 294,
      "sh": 295,
      "ll": 296,
      "gra": 297,
      "kleines": 298,
      "par": 299,
      "macht": 300,
      "imm": 301,
      "kleidung": 302,
      "zei": 303,
      "springt": 304,
      "ange": 305,
      "us": 306,
      "schwarzen": 307,
      "entlang": 308,
      "kam": 309,
      "kleiner": 310,
      "to": 311,
      "igen": 312,
      "ad": 313,
      "des": 314,
      "weg": 315,
      "gehen": 316,
      "scha": 317,
      "spieler": 318,
      "elt": 319,
      "hrer": 320,
      "ta": 321,
      "hn": 322,
      "cken": 323,
      "haar": 324,
      "leute": 325,
      "ern": 326,
      "fuß": 327,
      "ige": 328,
      "mehrer": 329,
      "frei": 330,
      "gebau": 331,
      "zen": 332,
      "lach": 333,
      "je": 334,
      "ind": 335,
      "ischen": 336,
      "wir": 337,
      "schla": 338,
      "str": 339,
      "kleide": 340,
      "oberteil": 341,
      "fahrrad": 342,
      "ort": 343,
      "ht": 344,
      "ig": 345,
      "nt": 346,
      "etwas": 347,
      "mehrere": 348,
      "seinem": 349,
      "uch": 350,
      "bril": 351,
      "irt": 352,
      "großen": 353,
      "pu": 354,
      "kopf": 355,
      "os": 356,
      "tisch": 357,
      "shirt": 358,
      "schne": 359,
      "tel": 360,
      "grunen": 361,
      "jacke": 362,
      "luft": 363,
      "grund": 364,
      "eln": 365,
      "ieren": 366,
      "jungen": 367,
      "vers": 368,
      "ank": 369,
      "schaut": 370,
      "brille": 371,
      "schnee": 372,
      "nach": 373,
      "braun": 374,
      "ab": 375,
      "gekleide": 376,
      "zug": 377,
      "son": 378,
      "zeu": 379,
      "sam": 380,
      "hoch": 381,
      "boar": 382,
      "icht": 383,
      "hut": 384,
      "strand": 385,
      "bas": 386,
      "fot": 387,
      "schaft": 388,
      "junger": 389,
      "lauft": 390,
      "seh": 391,
      "stu": 392,
      "ild": 393,
      "farbenen": 394,
      "hat": 395,
      "ler": 396,
      "war": 397,
      "schn": 398,
      "stad": 399,
      "fur": 400,
      "sind": 401,
      "ster": 402,
      "menge": 403,
      "hintergrund": 404,
      "sehen": 405,
      "han": 406,
      "wer": 407,
      "halten": 408,
      "bt": 409,
      "freien": 410,
      "gest": 411,
      "kauf": 412,
      "of": 413,
      "tan": 414,
      "pla": 415,
      "gebaude": 416,
      "nahe": 417,
      "anderen": 418,
      "blick": 419,
      "itar": 420,
      "bar": 421,
      "vier": 422,
      "det": 423,
      "feld": 424,
      "gelben": 425,
      "park": 426,
      "vorbei": 427,
      "zeug": 428,
      "tz": 429,
      "asi": 430,
      "fahrer": 431,
      "foto": 432,
      "hu": 433,
      "wie": 434,
      "berei": 435,
      "essen": 436,
      "gras": 437,
      "tem": 438,
      "orange": 439,
      "lei": 440,
      "stadt": 441,
      "kamer": 442,
      "fer": 443,
      "stei": 444,
      "gegen": 445,
      "sche": 446,
      "boden": 447,
      "andere": 448,
      "board": 449,
      "fon": 450,
      "ih": 451,
      "fußball": 452,
      "utz": 453,
      "gitar": 454,
      "ckt": 455,
      "schwarzer": 456,
      "ska": 457,
      "kleine": 458,
      "kamera": 459,
      "vol": 460,
      "hel": 461,
      "wand": 462,
      "hunde": 463,
      "fin": 464,
      "schie": 465,
      "mar": 466,
      "wird": 467,
      "ke": 468,
      "dun": 469,
      "beim": 470,
      "lo": 471,
      "iger": 472,
      "kor": 473,
      "blon": 474,
      "rennen": 475,
      "paar": 476,
      "kleinen": 477,
      "weißer": 478,
      "einander": 479,
      "asiat": 480,
      "ans": 481,
      "wagen": 482,
      "menschenmenge": 483,
      "hol": 484,
      "uer": 485,
      "auto": 486,
      "rosa": 487,
      "rot": 488,
      "blu": 489,
      "schwimm": 490,
      "fahren": 491,
      "grau": 492,
      "otor": 493,
      "kar": 494,
      "amm": 495,
      "gitarre": 496,
      "ing": 497,
      "skate": 498,
      "bank": 499,
      "fr": 500,
      "rennt": 501,
      "liegt": 502,
      "arbeiter": 503,
      "sonnen": 504,
      "pfer": 505,
      "fuhr": 506,
      "for": 507,
      "ucht": 508,
      "ion": 509,
      "viel": 510,
      "zusam": 511,
      "ste": 512,
      "straßen": 513,
      "ische": 514,
      "len": 515,
      "pos": 516,
      "ihre": 517,
      "sieht": 518,
      "co": 519,
      "etter": 520,
      "bahn": 521,
      "kun": 522,
      "mut": 523,
      "schauen": 524,
      "kel": 525,
      "flu": 526,
      "tre": 527,
      "tes": 528,
      "bur": 529,
      "by": 530,
      "zusammen": 531,
      "ha": 532,
      "ihren": 533,
      "ink": 534,
      "sand": 535,
      "gan": 536,
      "mo": 537,
      "mu": 538,
      "große": 539,
      "anzug": 540,
      "stuh": 541,
      "herum": 542,
      "kunst": 543,
      "motor": 544,
      "steig": 545,
      "las": 546,
      "jeans": 547,
      "buh": 548,
      "braunen": 549,
      "kur": 550,
      "sei": 551,
      "schuh": 552,
      "brauner": 553,
      "mal": 554,
      "ruck": 555,
      "band": 556,
      "ku": 557,
      "sicht": 558,
      "ingen": 559,
      "schir": 560,
      "tur": 561,
      "zie": 562,
      "kletter": 563,
      "wach": 564,
      "alterer": 565,
      "sein": 566,
      "deck": 567,
      "platz": 568,
      "tt": 569,
      "buhne": 570,
      "drau": 571,
      "holz": 572,
      "mau": 573,
      "hose": 574,
      "draußen": 575,
      "laufen": 576,
      "zeit": 577,
      "arm": 578,
      "dern": 579,
      "ele": 580,
      "base": 581,
      "ss": 582,
      "befin": 583,
      "chtet": 584,
      "chten": 585,
      "pa": 586,
      "per": 587,
      "ran": 588,
      "gehweg": 589,
      "baum": 590,
      "elle": 591,
      "skateboard": 592,
      "hell": 593,
      "geschaft": 594,
      "bild": 595,
      "seine": 596,
      "sten": 597,
      "weiße": 598,
      "blickt": 599,
      "wachsen": 600,
      "baby": 601,
      "mik": 602,
      "hinunter": 603,
      "ischer": 604,
      "mus": 605,
      "mikro": 606,
      "ket": 607,
      "boot": 608,
      "sport": 609,
      "arbeitet": 610,
      "dabei": 611,
      "lacheln": 612,
      "tag": 613,
      "seinen": 614,
      "dar": 615,
      "als": 616,
      "tragen": 617,
      "helm": 618,
      "wal": 619,
      "kon": 620,
      "fest": 621,
      "zer": 622,
      "angen": 623,
      "schl": 624,
      "versucht": 625,
      "mer": 626,
      "schu": 627,
      "arbeiten": 628,
      "stein": 629,
      "dam": 630,
      "hen": 631,
      "haus": 632,
      "bedeck": 633,
      "so": 634,
      "kampf": 635,
      "nis": 636,
      "zeigt": 637,
      "ften": 638,
      "stau": 639,
      "burger": 640,
      "baseball": 641,
      "hosen": 642,
      "sto": 643,
      "stand": 644,
      "mantel": 645,
      "verkauf": 646,
      "ki": 647,
      "machen": 648,
      "gestrei": 649,
      "dame": 650,
      "pol": 651,
      "tele": 652,
      "schnei": 653,
      "geb": 654,
      "kom": 655,
      "lachelt": 656,
      "trik": 657,
      "lichen": 658,
      "orangefarbenen": 659,
      "roll": 660,
      "ihrem": 661,
      "iz": 662,
      "off": 663,
      "stuhl": 664,
      "trikot": 665,
      "altere": 666,
      "graf": 667,
      "wo": 668,
      "motorrad": 669,
      "gesicht": 670,
      "ihm": 671,
      "fit": 672,
      "pe": 673,
      "zt": 674,
      "junges": 675,
      "burgersteig": 676,
      "over": 677,
      "fla": 678,
      "erwachsen": 679,
      "po": 680,
      "nacht": 681,
      "liest": 682,
      "spricht": 683,
      "ikan": 684,
      "pro": 685,
      "anderer": 686,
      "schirm": 687,
      "bu": 688,
      "unterhalten": 689,
      "fuhrt": 690,
      "li": 691,
      "ner": 692,
      "bele": 693,
      "markt": 694,
      "wald": 695,
      "sur": 696,
      "pull": 697,
      "telefon": 698,
      "fo": 699,
      "betra": 700,
      "fall": 701,
      "ßer": 702,
      "ine": 703,
      "pferd": 704,
      "haaren": 705,
      "vo": 706,
      "che": 707,
      "stru": 708,
      "tennis": 709,
      "weißem": 710,
      "feuer": 711,
      "raum": 712,
      "spa": 713,
      "musik": 714,
      "meer": 715,
      "form": 716,
      "buch": 717,
      "hl": 718,
      "zau": 719,
      "schild": 720,
      "no": 721,
      "viele": 722,
      "oba": 723,
      "ßt": 724,
      "zum": 725,
      "basket": 726,
      "grauen": 727,
      "berg": 728,
      "restau": 729,
      "sonnenbrille": 730,
      "restauran": 731,
      "glei": 732,
      "restaurant": 733,
      "stat": 734,
      "itt": 735,
      "basketball": 736,
      "bun": 737,
      "blauem": 738,
      "orts": 739,
      "stuck": 740,
      "spielzeug": 741,
      "beoba": 742,
      "gekleidete": 743,
      "seiner": 744,
      "ton": 745,
      "zuschau": 746,
      "felsen": 747,
      "dunkel": 748,
      "fun": 749,
      "eis": 750,
      "mutze": 751,
      "dr": 752,
      "stell": 753,
      "schutz": 754,
      "shorts": 755,
      "zaun": 756,
      "di": 757,
      "singt": 758,
      "otball": 759,
      "bart": 760,
      "klettert": 761,
      "football": 762,
      "land": 763,
      "ob": 764,
      "ihnen": 765,
      "ade": 766,
      "fenster": 767,
      "hau": 768,
      "mikrofon": 769,
      "blumen": 770,
      "ill": 771,
      "bade": 772,
      "funf": 773,
      "uni": 774,
      "posiert": 775,
      "bus": 776,
      "versamm": 777,
      "darauf": 778,
      "regen": 779,
      "hei": 780,
      "einige": 781,
      "jeman": 782,
      "pullover": 783,
      "schrei": 784,
      "blauer": 785,
      "wirft": 786,
      "befindet": 787,
      "gelbe": 788,
      "tro": 789,
      "stre": 790,
      "assen": 791,
      "hugel": 792,
      "ins": 793,
      "art": 794,
      "ett": 795,
      "korper": 796,
      "fro": 797,
      "tern": 798,
      "klein": 799,
      "becken": 800,
      "bal": 801,
      "kan": 802,
      "denen": 803,
      "ppen": 804,
      "fluss": 805,
      "bru": 806,
      "iet": 807,
      "bereitet": 808,
      "kn": 809,
      "met": 810,
      "inkt": 811,
      "scht": 812,
      "del": 813,
      "springen": 814,
      "gang": 815,
      "schwarzem": 816,
      "sehr": 817,
      "isst": 818,
      "gekleideter": 819,
      "zw": 820,
      "sta": 821,
      "fa": 822,
      "schuhen": 823,
      "fre": 824,
      "leh": 825,
      "richt": 826,
      "rotem": 827,
      "langen": 828,
      "wiese": 829,
      "seite": 830,
      "strumen": 831,
      "do": 832,
      "oder": 833,
      "rut": 834,
      "roter": 835,
      "schwarze": 836,
      "stock": 837,
      "bre": 838,
      "kindern": 839,
      "op": 840,
      "ts": 841,
      "sack": 842,
      "schr": 843,
      "gew": 844,
      "mitten": 845,
      "vi": 846,
      "unden": 847,
      "mannern": 848,
      "tasche": 849,
      "tanzen": 850,
      "bluse": 851,
      "gestreiften": 852,
      "hon": 853,
      "wartet": 854,
      "hof": 855,
      "alt": 856,
      "ken": 857,
      "licher": 858,
      "haarige": 859,
      "treppe": 860,
      "maul": 861,
      "schul": 862,
      "werden": 863,
      "quer": 864,
      "ty": 865,
      "liche": 866,
      "ien": 867,
      "innen": 868,
      "schm": 869,
      "voller": 870,
      "posieren": 871,
      "malt": 872,
      "pier": 873,
      "ges": 874,
      "metall": 875,
      "glas": 876,
      "hor": 877,
      "oben": 878,
      "seil": 879,
      "zimm": 880,
      "geben": 881,
      "ckey": 882,
      "liegen": 883,
      "uberquer": 884,
      "radfahrer": 885,
      "handy": 886,
      "beleb": 887,
      "einkauf": 888,
      "sprung": 889,
      "oberkorper": 890,
      "schlag": 891,
      "warten": 892,
      "utzt": 893,
      "dunkl": 894,
      "zimmer": 895,
      "asse": 896,
      "amer": 897,
      "zieht": 898,
      "mauer": 899,
      "reitet": 900,
      "isten": 901,
      "iv": 902,
      "ungen": 903,
      "blas": 904,
      "masch": 905,
      "nachts": 906,
      "kra": 907,
      "team": 908,
      "ierten": 909,
      "brun": 910,
      "werk": 911,
      "gol": 912,
      "za": 913,
      "instrumen": 914,
      "gend": 915,
      "ette": 916,
      "renn": 917,
      "betrachtet": 918,
      "spaz": 919,
      "haut": 920,
      "zwischen": 921,
      "ass": 922,
      "genie": 923,
      "kost": 924,
      "leuten": 925,
      "blonde": 926,
      "tor": 927,
      "baumen": 928,
      "ju": 929,
      "ski": 930,
      "bauarbeiter": 931,
      "rucken": 932,
      "fels": 933,
      "ift": 934,
      "mt": 935,
      "cher": 936,
      "schlaft": 937,
      "uche": 938,
      "amerikan": 939,
      "sel": 940,
      "weste": 941,
      "fern": 942,
      "sno": 943,
      "lila": 944,
      "fangen": 945,
      "rasen": 946,
      "großer": 947,
      "tritt": 948,
      "fan": 949,
      "flach": 950,
      "kuche": 951,
      "pink": 952,
      "ena": 953,
      "handen": 954,
      "haben": 955,
      "lehnt": 956,
      "snow": 957,
      "bil": 958,
      "out": 959,
      "immt": 960,
      "inter": 961,
      "schon": 962,
      "bedeckten": 963,
      "mittel": 964,
      "miteinander": 965,
      "herunter": 966,
      "beobachtet": 967,
      "kleinkind": 968,
      "zo": 969,
      "rucksack": 970,
      "ihrer": 971,
      "tanzt": 972,
      "richtung": 973,
      "jo": 974,
      "wur": 975,
      "rock": 976,
      "kop": 977,
      "kostum": 978,
      "fam": 979,
      "verschie": 980,
      "schauf": 981,
      "let": 982,
      "reifen": 983,
      "schiebt": 984,
      "schwimmbecken": 985,
      "flug": 986,
      "poliz": 987,
      "famil": 988,
      "gar": 989,
      "rich": 990,
      "ue": 991,
      "schein": 992,
      "dach": 993,
      "maschine": 994,
      "rie": 995,
      "su": 996,
      "tau": 997,
      "beton": 998,
      "laden": 999,
      "hockey": 1000,
      "wehr": 1001,
      "fris": 1002,
      "befinden": 1003,
      "vom": 1004,
      "wett": 1005,
      "ungs": 1006,
      "see": 1007,
      "fotograf": 1008,
      "orangefarben": 1009,
      "net": 1010,
      "schaukel": 1011,
      "flache": 1012,
      "gu": 1013,
      "ker": 1014,
      "lin": 1015,
      "welle": 1016,
      "star": 1017,
      "zuschauer": 1018,
      "brucke": 1019,
      "papier": 1020,
      "getr": 1021,
      "inken": 1022,
      "getrank": 1023,
      "nimmt": 1024,
      "sol": 1025,
      "umgeben": 1026,
      "asiatische": 1027,
      "kurzen": 1028,
      "brett": 1029,
      "grill": 1030,
      "gelander": 1031,
      "nah": 1032,
      "hil": 1033,
      "anst": 1034,
      "armen": 1035,
      "legt": 1036,
      "boarder": 1037,
      "graffit": 1038,
      "ca": 1039,
      "hne": 1040,
      "anzu": 1041,
      "alten": 1042,
      "rote": 1043,
      "gelb": 1044,
      "braune": 1045,
      "offen": 1046,
      "schneidet": 1047,
      "flag": 1048,
      "gi": 1049,
      "igt": 1050,
      "zur": 1051,
      "ballon": 1052,
      "gebaudes": 1053,
      "com": 1054,
      "verkauft": 1055,
      "familie": 1056,
      "mpe": 1057,
      "wen": 1058,
      "gem": 1059,
      "alte": 1060,
      "gerade": 1061,
      "halb": 1062,
      "boy": 1063,
      "veranst": 1064,
      "trinkt": 1065,
      "hangt": 1066,
      "volle": 1067,
      "korb": 1068,
      "rosafarbenen": 1069,
      "cow": 1070,
      "uniform": 1071,
      "versammelt": 1072,
      "jemand": 1073,
      "gelan": 1074,
      "bunten": 1075,
      "neh": 1076,
      "ummer": 1077,
      "aussehen": 1078,
      "ellen": 1079,
      "erwachsene": 1080,
      "pool": 1081,
      "ihn": 1082,
      "sau": 1083,
      "blat": 1084,
      "autos": 1085,
      "veranstalt": 1086,
      "ds": 1087,
      "tat": 1088,
      "stelle": 1089,
      "deo": 1090,
      "span": 1091,
      "fahrzeug": 1092,
      "rust": 1093,
      "full": 1094,
      "mutter": 1095,
      "spazieren": 1096,
      "outfit": 1097,
      "kus": 1098,
      "reihe": 1099,
      "isches": 1100,
      "schlagt": 1101,
      "telefoniert": 1102,
      "brunnen": 1103,
      "lau": 1104,
      "rand": 1105,
      "ert": 1106,
      "teena": 1107,
      "hebt": 1108,
      "fußballspieler": 1109,
      "wohn": 1110,
      "belebten": 1111,
      "veranstaltung": 1112,
      "du": 1113,
      "kei": 1114,
      "itten": 1115,
      "radern": 1116,
      "bee": 1117,
      "nack": 1118,
      "hemden": 1119,
      "westen": 1120,
      "sonn": 1121,
      "blicken": 1122,
      "schwimmt": 1123,
      "weißes": 1124,
      "compu": 1125,
      "cowboy": 1126,
      "teenager": 1127,
      "chs": 1128,
      "gewasser": 1129,
      "braut": 1130,
      "farb": 1131,
      "voll": 1132,
      "kehr": 1133,
      "bi": 1134,
      "ling": 1135,
      "beu": 1136,
      "lachen": 1137,
      "immel": 1138,
      "kopfbedeck": 1139,
      "typ": 1140,
      "frisbee": 1141,
      "bor": 1142,
      "fol": 1143,
      "fliegt": 1144,
      "himmel": 1145,
      "decke": 1146,
      "hohen": 1147,
      "freiem": 1148,
      "schneebedeckten": 1149,
      "gekleidet": 1150,
      "bereiten": 1151,
      "vielen": 1152,
      "kuchen": 1153,
      "kommt": 1154,
      "volley": 1155,
      "ga": 1156,
      "einigen": 1157,
      "orangen": 1158,
      "ikum": 1159,
      "grunem": 1160,
      "lasst": 1161,
      "rustung": 1162,
      "volleyball": 1163,
      "kat": 1164,
      "zig": 1165,
      "blikum": 1166,
      "hinauf": 1167,
      "publikum": 1168,
      "stufen": 1169,
      "hande": 1170,
      "muse": 1171,
      "sonnigen": 1172,
      "if": 1173,
      "mannschaft": 1174,
      "leben": 1175,
      "befest": 1176,
      "grei": 1177,
      "back": 1178,
      "laufer": 1179,
      "gestreif": 1180,
      "schrift": 1181,
      "zogen": 1182,
      "qu": 1183,
      "set": 1184,
      "tei": 1185,
      "stik": 1186,
      "ausrustung": 1187,
      "train": 1188,
      "jekt": 1189,
      "kampfen": 1190,
      "ak": 1191,
      "ecke": 1192,
      "schur": 1193,
      "repar": 1194,
      "dunklen": 1195,
      "san": 1196,
      "ufer": 1197,
      "wander": 1198,
      "ras": 1199,
      "laster": 1200,
      "blaue": 1201,
      "bereit": 1202,
      "treten": 1203,
      "mull": 1204,
      "offent": 1205,
      "ate": 1206,
      "fisch": 1207,
      "augen": 1208,
      "stange": 1209,
      "teten": 1210,
      "spielplatz": 1211,
      "hals": 1212,
      "trick": 1213,
      "bereich": 1214,
      "asiatischer": 1215,
      "zeitung": 1216,
      "vogel": 1217,
      "freund": 1218,
      "graffiti": 1219,
      "kopfbedeckung": 1220,
      "bier": 1221,
      "kr": 1222,
      "mitt": 1223,
      "zuschauen": 1224,
      "unterhalt": 1225,
      "schlager": 1226,
      "blondes": 1227,
      "ater": 1228,
      "angel": 1229,
      "schal": 1230,
      "mannes": 1231,
      "mat": 1232,
      "herr": 1233,
      "kunstler": 1234,
      "ziegel": 1235,
      "uberqueren": 1236,
      "computer": 1237,
      "mittler": 1238,
      "winter": 1239,
      "auch": 1240,
      "jugend": 1241,
      "zigar": 1242,
      "fei": 1243,
      "smittel": 1244,
      "rampe": 1245,
      "mensch": 1246,
      "haariger": 1247,
      "fuhren": 1248,
      "kunststuck": 1249,
      "vio": 1250,
      "zelt": 1251,
      "bett": 1252,
      "davon": 1253,
      "karierten": 1254,
      "statue": 1255,
      "mas": 1256,
      "sil": 1257,
      "sechs": 1258,
      "verschnei": 1259,
      "roller": 1260,
      "dunkelhaut": 1261,
      "genießt": 1262,
      "verschieden": 1263,
      "mund": 1264,
      "mitte": 1265,
      "spre": 1266,
      "dies": 1267,
      "beg": 1268,
      "feuerwehr": 1269,
      "zuschauern": 1270,
      "strecke": 1271,
      "nehmen": 1272,
      "mittleren": 1273,
      "gner": 1274,
      "eren": 1275,
      "lacht": 1276,
      "vorder": 1277,
      "gelber": 1278,
      "pfad": 1279,
      "alters": 1280,
      "tanz": 1281,
      "garten": 1282,
      "gibt": 1283,
      "bik": 1284,
      "einsam": 1285,
      "strei": 1286,
      "scho": 1287,
      "benutzt": 1288,
      "spritz": 1289,
      "fotos": 1290,
      "gegenstand": 1291,
      "stuhlen": 1292,
      "nummer": 1293,
      "sof": 1294,
      "anc": 1295,
      "schus": 1296,
      "arbeit": 1297,
      "großes": 1298,
      "baseballspieler": 1299,
      "gleich": 1300,
      "rutsche": 1301,
      "einkaufs": 1302,
      "bel": 1303,
      "skop": 1304,
      "außer": 1305,
      "weih": 1306,
      "trinken": 1307,
      "ganger": 1308,
      "musiker": 1309,
      "obst": 1310,
      "ries": 1311,
      "bis": 1312,
      "dra": 1313,
      "ffe": 1314,
      "pel": 1315,
      "phon": 1316,
      "chter": 1317,
      "zusieht": 1318,
      "blo": 1319,
      "hang": 1320,
      "kurz": 1321,
      "stellt": 1322,
      "lebensmittel": 1323,
      "aben": 1324,
      "sk": 1325,
      "wund": 1326,
      "stro": 1327,
      "schut": 1328,
      "aufen": 1329,
      "immen": 1330,
      "zuschaut": 1331,
      "zusehen": 1332,
      "pfen": 1333,
      "nebeneinander": 1334,
      "fußganger": 1335,
      "schlagen": 1336,
      "sonne": 1337,
      "stumen": 1338,
      "helmen": 1339,
      "surfer": 1340,
      "scheint": 1341,
      "sofa": 1342,
      "krei": 1343,
      "nicht": 1344,
      "schei": 1345,
      "gemuse": 1346,
      "deckt": 1347,
      "pflan": 1348,
      "pflaster": 1349,
      "kostumen": 1350,
      "dre": 1351,
      "the": 1352,
      "eimer": 1353,
      "stan": 1354,
      "feln": 1355,
      "kappe": 1356,
      "iges": 1357,
      "igkei": 1358,
      "kul": 1359,
      "gebiet": 1360,
      "kniet": 1361,
      "afr": 1362,
      "uchen": 1363,
      "ition": 1364,
      "rotes": 1365,
      "hinten": 1366,
      "versuchen": 1367,
      "waren": 1368,
      "turn": 1369,
      "kommen": 1370,
      "trikots": 1371,
      "dreh": 1372,
      "anzugen": 1373,
      "zigarette": 1374,
      "sal": 1375,
      "spie": 1376,
      "mehreren": 1377,
      "schuhe": 1378,
      "beobachten": 1379,
      "bikin": 1380,
      "violet": 1381,
      "gs": 1382,
      "kre": 1383,
      "tu": 1384,
      "wol": 1385,
      "ess": 1386,
      "bow": 1387,
      "farbenfro": 1388,
      "werfen": 1389,
      "fangt": 1390,
      "schurze": 1391,
      "flo": 1392,
      "tuch": 1393,
      "uhr": 1394,
      "raucht": 1395,
      "beide": 1396,
      "geld": 1397,
      "farbener": 1398,
      "konzer": 1399,
      "tennisball": 1400,
      "flagge": 1401,
      "offentlichen": 1402,
      "afrikan": 1403,
      "beh": 1404,
      "mm": 1405,
      "wanderer": 1406,
      "zent": 1407,
      "bla": 1408,
      "netz": 1409,
      "umm": 1410,
      "werb": 1411,
      "huten": 1412,
      "leiter": 1413,
      "ferne": 1414,
      "flasche": 1415,
      "betrachten": 1416,
      "rutscht": 1417,
      "verschneiten": 1418,
      "weihnachts": 1419,
      "afro": 1420,
      "rt": 1421,
      "stie": 1422,
      "gegner": 1423,
      "blich": 1424,
      "last": 1425,
      "reden": 1426,
      "gehsteig": 1427,
      "ausgest": 1428,
      "gruner": 1429,
      "top": 1430,
      "formen": 1431,
      "klettern": 1432,
      "blasen": 1433,
      "konzert": 1434,
      "ckl": 1435,
      "ust": 1436,
      "ve": 1437,
      "wat": 1438,
      "diese": 1439,
      "halle": 1440,
      "gerat": 1441,
      "blonden": 1442,
      "gebung": 1443,
      "erwachsener": 1444,
      "folgt": 1445,
      "wein": 1446,
      "unten": 1447,
      "arme": 1448,
      "alen": 1449,
      "ment": 1450,
      "leuchten": 1451,
      "licht": 1452,
      "zeich": 1453,
      "ziehen": 1454,
      "surf": 1455,
      "bartiger": 1456,
      "instrument": 1457,
      "snowboarder": 1458,
      "befestig": 1459,
      "außerhalb": 1460,
      "vater": 1461,
      "wn": 1462,
      "unge": 1463,
      "weiter": 1464,
      "lesen": 1465,
      "kleidern": 1466,
      "verkehr": 1467,
      "untergang": 1468,
      "dass": 1469,
      "issen": 1470,
      "hangen": 1471,
      "basketballspieler": 1472,
      "schreibt": 1473,
      "snowboard": 1474,
      "greift": 1475,
      "spiegel": 1476,
      "bikini": 1477,
      "hnen": 1478,
      "pen": 1479,
      "swe": 1480,
      "sucht": 1481,
      "wan": 1482,
      "mannliche": 1483,
      "klassen": 1484,
      "schwimmen": 1485,
      "gerust": 1486,
      "blaues": 1487,
      "box": 1488,
      "lange": 1489,
      "damen": 1490,
      "dessen": 1491,
      "plastik": 1492,
      "sonnenuntergang": 1493,
      "geschafts": 1494,
      "surft": 1495,
      "skifahrer": 1496,
      "polizist": 1497,
      "bowling": 1498,
      "aten": 1499,
      "ban": 1500,
      "ende": 1501,
      "chin": 1502,
      "schat": 1503,
      "aufschrift": 1504,
      "ong": 1505,
      "zuruck": 1506,
      "heraus": 1507,
      "kapu": 1508,
      "tanzer": 1509,
      "uniformen": 1510,
      "gelbem": 1511,
      "fotografiert": 1512,
      "hilft": 1513,
      "cafe": 1514,
      "zentr": 1515,
      "tie": 1516,
      "ziel": 1517,
      "stamm": 1518,
      "beiden": 1519,
      "atshirt": 1520,
      "ktion": 1521,
      "barfuß": 1522,
      "stadtischen": 1523,
      "kampfsport": 1524,
      "jog": 1525,
      "guckt": 1526,
      "beugt": 1527,
      "afroamerikan": 1528,
      "sweatshirt": 1529,
      "hort": 1530,
      "mil": 1531,
      "tier": 1532,
      "unbefestig": 1533,
      "alle": 1534,
      "kaja": 1535,
      "schaften": 1536,
      "haare": 1537,
      "hochzeit": 1538,
      "muster": 1539,
      "uberquert": 1540,
      "schonen": 1541,
      "polizisten": 1542,
      "iff": 1543,
      "sprechen": 1544,
      "kajak": 1545,
      "haufen": 1546,
      "lt": 1547,
      "pft": 1548,
      "stoff": 1549,
      "kla": 1550,
      "umgebung": 1551,
      "boo": 1552,
      "wasch": 1553,
      "handschuhen": 1554,
      "jacken": 1555,
      "taschen": 1556,
      "schlafen": 1557,
      "gegend": 1558,
      "erwachsenen": 1559,
      "versammeln": 1560,
      "streckt": 1561,
      "schmutz": 1562,
      "flugzeug": 1563,
      "nacktem": 1564,
      "ffen": 1565,
      "leine": 1566,
      "ohr": 1567,
      "pad": 1568,
      "einge": 1569,
      "erle": 1570,
      "weiblich": 1571,
      "sicher": 1572,
      "bogen": 1573,
      "daten": 1574,
      "blonder": 1575,
      "schuler": 1576,
      "fallen": 1577,
      "landschaft": 1578,
      "gestreiftem": 1579,
      "silber": 1580,
      "cklich": 1581,
      "dition": 1582,
      "lk": 1583,
      "min": 1584,
      "nick": 1585,
      "singen": 1586,
      "wel": 1587,
      "wellen": 1588,
      "leeren": 1589,
      "hohe": 1590,
      "lucklich": 1591,
      "arbeits": 1592,
      "kopfhor": 1593,
      "luftballon": 1594,
      "abge": 1595,
      "finger": 1596,
      "asiatischen": 1597,
      "pack": 1598,
      "schlamm": 1599,
      "schlauch": 1600,
      "soldaten": 1601,
      "eben": 1602,
      "gei": 1603,
      "kuh": 1604,
      "lle": 1605,
      "nas": 1606,
      "pan": 1607,
      "plan": 1608,
      "sers": 1609,
      "rodeo": 1610,
      "leder": 1611,
      "athon": 1612,
      "tradition": 1613,
      "farbenem": 1614,
      "zeichen": 1615,
      "marathon": 1616,
      "pferde": 1617,
      "lassen": 1618,
      "schlos": 1619,
      "badeanzug": 1620,
      "genießen": 1621,
      "clo": 1622,
      "flie": 1623,
      "ippe": 1624,
      "kir": 1625,
      "lam": 1626,
      "ow": 1627,
      "oren": 1628,
      "lett": 1629,
      "bewachsen": 1630,
      "utzen": 1631,
      "wassers": 1632,
      "entspan": 1633,
      "jagt": 1634,
      "parade": 1635,
      "party": 1636,
      "ings": 1637,
      "treppen": 1638,
      "mobil": 1639,
      "seifen": 1640,
      "mikrophon": 1641,
      "gelbes": 1642,
      "schlagzeug": 1643,
      "gemeinsam": 1644,
      "kreu": 1645,
      "watte": 1646,
      "ffel": 1647,
      "kau": 1648,
      "liert": 1649,
      "ohne": 1650,
      "ptop": 1651,
      "tun": 1652,
      "inmitten": 1653,
      "laptop": 1654,
      "bad": 1655,
      "kaffe": 1656,
      "eller": 1657,
      "gekleideten": 1658,
      "kaufen": 1659,
      "schlitten": 1660,
      "wobei": 1661,
      "motorradfahrer": 1662,
      "beleuch": 1663,
      "schreib": 1664,
      "balanc": 1665,
      "sanger": 1666,
      "maske": 1667,
      "verschiedene": 1668,
      "scheibe": 1669,
      "belt": 1670,
      "flei": 1671,
      "stern": 1672,
      "schmu": 1673,
      "rader": 1674,
      "bedi": 1675,
      "reiten": 1676,
      "schwingt": 1677,
      "recht": 1678,
      "umarm": 1679,
      "ause": 1680,
      "geln": 1681,
      "schauk": 1682,
      "grune": 1683,
      "liches": 1684,
      "tain": 1685,
      "braunem": 1686,
      "samm": 1687,
      "parkplatz": 1688,
      "gegenuber": 1689,
      "grauem": 1690,
      "ammer": 1691,
      "bull": 1692,
      "schutzhelm": 1693,
      "regenschirm": 1694,
      "starrt": 1695,
      "riesigen": 1696,
      "pflanzen": 1697,
      "dreht": 1698,
      "stiefeln": 1699,
      "militar": 1700,
      "lkw": 1701,
      "gie": 1702,
      "kunden": 1703,
      "nu": 1704,
      "pun": 1705,
      "pru": 1706,
      "pass": 1707,
      "chte": 1708,
      "bergen": 1709,
      "beruhr": 1710,
      "schwarzes": 1711,
      "anderes": 1712,
      "verkleide": 1713,
      "kinderwagen": 1714,
      "alteren": 1715,
      "sachen": 1716,
      "tour": 1717,
      "gebauden": 1718,
      "shirts": 1719,
      "loch": 1720,
      "sohn": 1721,
      "tromm": 1722,
      "richter": 1723,
      "linie": 1724,
      "gelande": 1725,
      "tatow": 1726,
      "wunder": 1727,
      "clown": 1728,
      "ach": 1729,
      "druck": 1730,
      "mon": 1731,
      "ym": 1732,
      "erin": 1733,
      "spar": 1734,
      "demotor": 1735,
      "spring": 1736,
      "baustelle": 1737,
      "grunes": 1738,
      "fuhrung": 1739,
      "straßenrand": 1740,
      "straßenecke": 1741,
      "lachelnd": 1742,
      "schulter": 1743,
      "pinkfarbenen": 1744,
      "offenen": 1745,
      "wendet": 1746,
      "gelandemotor": 1747,
      "jugendlicher": 1748,
      "schatten": 1749,
      "kreuz": 1750,
      "fig": 1751,
      "gut": 1752,
      "jahr": 1753,
      "pause": 1754,
      "“.": 1755,
      "steinen": 1756,
      "gepflaster": 1757,
      "dert": 1758,
      "dieser": 1759,
      "blum": 1760,
      "ruh": 1761,
      "ellt": 1762,
      "steigen": 1763,
      "hafen": 1764,
      "overall": 1765,
      "cheerle": 1766,
      "stellung": 1767,
      "gold": 1768,
      "hockeyspieler": 1769,
      "orangefarbener": 1770,
      "schoß": 1771,
      "spritzt": 1772,
      "kreis": 1773,
      "paddel": 1774,
      "umarmt": 1775,
      "bein": 1776,
      "glie": 1777,
      "lung": 1778,
      "ptur": 1779,
      "putzt": 1780,
      "tischen": 1781,
      "eisen": 1782,
      "gezogen": 1783,
      "aufnah": 1784,
      "rohr": 1785,
      "bekleidung": 1786,
      "ierte": 1787,
      "schnur": 1788,
      "grasbewachsen": 1789,
      "ganz": 1790,
      "schirmen": 1791,
      "tennisspieler": 1792,
      "krawatte": 1793,
      "teams": 1794,
      "zahl": 1795,
      "laub": 1796,
      "backstein": 1797,
      "setzt": 1798,
      "dunkelhautiger": 1799,
      "kulptur": 1800,
      "chines": 1801,
      "schreibtisch": 1802,
      "fleisch": 1803,
      "cheerlea": 1804,
      "fil": 1805,
      "glucklich": 1806,
      "kick": 1807,
      "nel": 1808,
      "sat": 1809,
      "trei": 1810,
      "schlange": 1811,
      "mitglie": 1812,
      "spitz": 1813,
      "tell": 1814,
      "cker": 1815,
      "latz": 1816,
      "irgend": 1817,
      "groß": 1818,
      "fell": 1819,
      "schnau": 1820,
      "sandalen": 1821,
      "hellhaut": 1822,
      "objekt": 1823,
      "wurf": 1824,
      "repariert": 1825,
      "vordergrund": 1826,
      "bst": 1827,
      "cro": 1828,
      "gur": 1829,
      "kten": 1830,
      "aum": 1831,
      "lage": 1832,
      "fahrradern": 1833,
      "koch": 1834,
      "iste": 1835,
      "schlaf": 1836,
      "fahrradfahrer": 1837,
      "anken": 1838,
      "gekleidetes": 1839,
      "gegeneinander": 1840,
      "vollen": 1841,
      "schieds": 1842,
      "kurzer": 1843,
      "verkaufen": 1844,
      "verkaufer": 1845,
      "statt": 1846,
      "footballspieler": 1847,
      "gewor": 1848,
      "video": 1849,
      "fullten": 1850,
      "schussel": 1851,
      "einkaufswagen": 1852,
      "ce": 1853,
      "fliegen": 1854,
      "nie": 1855,
      "erde": 1856,
      "schil": 1857,
      "aufger": 1858,
      "deon": 1859,
      "ori": 1860,
      "klippe": 1861,
      "bedeckt": 1862,
      "atur": 1863,
      "angezogen": 1864,
      "asiatisches": 1865,
      "pferden": 1866,
      "lachelnde": 1867,
      "komp": 1868,
      "jemandem": 1869,
      "bike": 1870,
      "schuttel": 1871,
      "lastwagen": 1872,
      "schlossen": 1873,
      "balanciert": 1874,
      "schiedsrichter": 1875,
      "fle": 1876,
      "jong": 1877,
      "kal": 1878,
      "nung": 1879,
      "rein": 1880,
      "wu": 1881,
      "winkt": 1882,
      "ppich": 1883,
      "trager": 1884,
      "hindern": 1885,
      "heben": 1886,
      "kordeon": 1887,
      "rothaarige": 1888,
      "frisch": 1889,
      "projekt": 1890,
      "buro": 1891,
      "fallt": 1892,
      "stellen": 1893,
      "badehose": 1894,
      "kanu": 1895,
      "schaufel": 1896,
      "kusst": 1897,
      "akkordeon": 1898,
      "weibliche": 1899,
      "mobiltelefon": 1900,
      "aufnahme": 1901,
      "fischer": 1902,
      "kha": 1903,
      "link": 1904,
      "pick": 1905,
      "bewe": 1906,
      "neu": 1907,
      "schwe": 1908,
      "wasche": 1909,
      "wegs": 1910,
      "igem": 1911,
      "schnell": 1912,
      "stadion": 1913,
      "tankt": 1914,
      "marsch": 1915,
      "lock": 1916,
      "kugel": 1917,
      "hellbrauner": 1918,
      "mikroskop": 1919,
      "heits": 1920,
      "felswand": 1921,
      "wettkampf": 1922,
      "orangefarbenem": 1923,
      "hilfe": 1924,
      "blatt": 1925,
      "kussen": 1926,
      "halsband": 1927,
      "surfbrett": 1928,
      "klassenzimmer": 1929,
      "kapuzen": 1930,
      "geworfen": 1931,
      "bie": 1932,
      "beinen": 1933,
      "go": 1934,
      "kit": 1935,
      "ps": 1936,
      "szen": 1937,
      "außen": 1938,
      "steine": 1939,
      "teppich": 1940,
      "mahl": 1941,
      "reiter": 1942,
      "lat": 1943,
      "baume": 1944,
      "davor": 1945,
      "zeigen": 1946,
      "oberteilen": 1947,
      "studen": 1948,
      "baren": 1949,
      "holt": 1950,
      "gesichts": 1951,
      "gleitet": 1952,
      "kann": 1953,
      "belebte": 1954,
      "golf": 1955,
      "schaufen": 1956,
      "ausgestre": 1957,
      "unbefestigten": 1958,
      "tanktop": 1959,
      "ag": 1960,
      "fru": 1961,
      "osten": 1962,
      "seines": 1963,
      "eingang": 1964,
      "stur": 1965,
      "stir": 1966,
      "sper": 1967,
      "spielfeld": 1968,
      "redet": 1969,
      "how": 1970,
      "ppt": 1971,
      "utze": 1972,
      "aussieht": 1973,
      "tram": 1974,
      "ischt": 1975,
      "durchs": 1976,
      "tochter": 1977,
      "leicht": 1978,
      "fert": 1979,
      "steigt": 1980,
      "fußballspiel": 1981,
      "skateboarder": 1982,
      "hauses": 1983,
      "spaß": 1984,
      "blatter": 1985,
      "feier": 1986,
      "leuchtend": 1987,
      "seifenblasen": 1988,
      "stirn": 1989,
      "ex": 1990,
      "mot": 1991,
      "skulptur": 1992,
      "tasse": 1993,
      "wind": 1994,
      "zel": 1995,
      "untain": 1996,
      "bekleide": 1997,
      "hunden": 1998,
      "ftuch": 1999,
      "kocht": 2000,
      "tran": 2001,
      "ello": 2002,
      "parkt": 2003,
      "hub": 2004,
      "skater": 2005,
      "asiatisch": 2006,
      "mountain": 2007,
      "bildschirm": 2008,
      "offnet": 2009,
      "station": 2010,
      "kopftuch": 2011,
      "verschiedenen": 2012,
      "suchen": 2013,
      "kranken": 2014,
      "schmuck": 2015,
      "cheerleader": 2016,
      "schnauze": 2017,
      "khaki": 2018,
      "beln": 2019,
      "fas": 2020,
      "kie": 2021,
      "pi": 2022,
      "ringen": 2023,
      "ses": 2024,
      "stab": 2025,
      "streifen": 2026,
      "mannlicher": 2027,
      "spe": 2028,
      "rocken": 2029,
      "beweg": 2030,
      "umpf": 2031,
      "verg": 2032,
      "entfern": 2033,
      "stehende": 2034,
      "kai": 2035,
      "brillen": 2036,
      "kopfiger": 2037,
      "stucke": 2038,
      "plat": 2039,
      "karate": 2040,
      "schultern": 2041,
      "instrumente": 2042,
      "rennstrecke": 2043,
      "lilafarbenen": 2044,
      "farbenfrohen": 2045,
      "sicherheits": 2046,
      "tunnel": 2047,
      "kaffee": 2048,
      "figur": 2049,
      "gepflasterten": 2050,
      "grasbewachsenen": 2051,
      "teller": 2052,
      "orient": 2053,
      "ahn": 2054,
      "nur": 2055,
      "pas": 2056,
      "anten": 2057,
      "scher": 2058,
      "geschen": 2059,
      "one": 2060,
      "bemal": 2061,
      "becher": 2062,
      "labor": 2063,
      "hoop": 2064,
      "umzug": 2065,
      "namen": 2066,
      "sax": 2067,
      "kauft": 2068,
      "parkbank": 2069,
      "hula": 2070,
      "karren": 2071,
      "kuste": 2072,
      "sportler": 2073,
      "staub": 2074,
      "meeres": 2075,
      "bucher": 2076,
      "instrumenten": 2077,
      "schone": 2078,
      "wurde": 2079,
      "flaggen": 2080,
      "katze": 2081,
      "teich": 2082,
      "freunde": 2083,
      "abend": 2084,
      "stroh": 2085,
      "igkeit": 2086,
      "violetten": 2087,
      "geige": 2088,
      "kirche": 2089,
      "schaukelt": 2090,
      "bullen": 2091,
      "bra": 2092,
      "don": 2093,
      "gasse": 2094,
      "ring": 2095,
      "geschlossen": 2096,
      "bemalt": 2097,
      "anda": 2098,
      "umarmen": 2099,
      "ausge": 2100,
      "gruppen": 2101,
      "unterwegs": 2102,
      "gegenstan": 2103,
      "grauer": 2104,
      "seiten": 2105,
      "hellen": 2106,
      "soft": 2107,
      "balkon": 2108,
      "freunden": 2109,
      "wettbe": 2110,
      "aussehende": 2111,
      "fullt": 2112,
      "streich": 2113,
      "igkeiten": 2114,
      "gegnerischen": 2115,
      "bedient": 2116,
      "links": 2117,
      "szene": 2118,
      "schaufenster": 2119,
      "oriental": 2120,
      "din": 2121,
      "mei": 2122,
      "gewand": 2123,
      "mannschaften": 2124,
      "weise": 2125,
      "test": 2126,
      "schwer": 2127,
      "iern": 2128,
      "rett": 2129,
      "ation": 2130,
      "trakt": 2131,
      "rug": 2132,
      "langem": 2133,
      "stehenden": 2134,
      "handler": 2135,
      "bringt": 2136,
      "sage": 2137,
      "sieben": 2138,
      "damit": 2139,
      "topf": 2140,
      "schach": 2141,
      "schwimmbrille": 2142,
      "polin": 2143,
      "schneiden": 2144,
      "schutzhelmen": 2145,
      "dio": 2146,
      "fahnen": 2147,
      "ive": 2148,
      "bilder": 2149,
      "richtet": 2150,
      "farbigen": 2151,
      "matte": 2152,
      "behalter": 2153,
      "kopfhorer": 2154,
      "entspannt": 2155,
      "beleuchteten": 2156,
      "touristen": 2157,
      "springbrunnen": 2158,
      "picknick": 2159,
      "trampolin": 2160,
      "wettbewerb": 2161,
      "ffer": 2162,
      "mes": 2163,
      "pr": 2164,
      "ang": 2165,
      "stift": 2166,
      "schlu": 2167,
      "schiff": 2168,
      "gesch": 2169,
      "auftritt": 2170,
      "ble": 2171,
      "berge": 2172,
      "leg": 2173,
      "legen": 2174,
      "new": 2175,
      "ierter": 2176,
      "reg": 2177,
      "andern": 2178,
      "hinab": 2179,
      "naher": 2180,
      "verwendet": 2181,
      "veranda": 2182,
      "spruh": 2183,
      "kahl": 2184,
      "langarm": 2185,
      "zeugen": 2186,
      "feldweg": 2187,
      "hupft": 2188,
      "gitarr": 2189,
      "schwimmer": 2190,
      "karten": 2191,
      "turner": 2192,
      "elek": 2193,
      "poli": 2194,
      "skiern": 2195,
      "nase": 2196,
      "jongliert": 2197,
      "vergnu": 2198,
      "brot": 2199,
      "dis": 2200,
      "dran": 2201,
      "fau": 2202,
      "fli": 2203,
      "hammer": 2204,
      "kte": 2205,
      "kissen": 2206,
      "pit": 2207,
      "yor": 2208,
      "inger": 2209,
      "erd": 2210,
      "schlei": 2211,
      "gemal": 2212,
      "maten": 2213,
      "schwan": 2214,
      "bauen": 2215,
      "ruht": 2216,
      "mehr": 2217,
      "farbe": 2218,
      "sitzende": 2219,
      "graben": 2220,
      "gestellt": 2221,
      "essens": 2222,
      "schießt": 2223,
      "couch": 2224,
      "lachelnder": 2225,
      "prof": 2226,
      "produ": 2227,
      "horen": 2228,
      "dunkler": 2229,
      "fotografieren": 2230,
      "gucken": 2231,
      "grillt": 2232,
      "reparieren": 2233,
      "rasse": 2234,
      "blast": 2235,
      "zentrum": 2236,
      "tief": 2237,
      "rechts": 2238,
      "wuste": 2239,
      "softball": 2240,
      "polizei": 2241,
      "bat": 2242,
      "cr": 2243,
      "dan": 2244,
      "hlen": 2245,
      "“-": 2246,
      "inen": 2247,
      "gelegt": 2248,
      "gepack": 2249,
      "ckten": 2250,
      "bes": 2251,
      "bekommt": 2252,
      "grim": 2253,
      "halte": 2254,
      "hockt": 2255,
      "segel": 2256,
      "verfolgt": 2257,
      "eilen": 2258,
      "handtasche": 2259,
      "teilen": 2260,
      "tische": 2261,
      "braunhaarige": 2262,
      "studio": 2263,
      "asiate": 2264,
      "hellblauen": 2265,
      "kette": 2266,
      "som": 2267,
      "balken": 2268,
      "brust": 2269,
      "gesaum": 2270,
      "amerikanische": 2271,
      "taucht": 2272,
      "aussehender": 2273,
      "cowboyhut": 2274,
      "wandert": 2275,
      "dunkelhautige": 2276,
      "schuss": 2277,
      "werbung": 2278,
      "hochzeits": 2279,
      "beruhrt": 2280,
      "schuttelt": 2281,
      "mahlzeit": 2282,
      "sperr": 2283,
      "fl": 2284,
      "fte": 2285,
      "linken": 2286,
      "mi": 2287,
      "por": 2288,
      "geschir": 2289,
      "terrasse": 2290,
      "lager": 2291,
      "voruber": 2292,
      "hoben": 2293,
      "utter": 2294,
      "pfosten": 2295,
      "uberfullten": 2296,
      "ruckt": 2297,
      "personengruppe": 2298,
      "handtuch": 2299,
      "bringen": 2300,
      "burg": 2301,
      "ketten": 2302,
      "manteln": 2303,
      "gewicht": 2304,
      "zahne": 2305,
      "getranke": 2306,
      "draht": 2307,
      "theke": 2308,
      "salon": 2309,
      "gelandemotorrad": 2310,
      "reinigt": 2311,
      "geschlossenen": 2312,
      "dor": 2313,
      "kut": 2314,
      "kno": 2315,
      "lern": 2316,
      "not": 2317,
      "om": 2318,
      "pat": 2319,
      "tar": 2320,
      "uben": 2321,
      "enden": 2322,
      "gewehr": 2323,
      "aufge": 2324,
      "mittag": 2325,
      "onen": 2326,
      "weit": 2327,
      "tex": 2328,
      "klar": 2329,
      "amus": 2330,
      "beige": 2331,
      "iertem": 2332,
      "fahrrader": 2333,
      "umher": 2334,
      "koffer": 2335,
      "bach": 2336,
      "wasserfall": 2337,
      "farbene": 2338,
      "japan": 2339,
      "tafel": 2340,
      "werfer": 2341,
      "plakat": 2342,
      "vorbeigehen": 2343,
      "asiaten": 2344,
      "schießen": 2345,
      "asiatin": 2346,
      "karte": 2347,
      "malen": 2348,
      "maler": 2349,
      "konstru": 2350,
      "protest": 2351,
      "fallschirm": 2352,
      "heim": 2353,
      "froh": 2354,
      "knie": 2355,
      "werkzeug": 2356,
      "felsigen": 2357,
      "pinkfarbenem": 2358,
      "kerl": 2359,
      "quar": 2360,
      "diesem": 2361,
      "salto": 2362,
      "zeichnet": 2363,
      "lederjacke": 2364,
      "traditioneller": 2365,
      "kittel": 2366,
      "rettungs": 2367,
      "elektr": 2368,
      "york": 2369,
      "geschirr": 2370,
      "ast": 2371,
      "acht": 2372,
      "nassen": 2373,
      "sar": 2374,
      "yboard": 2375,
      "stier": 2376,
      "gesp": 2377,
      "itter": 2378,
      "aufblas": 2379,
      "ont": 2380,
      "neop": 2381,
      "pfutze": 2382,
      "verlassen": 2383,
      "untersucht": 2384,
      "wascht": 2385,
      "strick": 2386,
      "nachdem": 2387,
      "warts": 2388,
      "schnitten": 2389,
      "kegel": 2390,
      "kurve": 2391,
      "hellbraunen": 2392,
      "teleskop": 2393,
      "fast": 2394,
      "richten": 2395,
      "taucher": 2396,
      "winterkleidung": 2397,
      "dieses": 2398,
      "gießt": 2399,
      "pruft": 2400,
      "studenten": 2401,
      "konstruktion": 2402,
      "neopren": 2403,
      "bm": 2404,
      "bin": 2405,
      "clu": 2406,
      "har": 2407,
      "hange": 2408,
      "ian": 2409,
      "mor": 2410,
      "pal": 2411,
      "prasen": 2412,
      "show": 2413,
      "ubt": 2414,
      "zeln": 2415,
      "zunge": 2416,
      "chor": 2417,
      "stet": 2418,
      "schle": 2419,
      "schot": 2420,
      "mitarbeiter": 2421,
      "klat": 2422,
      "ehnt": 2423,
      "letz": 2424,
      "beieinander": 2425,
      "fahrern": 2426,
      "allein": 2427,
      "pfel": 2428,
      "sees": 2429,
      "kolle": 2430,
      "unterschie": 2431,
      "sitzender": 2432,
      "saal": 2433,
      "sacken": 2434,
      "grabt": 2435,
      "tages": 2436,
      "zeuge": 2437,
      "fotogra": 2438,
      "mod": 2439,
      "mode": 2440,
      "seit": 2441,
      "holzer": 2442,
      "baumstamm": 2443,
      "skateboardfahrer": 2444,
      "darunter": 2445,
      "rollstuhl": 2446,
      "pulli": 2447,
      "bunte": 2448,
      "dunkelhaarige": 2449,
      "stapel": 2450,
      "horn": 2451,
      "spazier": 2452,
      "braunes": 2453,
      "bord": 2454,
      "block": 2455,
      "fußgangeruber": 2456,
      "dreck": 2457,
      "weitere": 2458,
      "wanne": 2459,
      "passanten": 2460,
      "trommel": 2461,
      "jahrmarkt": 2462,
      "paddelt": 2463,
      "kickt": 2464,
      "satz": 2465,
      "cross": 2466,
      "hindernis": 2467,
      "sommer": 2468,
      "tarn": 2469,
      "club": 2470,
      "aden": 2471,
      "aku": 2472,
      "dat": 2473,
      "ff": 2474,
      "ikin": 2475,
      "kisten": 2476,
      "pra": 2477,
      "wild": 2478,
      "start": 2479,
      "scheinen": 2480,
      "gezeigt": 2481,
      "arena": 2482,
      "rat": 2483,
      "orche": 2484,
      "spiels": 2485,
      "lehrer": 2486,
      "vorn": 2487,
      "schwen": 2488,
      "hinaus": 2489,
      "kochen": 2490,
      "zement": 2491,
      "hinterher": 2492,
      "sag": 2493,
      "samen": 2494,
      "ickelt": 2495,
      "igam": 2496,
      "abzu": 2497,
      "schnitt": 2498,
      "helfen": 2499,
      "keyboard": 2500,
      "blond": 2501,
      "karton": 2502,
      "steckt": 2503,
      "straßenkunstler": 2504,
      "konnen": 2505,
      "konzentr": 2506,
      "kante": 2507,
      "brunette": 2508,
      "brautigam": 2509,
      "vollfuhrt": 2510,
      "rasiert": 2511,
      "luftballons": 2512,
      "bewegt": 2513,
      "moto": 2514,
      "transport": 2515,
      "geschenk": 2516,
      "rugby": 2517,
      "crem": 2518,
      "haltestelle": 2519,
      "unterschied": 2520,
      "cam": 2521,
      "col": 2522,
      "druckt": 2523,
      "fans": 2524,
      "gumm": 2525,
      "io": 2526,
      "los": 2527,
      "passen": 2528,
      "runden": 2529,
      "weh": 2530,
      "will": 2531,
      "inn": 2532,
      "gehalten": 2533,
      "deut": 2534,
      "decken": 2535,
      "benutzen": 2536,
      "besen": 2537,
      "serv": 2538,
      "fuße": 2539,
      "sitzenden": 2540,
      "heu": 2541,
      "uss": 2542,
      "schafer": 2543,
      "hutte": 2544,
      "schnitz": 2545,
      "platt": 2546,
      "cour": 2547,
      "treffen": 2548,
      "armello": 2549,
      "merk": 2550,
      "polo": 2551,
      "flaschen": 2552,
      "waldgebiet": 2553,
      "schreit": 2554,
      "goldenen": 2555,
      "zahn": 2556,
      "jockey": 2557,
      "stark": 2558,
      "sauber": 2559,
      "kehrt": 2560,
      "angelt": 2561,
      "feiern": 2562,
      "begut": 2563,
      "biker": 2564,
      "drachen": 2565,
      "strom": 2566,
      "turnhalle": 2567,
      "tute": 2568,
      "arbeitskleidung": 2569,
      "tatowier": 2570,
      "schnurr": 2571,
      "spitze": 2572,
      "hellhautiger": 2573,
      "gurtel": 2574,
      "neoprenanzug": 2575,
      "con": 2576,
      "dy": 2577,
      "dau": 2578,
      "eu": 2579,
      "fischen": 2580,
      "hur": 2581,
      "kund": 2582,
      "kalten": 2583,
      "nass": 2584,
      "selt": 2585,
      "trau": 2586,
      "wischt": 2587,
      "xi": 2588,
      "eins": 2589,
      "erkl": 2590,
      "eig": 2591,
      "schar": 2592,
      "geschm": 2593,
      "geblum": 2594,
      "spu": 2595,
      "speisen": 2596,
      "eltern": 2597,
      "berges": 2598,
      "jungs": 2599,
      "neten": 2600,
      "allen": 2601,
      "alleine": 2602,
      "rechten": 2603,
      "illen": 2604,
      "pfan": 2605,
      "baut": 2606,
      "bauch": 2607,
      "olym": 2608,
      "jagen": 2609,
      "wart": 2610,
      "blondem": 2611,
      "bahnsteig": 2612,
      "bahnhof": 2613,
      "musikin": 2614,
      "ped": 2615,
      "tennisschlager": 2616,
      "zaunten": 2617,
      "heit": 2618,
      "heira": 2619,
      "trock": 2620,
      "deln": 2621,
      "lehnen": 2622,
      "flughafen": 2623,
      "nahaufnahme": 2624,
      "ballons": 2625,
      "tatto": 2626,
      "beutel": 2627,
      "weihnachtsbaum": 2628,
      "verkleidet": 2629,
      "kreuzung": 2630,
      "chinesischen": 2631,
      "mitglieder": 2632,
      "kapuzenpulli": 2633,
      "entfernt": 2634,
      "namens": 2635,
      "gemalde": 2636,
      "gesaumten": 2637,
      "bmx": 2638,
      "modell": 2639,
      "orchester": 2640,
      "konzentriert": 2641,
      "motocross": 2642,
      "plattform": 2643,
      "armellosen": 2644,
      "musikinstrumen": 2645,
      "car": 2646,
      "glat": 2647,
      "ise": 2648,
      "iften": 2649,
      "kas": 2650,
      "lim": 2651,
      "oper": 2652,
      "zten": 2653,
      "eister": 2654,
      "schweiß": 2655,
      "schien": 2656,
      "gesich": 2657,
      "hrt": 2658,
      "weil": 2659,
      "blei": 2660,
      "legest": 2661,
      "betr": 2662,
      "beschaft": 2663,
      "reichen": 2664,
      "demon": 2665,
      "hoh": 2666,
      "entgegen": 2667,
      "handstand": 2668,
      "herab": 2669,
      "tri": 2670,
      "kap": 2671,
      "icket": 2672,
      "indische": 2673,
      "schneebedeck": 2674,
      "schnu": 2675,
      "stadtstraße": 2676,
      "mutzen": 2677,
      "geschaftigen": 2678,
      "lachelndes": 2679,
      "rolltreppe": 2680,
      "jemanden": 2681,
      "trompe": 2682,
      "ophon": 2683,
      "glasern": 2684,
      "soldat": 2685,
      "offenem": 2686,
      "wohnzimmer": 2687,
      "befestigt": 2688,
      "trainiert": 2689,
      "angelru": 2690,
      "afrikanische": 2691,
      "weihnachtsmann": 2692,
      "klapp": 2693,
      "schildern": 2694,
      "saxophon": 2695,
      "gegenstande": 2696,
      "traktor": 2697,
      "beguta": 2698,
      "legestelle": 2699,
      "aber": 2700,
      "futter": 2701,
      "gass": 2702,
      "kiste": 2703,
      "lon": 2704,
      "mel": 2705,
      "ni": 2706,
      "oze": 2707,
      "pischen": 2708,
      "tut": 2709,
      "inlin": 2710,
      "enen": 2711,
      "ant": 2712,
      "stof": 2713,
      "steilen": 2714,
      "schlie": 2715,
      "geoff": 2716,
      "ity": 2717,
      "itte": 2718,
      "ale": 2719,
      "rauch": 2720,
      "rast": 2721,
      "ord": 2722,
      "les": 2723,
      "bewol": 2724,
      "stehend": 2725,
      "hocke": 2726,
      "gerich": 2727,
      "geraten": 2728,
      "gelehnt": 2729,
      "kleider": 2730,
      "hinein": 2731,
      "ihres": 2732,
      "fußen": 2733,
      "med": 2734,
      "handschuh": 2735,
      "herbst": 2736,
      "jack": 2737,
      "parchen": 2738,
      "freizeit": 2739,
      "huter": 2740,
      "wandbild": 2741,
      "loser": 2742,
      "blue": 2743,
      "skatepark": 2744,
      "sonnenbrillen": 2745,
      "kunststucke": 2746,
      "motorradern": 2747,
      "steinmauer": 2748,
      "baseballkappe": 2749,
      "geboren": 2750,
      "restaurants": 2751,
      "bushaltestelle": 2752,
      "trocken": 2753,
      "knien": 2754,
      "gewickelt": 2755,
      "kraft": 2756,
      "rennwagen": 2757,
      "amerikanischen": 2758,
      "schaufelt": 2759,
      "kerzen": 2760,
      "outfits": 2761,
      "setzen": 2762,
      "trainings": 2763,
      "jugendliche": 2764,
      "begeister": 2765,
      "weint": 2766,
      "wanden": 2767,
      "joggen": 2768,
      "klavier": 2769,
      "silbernen": 2770,
      "punk": 2771,
      "videospiel": 2772,
      "komplett": 2773,
      "tragerhemd": 2774,
      "mountainbike": 2775,
      "bewegung": 2776,
      "streichelt": 2777,
      "nahert": 2778,
      "kahlkopfiger": 2779,
      "gitarrist": 2780,
      "daneben": 2781,
      "ommen": 2782,
      "holzernen": 2783,
      "creme": 2784,
      "schaferhund": 2785,
      "daumen": 2786,
      "gassi": 2787,
      "dicht": 2788,
      "line": 2789,
      "natur": 2790,
      "od": 2791,
      "piste": 2792,
      "tal": 2793,
      "tim": 2794,
      "wor": 2795,
      "yo": 2796,
      "erchen": 2797,
      "anlage": 2798,
      "geparkt": 2799,
      "ieben": 2800,
      "under": 2801,
      "auffuhrung": 2802,
      "aufmerk": 2803,
      "rah": 2804,
      "ckter": 2805,
      "leger": 2806,
      "beam": 2807,
      "bewund": 2808,
      "griff": 2809,
      "later": 2810,
      "iere": 2811,
      "rekt": 2812,
      "hou": 2813,
      "umhang": 2814,
      "balls": 2815,
      "ballen": 2816,
      "auszu": 2817,
      "ausstellung": 2818,
      "eska": 2819,
      "othe": 2820,
      "trag": 2821,
      "menschengruppe": 2822,
      "ika": 2823,
      "ruder": 2824,
      "kasten": 2825,
      "brand": 2826,
      "teilt": 2827,
      "langhaariger": 2828,
      "adlock": 2829,
      "haarigen": 2830,
      "puppe": 2831,
      "absperr": 2832,
      "jungeren": 2833,
      "mart": 2834,
      "automaten": 2835,
      "banken": 2836,
      "frie": 2837,
      "mog": 2838,
      "kunstwerk": 2839,
      "kletterer": 2840,
      "schub": 2841,
      "schule": 2842,
      "socken": 2843,
      "heißen": 2844,
      "schmetter": 2845,
      "geset": 2846,
      "rennfahrer": 2847,
      "torhuter": 2848,
      "selbst": 2849,
      "zuschauermenge": 2850,
      "getranken": 2851,
      "graffitis": 2852,
      "blattern": 2853,
      "greifen": 2854,
      "rollerbla": 2855,
      "einkaufszentrum": 2856,
      "blocken": 2857,
      "dress": 2858,
      "dreadlock": 2859,
      "joggt": 2860,
      "schmutzigen": 2861,
      "ohren": 2862,
      "kopfhorern": 2863,
      "wunderschonen": 2864,
      "ausgestreckten": 2865,
      "passag": 2866,
      "schachtel": 2867,
      "dorf": 2868,
      "schnurrbart": 2869,
      "euro": 2870,
      "hurde": 2871,
      "tattoo": 2872,
      "inlineska": 2873,
      "dreadlocks": 2874,
      "app": 2875,
      "bro": 2876,
      "brennen": 2877,
      "kran": 2878,
      "nik": 2879,
      "oten": 2880,
      "ping": 2881,
      "ri": 2882,
      "ub": 2883,
      "innt": 2884,
      "enz": 2885,
      "einzeln": 2886,
      "anlegestelle": 2887,
      "eim": 2888,
      "stol": 2889,
      "schlen": 2890,
      "itat": 2891,
      "spei": 2892,
      "tetes": 2893,
      "eligen": 2894,
      "klam": 2895,
      "klasse": 2896,
      "vorrichtung": 2897,
      "neon": 2898,
      "red": 2899,
      "rede": 2900,
      "madchens": 2901,
      "arzt": 2902,
      "nagel": 2903,
      "haltung": 2904,
      "rudert": 2905,
      "lust": 2906,
      "hinterhof": 2907,
      "alteres": 2908,
      "kamel": 2909,
      "puck": 2910,
      "warn": 2911,
      "stadtische": 2912,
      "vorbeifahrt": 2913,
      "gitarren": 2914,
      "rosafarbenem": 2915,
      "frise": 2916,
      "sanddun": 2917,
      "baseballmutze": 2918,
      "verkaufs": 2919,
      "kids": 2920,
      "flachen": 2921,
      "bunt": 2922,
      "schutzbrille": 2923,
      "direkt": 2924,
      "maschinen": 2925,
      "nahmaschine": 2926,
      "keit": 2927,
      "typen": 2928,
      "museum": 2929,
      "teig": 2930,
      "violettem": 2931,
      "geldbor": 2932,
      "boxen": 2933,
      "bowlingbahn": 2934,
      "nickerchen": 2935,
      "lampe": 2936,
      "blume": 2937,
      "treibt": 2938,
      "aufgere": 2939,
      "neugeboren": 2940,
      "krankenhaus": 2941,
      "messer": 2942,
      "diskut": 2943,
      "geblumten": 2944,
      "beschaftigt": 2945,
      "futtert": 2946,
      "aufmerksam": 2947,
      "einzelner": 2948,
      "friseur": 2949,
      "age": 2950,
      "beine": 2951,
      "bund": 2952,
      "danc": 2953,
      "fal": 2954,
      "flau": 2955,
      "ks": 2956,
      "lof": 2957,
      "pist": 2958,
      "plu": 2959,
      "piz": 2960,
      "rund": 2961,
      "runter": 2962,
      "tru": 2963,
      "up": 2964,
      "win": 2965,
      "inten": 2966,
      "angeh": 2967,
      "anhat": 2968,
      "stangen": 2969,
      "geschaften": 2970,
      "gewassers": 2971,
      "aufs": 2972,
      "ard": 2973,
      "mithilfe": 2974,
      "deren": 2975,
      "rach": 2976,
      "kle": 2977,
      "besitz": 2978,
      "bearbeitet": 2979,
      "beißt": 2980,
      "reiche": 2981,
      "lad": 2982,
      "nes": 2983,
      "schwach": 2984,
      "reklam": 2985,
      "hot": 2986,
      "umge": 2987,
      "trat": 2988,
      "vertei": 2989,
      "verheira": 2990,
      "bauern": 2991,
      "herd": 2992,
      "lied": 2993,
      "ktur": 2994,
      "zeige": 2995,
      "spielerin": 2996,
      "tack": 2997,
      "taxi": 2998,
      "freiluft": 2999,
      "kopfige": 3000,
      "zeuger": 3001,
      "warmen": 3002,
      "hute": 3003,
      "leit": 3004,
      "findet": 3005,
      "locken": 3006,
      "schwimmbad": 3007,
      "kariertem": 3008,
      "frem": 3009,
      "format": 3010,
      "kunststoff": 3011,
      "rucksacken": 3012,
      "klettergerust": 3013,
      "steinigen": 3014,
      "hause": 3015,
      "hausern": 3016,
      "beleucht": 3017,
      "regenschirmen": 3018,
      "heiß": 3019,
      "balle": 3020,
      "seilen": 3021,
      "liegenden": 3022,
      "einkaufsta": 3023,
      "schlagzeuger": 3024,
      "suß": 3025,
      "lachend": 3026,
      "tricks": 3027,
      "feuerwehrmanner": 3028,
      "afrikanischer": 3029,
      "bowlingkugel": 3030,
      "booten": 3031,
      "kaut": 3032,
      "sammlung": 3033,
      "beruhren": 3034,
      "schlafanzug": 3035,
      "marschiert": 3036,
      "fertig": 3037,
      "strohhut": 3038,
      "dinge": 3039,
      "flip": 3040,
      "amusieren": 3041,
      "aufblasbaren": 3042,
      "fotografen": 3043,
      "cours": 3044,
      "trompete": 3045,
      "angelrute": 3046,
      "rahmen": 3047,
      "flausch": 3048,
      "formation": 3049,
      "bill": 3050,
      "dig": 3051,
      "glatz": 3052,
      "krie": 3053,
      "mun": 3054,
      "pon": 3055,
      "ron": 3056,
      "vie": 3057,
      "wissen": 3058,
      "einzel": 3059,
      "stil": 3060,
      "schna": 3061,
      "gepark": 3062,
      "gebur": 3063,
      "iten": 3064,
      "aufzu": 3065,
      "robe": 3066,
      "spielkleidung": 3067,
      "lege": 3068,
      "jung": 3069,
      "bestehende": 3070,
      "grillen": 3071,
      "reicht": 3072,
      "fahrgeschaft": 3073,
      "ath": 3074,
      "gelt": 3075,
      "gelassen": 3076,
      "pflu": 3077,
      "verz": 3078,
      "ruhen": 3079,
      "web": 3080,
      "waschen": 3081,
      "wahl": 3082,
      "waffe": 3083,
      "fegt": 3084,
      "wirbelt": 3085,
      "ign": 3086,
      "kopfen": 3087,
      "kopfuber": 3088,
      "jungere": 3089,
      "stufe": 3090,
      "kameras": 3091,
      "ferenz": 3092,
      "gegenseit": 3093,
      "fußballfeld": 3094,
      "helme": 3095,
      "korben": 3096,
      "graue": 3097,
      "straßenhandler": 3098,
      "flugeln": 3099,
      "sandstrand": 3100,
      "moped": 3101,
      "kurs": 3102,
      "zeitschrift": 3103,
      "elefan": 3104,
      "packt": 3105,
      "sportwagen": 3106,
      "sportveranstaltung": 3107,
      "konferenz": 3108,
      "schlitt": 3109,
      "stocken": 3110,
      "gebil": 3111,
      "izieren": 3112,
      "poster": 3113,
      "podi": 3114,
      "prob": 3115,
      "lippen": 3116,
      "feuert": 3117,
      "noten": 3118,
      "gleisen": 3119,
      "dunkelblauen": 3120,
      "schreiben": 3121,
      "ballett": 3122,
      "flussigkeit": 3123,
      "fahne": 3124,
      "freu": 3125,
      "door": 3126,
      "schrank": 3127,
      "ival": 3128,
      "kragen": 3129,
      "rennauto": 3130,
      "jubeln": 3131,
      "fernglas": 3132,
      "outdoor": 3133,
      "super": 3134,
      "frisur": 3135,
      "wettrennen": 3136,
      "offenbar": 3137,
      "ummert": 3138,
      "tation": 3139,
      "dudel": 3140,
      "farbige": 3141,
      "quad": 3142,
      "silhou": 3143,
      "feuerwehrmann": 3144,
      "riesige": 3145,
      "abendessen": 3146,
      "ungewohn": 3147,
      "wasserski": 3148,
      "sammelt": 3149,
      "gelandemotorradfahrer": 3150,
      "eisenbahn": 3151,
      "backsteingebaude": 3152,
      "film": 3153,
      "nieder": 3154,
      "marschieren": 3155,
      "platte": 3156,
      "picknicktisch": 3157,
      "schwanz": 3158,
      "beigefarbenen": 3159,
      "gesprach": 3160,
      "schotter": 3161,
      "bordstein": 3162,
      "schwenkt": 3163,
      "geschmink": 3164,
      "operation": 3165,
      "schweißt": 3166,
      "tribun": 3167,
      "stofft": 3168,
      "bluejeans": 3169,
      "othek": 3170,
      "rollerblades": 3171,
      "wissenschaft": 3172,
      "geburt": 3173,
      "gegenseitig": 3174,
      "12": 3175,
      "bunter": 3176,
      "biet": 3177,
      "bbelt": 3178,
      "dick": 3179,
      "fra": 3180,
      "fass": 3181,
      "gal": 3182,
      "gas": 3183,
      "hi": 3184,
      "hy": 3185,
      "ham": 3186,
      "hig": 3187,
      "hart": 3188,
      "iro": 3189,
      "putz": 3190,
      "reinigen": 3191,
      "sor": 3192,
      "tion": 3193,
      "inder": 3194,
      "engel": 3195,
      "erie": 3196,
      "ansammlung": 3197,
      "stuch": 3198,
      "schrau": 3199,
      "gema": 3200,
      "rauchen": 3201,
      "deko": 3202,
      "dekor": 3203,
      "spor": 3204,
      "splatz": 3205,
      "tech": 3206,
      "blett": 3207,
      "befahren": 3208,
      "bekommen": 3209,
      "vorne": 3210,
      "schwar": 3211,
      "schwert": 3212,
      "refle": 3213,
      "halstuch": 3214,
      "hundes": 3215,
      "esel": 3216,
      "spren": 3217,
      "koche": 3218,
      "untersuchen": 3219,
      "wasserflasche": 3220,
      "way": 3221,
      "herz": 3222,
      "herren": 3223,
      "dazu": 3224,
      "feder": 3225,
      "gehende": 3226,
      "tablett": 3227,
      "strumpf": 3228,
      "bass": 3229,
      "grasflache": 3230,
      "fontan": 3231,
      "karre": 3232,
      "zusammenge": 3233,
      "burste": 3234,
      "jeansjacke": 3235,
      "turm": 3236,
      "rande": 3237,
      "baumst": 3238,
      "boots": 3239,
      "stocke": 3240,
      "gebunden": 3241,
      "rollt": 3242,
      "noch": 3243,
      "dunkelhaariger": 3244,
      "eishockeyspieler": 3245,
      "badewanne": 3246,
      "artigen": 3247,
      "stag": 3248,
      "dose": 3249,
      "viol": 3250,
      "altmod": 3251,
      "fernseh": 3252,
      "herunterge": 3253,
      "tauben": 3254,
      "nehmer": 3255,
      "frisbeescheibe": 3256,
      "trainer": 3257,
      "trainieren": 3258,
      "wandern": 3259,
      "spritzen": 3260,
      "kreide": 3261,
      "farbenfroher": 3262,
      "flote": 3263,
      "ummern": 3264,
      "surfboard": 3265,
      "verkehrs": 3266,
      "geschaftskleidung": 3267,
      "waschsalon": 3268,
      "welpen": 3269,
      "planscht": 3270,
      "entspannen": 3271,
      "sangerin": 3272,
      "paddeln": 3273,
      "rohre": 3274,
      "treiben": 3275,
      "schilder": 3276,
      "kalb": 3277,
      "schluss": 3278,
      "turnerin": 3279,
      "besuch": 3280,
      "grimasse": 3281,
      "drahtzaun": 3282,
      "palmen": 3283,
      "kollegen": 3284,
      "begutachtet": 3285,
      "london": 3286,
      "bewolkten": 3287,
      "brandung": 3288,
      "sanddune": 3289,
      "geldborse": 3290,
      "loffel": 3291,
      "beleuchtung": 3292,
      "sußigkeiten": 3293,
      "podium": 3294,
      "high": 3295,
      "dekorat": 3296,
      "20": 3297,
      "achter": 3298,
      "dir": 3299,
      "ep": 3300,
      "flan": 3301,
      "gung": 3302,
      "hier": 3303,
      "ia": 3304,
      "ic": 3305,
      "kil": 3306,
      "kis": 3307,
      "lein": 3308,
      "ole": 3309,
      "ofen": 3310,
      "putzen": 3311,
      "rik": 3312,
      "ringer": 3313,
      "sy": 3314,
      "tiert": 3315,
      "zun": 3316,
      "engen": 3317,
      "einrad": 3318,
      "erleu": 3319,
      "ana": 3320,
      "anger": 3321,
      "anhan": 3322,
      "unt": 3323,
      "gefullt": 3324,
      "gehoben": 3325,
      "mittages": 3326,
      "derby": 3327,
      "alber": 3328,
      "imbis": 3329,
      "dent": 3330,
      "bli": 3331,
      "leckt": 3332,
      "bet": 3333,
      "beglei": 3334,
      "bespritzt": 3335,
      "beisam": 3336,
      "neue": 3337,
      "king": 3338,
      "hotel": 3339,
      "ausgeb": 3340,
      "boten": 3341,
      "naht": 3342,
      "ubergewicht": 3343,
      "uberpruft": 3344,
      "verb": 3345,
      "verlasst": 3346,
      "verletz": 3347,
      "iku": 3348,
      "dreirad": 3349,
      "brauen": 3350,
      "handwerk": 3351,
      "handschuhe": 3352,
      "farbenes": 3353,
      "saiten": 3354,
      "oberflache": 3355,
      "schaf": 3356,
      "spielern": 3357,
      "zenden": 3358,
      "indian": 3359,
      "geste": 3360,
      "gestell": 3361,
      "hupfen": 3362,
      "schieben": 3363,
      "vielleicht": 3364,
      "position": 3365,
      "kunft": 3366,
      "motorroller": 3367,
      "motorrader": 3368,
      "baumes": 3369,
      "sportkleidung": 3370,
      "festhalt": 3371,
      "festival": 3372,
      "baseballspiel": 3373,
      "izin": 3374,
      "buschen": 3375,
      "buckt": 3376,
      "waldweg": 3377,
      "struktur": 3378,
      "formigen": 3379,
      "gleichen": 3380,
      "eishockey": 3381,
      "dritte": 3382,
      "obdach": 3383,
      "haube": 3384,
      "blumenmuster": 3385,
      "versammlung": 3386,
      "regenbogen": 3387,
      "stahl": 3388,
      "fack": 3389,
      "fabr": 3390,
      "dog": 3391,
      "break": 3392,
      "gewandern": 3393,
      "maulkorb": 3394,
      "werkstatt": 3395,
      "golden": 3396,
      "scheinbar": 3397,
      "orangefarbene": 3398,
      "starren": 3399,
      "saug": 3400,
      "teenageralter": 3401,
      "folgen": 3402,
      "mullton": 3403,
      "kricket": 3404,
      "ziegelmauer": 3405,
      "feiert": 3406,
      "theater": 3407,
      "zeichnung": 3408,
      "klassenraum": 3409,
      "kapuze": 3410,
      "afroamerikaner": 3411,
      "eingezaunten": 3412,
      "verkleidete": 3413,
      "clowns": 3414,
      "ruhigen": 3415,
      "tennisspielerin": 3416,
      "zahlreiche": 3417,
      "bewegen": 3418,
      "bietet": 3419,
      "fruchte": 3420,
      "kies": 3421,
      "bemalung": 3422,
      "faulen": 3423,
      "flur": 3424,
      "spaziergang": 3425,
      "fußgangeruberweg": 3426,
      "akustik": 3427,
      "schienen": 3428,
      "demonstr": 3429,
      "medizin": 3430,
      "bewundert": 3431,
      "schubkarre": 3432,
      "europa": 3433,
      "diskutieren": 3434,
      "dance": 3435,
      "elefanten": 3436,
      "dudelsack": 3437,
      "silhouette": 3438,
      "tribune": 3439,
      "schwarzwei": 3440,
      "violine": 3441,
      "anhanger": 3442,
      "mittagessen": 3443,
      "beisammen": 3444,
      "akt": 3445,
      "apfel": 3446,
      "bandern": 3447,
      "cor": 3448,
      "digen": 3449,
      "dammer": 3450,
      "gym": 3451,
      "ippt": 3452,
      "mc": 3453,
      "py": 3454,
      "pin": 3455,
      "pil": 3456,
      "sse": 3457,
      "sort": 3458,
      "uf": 3459,
      "ucken": 3460,
      "wich": 3461,
      "wil": 3462,
      "xt": 3463,
      "zin": 3464,
      "insp": 3465,
      "enten": 3466,
      "einzu": 3467,
      "einfahrt": 3468,
      "stel": 3469,
      "schick": 3470,
      "geschw": 3471,
      "gebeugt": 3472,
      "aufga": 3473,
      "raten": 3474,
      "rosar": 3475,
      "zubereitet": 3476,
      "maschen": 3477,
      "bevor": 3478,
      "grin": 3479,
      "iertes": 3480,
      "fahrzeuge": 3481,
      "rechte": 3482,
      "kindes": 3483,
      "ballerin": 3484,
      "aussicht": 3485,
      "pfa": 3486,
      "tracht": 3487,
      "hindurch": 3488,
      "nahen": 3489,
      "verdeckt": 3490,
      "bauarbeiten": 3491,
      "landet": 3492,
      "schaum": 3493,
      "webt": 3494,
      "radrennen": 3495,
      "stehender": 3496,
      "liefer": 3497,
      "kab": 3498,
      "teilweise": 3499,
      "entlanggeht": 3500,
      "indischer": 3501,
      "fahrrads": 3502,
      "pult": 3503,
      "nachsten": 3504,
      "ware": 3505,
      "werke": 3506,
      "gestiku": 3507,
      "bare": 3508,
      "vorbeigeht": 3509,
      "asien": 3510,
      "marine": 3511,
      "kesen": 3512,
      "rennens": 3513,
      "asiatinnen": 3514,
      "holen": 3515,
      "rosafarbener": 3516,
      "rosafarbene": 3517,
      "karuss": 3518,
      "front": 3519,
      "steuer": 3520,
      "hack": 3521,
      "sandwich": 3522,
      "moment": 3523,
      "stuhle": 3524,
      "buhnen": 3525,
      "kurbis": 3526,
      "bandana": 3527,
      "schirme": 3528,
      "turen": 3529,
      "zeitig": 3530,
      "wohl": 3531,
      "buck": 3532,
      "marktplatz": 3533,
      "drinnen": 3534,
      "landlichen": 3535,
      "badezimmer": 3536,
      "busses": 3537,
      "knei": 3538,
      "stap": 3539,
      "staffel": 3540,
      "brechen": 3541,
      "schulkinder": 3542,
      "innenstadt": 3543,
      "gesell": 3544,
      "iven": 3545,
      "jubelt": 3546,
      "fanger": 3547,
      "zopfen": 3548,
      "schaufeln": 3549,
      "reifenschaukel": 3550,
      "netze": 3551,
      "wenden": 3552,
      "aussehenden": 3553,
      "saulen": 3554,
      "wohner": 3555,
      "bibli": 3556,
      "gestreiftes": 3557,
      "beginnt": 3558,
      "pfadfin": 3559,
      "einsamer": 3560,
      "gleichzeitig": 3561,
      "ession": 3562,
      "floß": 3563,
      "snowboardfahrer": 3564,
      "tanzerin": 3565,
      "afroamerikanische": 3566,
      "tiere": 3567,
      "schaukeln": 3568,
      "trommeln": 3569,
      "spark": 3570,
      "filmt": 3571,
      "mitglied": 3572,
      "gurt": 3573,
      "niedr": 3574,
      "rothaariges": 3575,
      "lockigen": 3576,
      "stirnband": 3577,
      "khakifarbenen": 3578,
      "platten": 3579,
      "figuren": 3580,
      "legten": 3581,
      "spruht": 3582,
      "pitcher": 3583,
      "produkte": 3584,
      "grimassen": 3585,
      "klaren": 3586,
      "rettungswesten": 3587,
      "elektron": 3588,
      "klatscht": 3589,
      "passenden": 3590,
      "kapelle": 3591,
      "neugeborenes": 3592,
      "glatzkopfiger": 3593,
      "irokesen": 3594,
      "reflekt": 3595,
      "achterbahn": 3596,
      "leinwand": 3597,
      "imbiss": 3598,
      "fabrik": 3599,
      "saugling": 3600,
      "akustikgitarre": 3601,
      "dammerung": 3602,
      "gymna": 3603,
      "karussell": 3604,
      "bibliothek": 3605,
      "brei": 3606,
      "huh": 3607,
      "hallen": 3608,
      "ial": 3609,
      "ilet": 3610,
      "kna": 3611,
      "ov": 3612,
      "pt": 3613,
      "pre": 3614,
      "rier": 3615,
      "ringt": 3616,
      "smo": 3617,
      "va": 3618,
      "vent": 3619,
      "wange": 3620,
      "welt": 3621,
      "inner": 3622,
      "chel": 3623,
      "ansicht": 3624,
      "unfall": 3625,
      "strau": 3626,
      "stander": 3627,
      "gemacht": 3628,
      "gemuster": 3629,
      "gefullten": 3630,
      "geschnitten": 3631,
      "gepunk": 3632,
      "itr": 3633,
      "manche": 3634,
      "weis": 3635,
      "spur": 3636,
      "oranger": 3637,
      "genommen": 3638,
      "zucker": 3639,
      "ehen": 3640,
      "denk": 3641,
      "menade": 3642,
      "reis": 3643,
      "lack": 3644,
      "vorbereitet": 3645,
      "hocker": 3646,
      "gericht": 3647,
      "ausdruck": 3648,
      "gelen": 3649,
      "irl": 3650,
      "sprungen": 3651,
      "unterwasche": 3652,
      "oll": 3653,
      "bag": 3654,
      "radfahrern": 3655,
      "wake": 3656,
      "laufbahn": 3657,
      "handchen": 3658,
      "leucht": 3659,
      "bricht": 3660,
      "sagt": 3661,
      "saft": 3662,
      "langhaarige": 3663,
      "lichem": 3664,
      "lichkeit": 3665,
      "topfer": 3666,
      "gehender": 3667,
      "gebaut": 3668,
      "puppen": 3669,
      "schneeh": 3670,
      "werbe": 3671,
      "ofon": 3672,
      "viertel": 3673,
      "zeugnis": 3674,
      "kunstwerke": 3675,
      "turban": 3676,
      "sowie": 3677,
      "gebu": 3678,
      "rollen": 3679,
      "rollschuh": 3680,
      "post": 3681,
      "promenade": 3682,
      "surfen": 3683,
      "basketballspiel": 3684,
      "drink": 3685,
      "obje": 3686,
      "strecken": 3687,
      "staben": 3688,
      "rutschen": 3689,
      "schlagmann": 3690,
      "blase": 3691,
      "bilden": 3692,
      "interes": 3693,
      "papiere": 3694,
      "fahrzeugs": 3695,
      "cowboys": 3696,
      "gaste": 3697,
      "lauferin": 3698,
      "computerbildschirm": 3699,
      "violett": 3700,
      "sprecher": 3701,
      "feuerwehrleute": 3702,
      "streicht": 3703,
      "school": 3704,
      "beladen": 3705,
      "lebensmittelgeschaft": 3706,
      "abends": 3707,
      "pflanze": 3708,
      "pflasterstraße": 3709,
      "turnier": 3710,
      "tuten": 3711,
      "boxer": 3712,
      "plastiktute": 3713,
      "banner": 3714,
      "barfußige": 3715,
      "unbefestigte": 3716,
      "boote": 3717,
      "waschbecken": 3718,
      "welpe": 3719,
      "fingern": 3720,
      "punkt": 3721,
      "prufen": 3722,
      "aufgerei": 3723,
      "gesichtsbemalung": 3724,
      "sturm": 3725,
      "exper": 3726,
      "sessel": 3727,
      "laborkittel": 3728,
      "saxofon": 3729,
      "donal": 3730,
      "profi": 3731,
      "kettensage": 3732,
      "lernt": 3733,
      "strickmutze": 3734,
      "pracht": 3735,
      "college": 3736,
      "olympischen": 3737,
      "ozean": 3738,
      "laternen": 3739,
      "inlineskates": 3740,
      "bundel": 3741,
      "pistole": 3742,
      "angehor": 3743,
      "verheiratetes": 3744,
      "geparkten": 3745,
      "mulltonne": 3746,
      "gestikuliert": 3747,
      "reflektieren": 3748,
      "gymnastik": 3749,
      "asp": 3750,
      "bam": 3751,
      "brocken": 3752,
      "cre": 3753,
      "cello": 3754,
      "dj": 3755,
      "drucken": 3756,
      "ffeln": 3757,
      "glan": 3758,
      "hist": 3759,
      "kell": 3760,
      "kummert": 3761,
      "mischt": 3762,
      "rel": 3763,
      "snack": 3764,
      "tank": 3765,
      "usa": 3766,
      "zy": 3767,
      "inline": 3768,
      "eng": 3769,
      "ente": 3770,
      "einheim": 3771,
      "ere": 3772,
      "chan": 3773,
      "aneinander": 3774,
      "ansieht": 3775,
      "anweis": 3776,
      "stor": 3777,
      "stem": 3778,
      "stisch": 3779,
      "stunt": 3780,
      "gelegen": 3781,
      "ital": 3782,
      "ieb": 3783,
      "ief": 3784,
      "aufgestellt": 3785,
      "mannliches": 3786,
      "altes": 3787,
      "rauto": 3788,
      "tee": 3789,
      "ordent": 3790,
      "rost": 3791,
      "iment": 3792,
      "ehmen": 3793,
      "maher": 3794,
      "ampel": 3795,
      "beach": 3796,
      "bedruck": 3797,
      "begleitet": 3798,
      "bekann": 3799,
      "reihen": 3800,
      "lab": 3801,
      "lacro": 3802,
      "emon": 3803,
      "vorstellung": 3804,
      "ness": 3805,
      "nebel": 3806,
      "schwingen": 3807,
      "home": 3808,
      "hoher": 3809,
      "eta": 3810,
      "schwarzhaarige": 3811,
      "ausland": 3812,
      "ausflug": 3813,
      "auslage": 3814,
      "bohr": 3815,
      "unterricht": 3816,
      "ister": 3817,
      "wassermel": 3818,
      "watet": 3819,
      "waffel": 3820,
      "part": 3821,
      "parcours": 3822,
      "angeboten": 3823,
      "schafe": 3824,
      "spielerisch": 3825,
      "igiert": 3826,
      "pudel": 3827,
      "kopfe": 3828,
      "schneeanzug": 3829,
      "abel": 3830,
      "stuten": 3831,
      "tzt": 3832,
      "steiger": 3833,
      "paare": 3834,
      "autobahn": 3835,
      "schwimmweste": 3836,
      "sonnenschirm": 3837,
      "cola": 3838,
      "hahn": 3839,
      "sandigen": 3840,
      "mobel": 3841,
      "herumstehen": 3842,
      "ruckwarts": 3843,
      "holzboden": 3844,
      "stoßt": 3845,
      "iziert": 3846,
      "fitness": 3847,
      "falls": 3848,
      "feuerweh": 3849,
      "dri": 3850,
      "dia": 3851,
      "badeanzugen": 3852,
      "bruder": 3853,
      "dock": 3854,
      "dosen": 3855,
      "schriften": 3856,
      "sprungbrett": 3857,
      "dunklem": 3858,
      "krafte": 3859,
      "amerikanischer": 3860,
      "selbe": 3861,
      "fang": 3862,
      "sub": 3863,
      "betonwand": 3864,
      "soll": 3865,
      "gipfel": 3866,
      "spannt": 3867,
      "computern": 3868,
      "katzen": 3869,
      "gestreifter": 3870,
      "teile": 3871,
      "akro": 3872,
      "freundin": 3873,
      "verschneite": 3874,
      "blockt": 3875,
      "wolken": 3876,
      "ummel": 3877,
      "ausgestellt": 3878,
      "banan": 3879,
      "banjo": 3880,
      "traditionellen": 3881,
      "fliesen": 3882,
      "lampen": 3883,
      "treppenstufen": 3884,
      "ffelt": 3885,
      "laptops": 3886,
      "hellhautige": 3887,
      "schwebt": 3888,
      "student": 3889,
      "golfball": 3890,
      "agieren": 3891,
      "mountainbiker": 3892,
      "spekt": 3893,
      "bewegungen": 3894,
      "passt": 3895,
      "bemalten": 3896,
      "staubsau": 3897,
      "gegenstanden": 3898,
      "regal": 3899,
      "vergnugung": 3900,
      "schleife": 3901,
      "schusseln": 3902,
      "knopfen": 3903,
      "texas": 3904,
      "quarter": 3905,
      "prasentation": 3906,
      "tarnkleidung": 3907,
      "transportiert": 3908,
      "schnitzt": 3909,
      "tatowierung": 3910,
      "tatowierungen": 3911,
      "seltsam": 3912,
      "traur": 3913,
      "eignis": 3914,
      "gesichtern": 3915,
      "schnuffelt": 3916,
      "geoffneten": 3917,
      "jackett": 3918,
      "trainingsanzug": 3919,
      "frieden": 3920,
      "verkaufsstand": 3921,
      "heißluftballon": 3922,
      "billard": 3923,
      "athlet": 3924,
      "gebildet": 3925,
      "fontane": 3926,
      "rikscha": 3927,
      "breakdance": 3928,
      "mcdonal": 3929,
      "maschendrahtzaun": 3930,
      "pfahl": 3931,
      "lieferwagen": 3932,
      "gesellschaft": 3933,
      "pfadfinder": 3934,
      "strauß": 3935,
      "gepunkteten": 3936,
      "interessan": 3937,
      "asphalt": 3938,
      "bambus": 3939,
      "glanzenden": 3940,
      "kellner": 3941,
      "lacrosse": 3942,
      "feuerwehrauto": 3943,
      "vergnugungspark": 3944,
      "ace": 3945,
      "city": 3946,
      "gon": 3947,
      "gabel": 3948,
      "hab": 3949,
      "ip": 3950,
      "ium": 3951,
      "jen": 3952,
      "keln": 3953,
      "ktem": 3954,
      "kasse": 3955,
      "sw": 3956,
      "wi": 3957,
      "wette": 3958,
      "indem": 3959,
      "einsatz": 3960,
      "erzeugnis": 3961,
      "auge": 3962,
      "anzeige": 3963,
      "unordent": 3964,
      "eier": 3965,
      "gesen": 3966,
      "gesehen": 3967,
      "gefallen": 3968,
      "gefle": 3969,
      "gesprungen": 3970,
      "mannlichen": 3971,
      "roff": 3972,
      "ims": 3973,
      "zuge": 3974,
      "urein": 3975,
      "besteht": 3976,
      "bewal": 3977,
      "lade": 3978,
      "lagen": 3979,
      "vorsprung": 3980,
      "vorfuhrung": 3981,
      "hoo": 3982,
      "pper": 3983,
      "attrakt": 3984,
      "pfei": 3985,
      "pfeil": 3986,
      "ott": 3987,
      "uberall": 3988,
      "verschw": 3989,
      "verteilt": 3990,
      "verwenden": 3991,
      "untergrund": 3992,
      "wasserrutsche": 3993,
      "wasserspren": 3994,
      "zebra": 3995,
      "liegest": 3996,
      "kastan": 3997,
      "ish": 3998,
      "isse": 3999,
      "teilnehmen": 4000,
      "teilnehmer": 4001,
      "oberen": 4002,
      "fecht": 4003,
      "imming": 4004,
      "angebra": 4005,
      "kleineren": 4006,
      "tomaten": 4007,
      "toilet": 4008,
      "jeder": 4009,
      "ortlichen": 4010,
      "kopfschmuck": 4011,
      "nachbar": 4012,
      "braunhaariger": 4013,
      "abgeworfen": 4014,
      "jungerer": 4015,
      "warm": 4016,
      "gestur": 4017,
      "fußballdress": 4018,
      "loschen": 4019,
      "karo": 4020,
      "ammert": 4021,
      "steg": 4022,
      "straßenverkaufer": 4023,
      "kurze": 4024,
      "turkis": 4025,
      "holzbank": 4026,
      "papp": 4027,
      "perlen": 4028,
      "babys": 4029,
      "tags": 4030,
      "darbiet": 4031,
      "baseballschlager": 4032,
      "live": 4033,
      "telefonz": 4034,
      "formt": 4035,
      "bungen": 4036,
      "dunkelten": 4037,
      "eiscreme": 4038,
      "insel": 4039,
      "artik": 4040,
      "kleinkinder": 4041,
      "knall": 4042,
      "delt": 4043,
      "facher": 4044,
      "richtungen": 4045,
      "bret": 4046,
      "licherweise": 4047,
      "ienten": 4048,
      "schminkt": 4049,
      "einkaufen": 4050,
      "pinkfarbener": 4051,
      "mittelalter": 4052,
      "john": 4053,
      "wurden": 4054,
      "kostume": 4055,
      "familien": 4056,
      "kerle": 4057,
      "linder": 4058,
      "brettspiel": 4059,
      "saule": 4060,
      "fullen": 4061,
      "fischt": 4062,
      "schale": 4063,
      "jugendlichen": 4064,
      "mask": 4065,
      "vorderseite": 4066,
      "obststand": 4067,
      "pelz": 4068,
      "lebensmitteln": 4069,
      "schutt": 4070,
      "fußgangern": 4071,
      "turnschuhen": 4072,
      "turoff": 4073,
      "woll": 4074,
      "armee": 4075,
      "leuchtenden": 4076,
      "stammes": 4077,
      "afroamerikanischer": 4078,
      "silberfarbenen": 4079,
      "mini": 4080,
      "schlauchboot": 4081,
      "kuhl": 4082,
      "pferdeschwanz": 4083,
      "kaffeet": 4084,
      "sammeln": 4085,
      "gelandewagen": 4086,
      "wunderschone": 4087,
      "sparlich": 4088,
      "spitzen": 4089,
      "schutteln": 4090,
      "schwester": 4091,
      "sturzt": 4092,
      "motiv": 4093,
      "bekleidet": 4094,
      "bekleidete": 4095,
      "bekleideter": 4096,
      "orientalische": 4097,
      "legg": 4098,
      "langarmeligen": 4099,
      "drangt": 4100,
      "erdhugel": 4101,
      "hobenen": 4102,
      "japanischen": 4103,
      "morgen": 4104,
      "prasentiert": 4105,
      "unterschiedlichen": 4106,
      "gummi": 4107,
      "serviert": 4108,
      "seltsamen": 4109,
      "erklimmen": 4110,
      "pfanne": 4111,
      "gerichtet": 4112,
      "moglicherweise": 4113,
      "eimern": 4114,
      "stolz": 4115,
      "redner": 4116,
      "pluscht": 4117,
      "einkaufstasche": 4118,
      "flauschiger": 4119,
      "webstuhl": 4120,
      "freude": 4121,
      "sporter": 4122,
      "technik": 4123,
      "2012": 4124,
      "zunehmen": 4125,
      "ballerina": 4126,
      "bagger": 4127,
      "experiment": 4128,
      "zylinder": 4129,
      "beachvolleyball": 4130,
      "quarterback": 4131,
      "swimming": 4132,
      "kastanien": 4133,
      "darbietung": 4134,
      "turoffnung": 4135,
      "swimmingpool": 4136,
      "agen": 4137,
      "axt": 4138,
      "diger": 4139,
      "find": 4140,
      "fische": 4141,
      "falt": 4142,
      "hle": 4143,
      "harm": 4144,
      "nch": 4145,
      "och": 4146,
      "opf": 4147,
      "pern": 4148,
      "sho": 4149,
      "sumpf": 4150,
      "ull": 4151,
      "weinen": 4152,
      "wetter": 4153,
      "xikan": 4154,
      "zz": 4155,
      "zone": 4156,
      "einfa": 4157,
      "einrichtung": 4158,
      "einsamen": 4159,
      "erhalt": 4160,
      "erreichen": 4161,
      "chteten": 4162,
      "sty": 4163,
      "stiften": 4164,
      "geba": 4165,
      "gefahren": 4166,
      "getro": 4167,
      "gedu": 4168,
      "gefolgt": 4169,
      "unde": 4170,
      "aufzug": 4171,
      "manns": 4172,
      "onnen": 4173,
      "tenni": 4174,
      "ichten": 4175,
      "mast": 4176,
      "make": 4177,
      "bestellen": 4178,
      "reise": 4179,
      "vortrag": 4180,
      "ierung": 4181,
      "regner": 4182,
      "hohem": 4183,
      "gere": 4184,
      "gehull": 4185,
      "ata": 4186,
      "etten": 4187,
      "pflo": 4188,
      "bocken": 4189,
      "grube": 4190,
      "springer": 4191,
      "bauwerk": 4192,
      "unteren": 4193,
      "unterrichtet": 4194,
      "menschenansammlung": 4195,
      "rudern": 4196,
      "schaulust": 4197,
      "bast": 4198,
      "fuhrer": 4199,
      "mexikan": 4200,
      "laufern": 4201,
      "heran": 4202,
      "herkunft": 4203,
      "ließt": 4204,
      "trif": 4205,
      "kafig": 4206,
      "sagen": 4207,
      "sieg": 4208,
      "partie": 4209,
      "kleidungs": 4210,
      "angemal": 4211,
      "kamm": 4212,
      "hnt": 4213,
      "jeweil": 4214,
      "jeep": 4215,
      "schneeschuhen": 4216,
      "nachrichten": 4217,
      "abgestellt": 4218,
      "abgebildet": 4219,
      "hochzu": 4220,
      "schnellen": 4221,
      "plate": 4222,
      "wieder": 4223,
      "fußballmannschaft": 4224,
      "finden": 4225,
      "mark": 4226,
      "kegeln": 4227,
      "losen": 4228,
      "lokal": 4229,
      "froren": 4230,
      "ford": 4231,
      "mutlich": 4232,
      "moder": 4233,
      "motorhaube": 4234,
      "lass": 4235,
      "lasso": 4236,
      "seich": 4237,
      "rucksitz": 4238,
      "ruckseite": 4239,
      "turki": 4240,
      "holzzaun": 4241,
      "zeitschriften": 4242,
      "armell": 4243,
      "lachelnden": 4244,
      "kontro": 4245,
      "festgebunden": 4246,
      "zeremon": 4247,
      "hauser": 4248,
      "stoß": 4249,
      "schneit": 4250,
      "rollern": 4251,
      "offiz": 4252,
      "peace": 4253,
      "food": 4254,
      "musikgruppe": 4255,
      "bergsteiger": 4256,
      "stativ": 4257,
      "schutzkleidung": 4258,
      "schutzausrustung": 4259,
      "landstraße": 4260,
      "stags": 4261,
      "schrieben": 4262,
      "pierc": 4263,
      "kratzt": 4264,
      "felsvorsprung": 4265,
      "großeren": 4266,
      "bildes": 4267,
      "bildern": 4268,
      "garage": 4269,
      "scheinwerfer": 4270,
      "laut": 4271,
      "farbiger": 4272,
      "lachende": 4273,
      "training": 4274,
      "reparatur": 4275,
      "wanderweg": 4276,
      "mulleimer": 4277,
      "offentlichkeit": 4278,
      "halskette": 4279,
      "herrn": 4280,
      "ziegelwand": 4281,
      "ziegelsteinen": 4282,
      "masken": 4283,
      "streichen": 4284,
      "kurzem": 4285,
      "wolke": 4286,
      "afrikanischen": 4287,
      "ziellinie": 4288,
      "bootes": 4289,
      "eingeschlafen": 4290,
      "ebenfalls": 4291,
      "nasser": 4292,
      "plane": 4293,
      "traditionelle": 4294,
      "flieger": 4295,
      "kauert": 4296,
      "tainer": 4297,
      "ruhigem": 4298,
      "overalls": 4299,
      "sattel": 4300,
      "fliegenden": 4301,
      "tragern": 4302,
      "ausgestreckt": 4303,
      "fertigen": 4304,
      "windhund": 4305,
      "fasst": 4306,
      "speer": 4307,
      "entfernung": 4308,
      "ahnlichen": 4309,
      "staubigen": 4310,
      "orientalisch": 4311,
      "meiß": 4312,
      "meisten": 4313,
      "geschoben": 4314,
      "blech": 4315,
      "gitarristen": 4316,
      "vergnugt": 4317,
      "essensstand": 4318,
      "portrat": 4319,
      "lagerfeuer": 4320,
      "burgunder": 4321,
      "notiz": 4322,
      "text": 4323,
      "amusiert": 4324,
      "frohlich": 4325,
      "bindet": 4326,
      "blondhaarige": 4327,
      "kartons": 4328,
      "namensschild": 4329,
      "klappstuhl": 4330,
      "freizeitpark": 4331,
      "gesetz": 4332,
      "ubung": 4333,
      "schlendert": 4334,
      "speise": 4335,
      "aufgeregt": 4336,
      "pizza": 4337,
      "reklameta": 4338,
      "tackelt": 4339,
      "fremden": 4340,
      "verzierten": 4341,
      "ungewohnlichen": 4342,
      "galerie": 4343,
      "heruntergekommen": 4344,
      "synch": 4345,
      "ubergewichtiger": 4346,
      "verbunden": 4347,
      "obdachloser": 4348,
      "aktiv": 4349,
      "wilden": 4350,
      "stelzen": 4351,
      "kabine": 4352,
      "kneipe": 4353,
      "niedrigen": 4354,
      "huhn": 4355,
      "aufgereiht": 4356,
      "histor": 4357,
      "relig": 4358,
      "akrobat": 4359,
      "staubsauger": 4360,
      "friedens": 4361,
      "erzeugnisse": 4362,
      "unordentlichen": 4363,
      "bewalde": 4364,
      "angebracht": 4365,
      "leggings": 4366,
      "regnerischen": 4367,
      "trifft": 4368,
      "synchron": 4369,
      "10": 4370,
      "bon": 4371,
      "bzw": 4372,
      "diert": 4373,
      "ed": 4374,
      "fein": 4375,
      "flam": 4376,
      "ging": 4377,
      "glast": 4378,
      "gitter": 4379,
      "girl": 4380,
      "hm": 4381,
      "hall": 4382,
      "jet": 4383,
      "lot": 4384,
      "lig": 4385,
      "owe": 4386,
      "ous": 4387,
      "smart": 4388,
      "sims": 4389,
      "troll": 4390,
      "ucke": 4391,
      "ubungen": 4392,
      "ven": 4393,
      "xy": 4394,
      "yer": 4395,
      "zitr": 4396,
      "int": 4397,
      "erei": 4398,
      "erhobenen": 4399,
      "chir": 4400,
      "chern": 4401,
      "anhaben": 4402,
      "eigen": 4403,
      "stimm": 4404,
      "stutzt": 4405,
      "schlan": 4406,
      "gefangen": 4407,
      "geschlagen": 4408,
      "geflo": 4409,
      "geoffnet": 4410,
      "gespannt": 4411,
      "itor": 4412,
      "alko": 4413,
      "raus": 4414,
      "ragen": 4415,
      "tete": 4416,
      "rode": 4417,
      "ichte": 4418,
      "diesen": 4419,
      "zugen": 4420,
      "denkt": 4421,
      "blut": 4422,
      "spielers": 4423,
      "maht": 4424,
      "lecker": 4425,
      "besch": 4426,
      "betreten": 4427,
      "besucht": 4428,
      "reisen": 4429,
      "vorfuhrt": 4430,
      "schwarm": 4431,
      "hocken": 4432,
      "unglucklich": 4433,
      "umringt": 4434,
      "ppel": 4435,
      "gehstock": 4436,
      "etwa": 4437,
      "strahl": 4438,
      "ausgezogen": 4439,
      "gelangen": 4440,
      "uberda": 4441,
      "uberprufen": 4442,
      "verwir": 4443,
      "sprin": 4444,
      "old": 4445,
      "olf": 4446,
      "wegen": 4447,
      "entfer": 4448,
      "mechan": 4449,
      "wasserbecken": 4450,
      "wasserflache": 4451,
      "hinterbeinen": 4452,
      "wai": 4453,
      "fenstern": 4454,
      "hervor": 4455,
      "trink": 4456,
      "bron": 4457,
      "sade": 4458,
      "obern": 4459,
      "day": 4460,
      "dahinter": 4461,
      "angehalten": 4462,
      "angestell": 4463,
      "kampft": 4464,
      "toten": 4465,
      "fußboden": 4466,
      "indigkeit": 4467,
      "pul": 4468,
      "ossen": 4469,
      "tischer": 4470,
      "ierende": 4471,
      "nachmittag": 4472,
      "abteil": 4473,
      "strands": 4474,
      "lernen": 4475,
      "schnor": 4476,
      "hupf": 4477,
      "steile": 4478,
      "helle": 4479,
      "loh": 4480,
      "wagens": 4481,
      "fahrenden": 4482,
      "karto": 4483,
      "fran": 4484,
      "frischen": 4485,
      "forscher": 4486,
      "stecken": 4487,
      "straßenarbeiter": 4488,
      "straßenseite": 4489,
      "straßenmusiker": 4490,
      "flugel": 4491,
      "hawai": 4492,
      "sandhugel": 4493,
      "seichten": 4494,
      "holzkonstruktion": 4495,
      "papa": 4496,
      "perucke": 4497,
      "skateboards": 4498,
      "heller": 4499,
      "darin": 4500,
      "daran": 4501,
      "steintreppe": 4502,
      "rollers": 4503,
      "izont": 4504,
      "offnen": 4505,
      "pop": 4506,
      "pose": 4507,
      "bud": 4508,
      "busch": 4509,
      "pullunder": 4510,
      "telefonieren": 4511,
      "betrachter": 4512,
      "chef": 4513,
      "feuerwerk": 4514,
      "spaht": 4515,
      "formeller": 4516,
      "zauber": 4517,
      "gleis": 4518,
      "dritten": 4519,
      "dritter": 4520,
      "schutzt": 4521,
      "zauns": 4522,
      "univers": 4523,
      "regenmantel": 4524,
      "schreien": 4525,
      "flusses": 4526,
      "flussufer": 4527,
      "schritt": 4528,
      "kenn": 4529,
      "horizont": 4530,
      "liegende": 4531,
      "einkaufstuten": 4532,
      "spaziert": 4533,
      "felsbrocken": 4534,
      "rasenflache": 4535,
      "rasenmaher": 4536,
      "intervie": 4537,
      "schoner": 4538,
      "garn": 4539,
      "scheinlich": 4540,
      "orangefarbenes": 4541,
      "wenn": 4542,
      "uniformierte": 4543,
      "uniformierter": 4544,
      "aussehendes": 4545,
      "saugt": 4546,
      "vollig": 4547,
      "akten": 4548,
      "schurzen": 4549,
      "rasier": 4550,
      "vorderen": 4551,
      "tanzflache": 4552,
      "schoko": 4553,
      "phone": 4554,
      "sky": 4555,
      "skil": 4556,
      "schutzen": 4557,
      "kulisse": 4558,
      "stiefel": 4559,
      "gegnerische": 4560,
      "zeichnen": 4561,
      "weiteren": 4562,
      "hangender": 4563,
      "china": 4564,
      "kampfsportler": 4565,
      "flugzeugs": 4566,
      "schlammigen": 4567,
      "treppenhaus": 4568,
      "beleuchtet": 4569,
      "schmuckt": 4570,
      "bedienen": 4571,
      "passiert": 4572,
      "tatowierte": 4573,
      "chinesische": 4574,
      "irgendwo": 4575,
      "angezogener": 4576,
      "komplet": 4577,
      "hinderni": 4578,
      "fischernetz": 4579,
      "schwestern": 4580,
      "kapuzenpullover": 4581,
      "außenbereich": 4582,
      "hubschen": 4583,
      "hubsche": 4584,
      "fassade": 4585,
      "stabchen": 4586,
      "sicherheitsweste": 4587,
      "ahnlich": 4588,
      "angst": 4589,
      "langarml": 4590,
      "vergnugen": 4591,
      "flipflo": 4592,
      "segelboot": 4593,
      "patienten": 4594,
      "protestiert": 4595,
      "elektrischen": 4596,
      "binden": 4597,
      "akust": 4598,
      "wildwasser": 4599,
      "camping": 4600,
      "stromschnellen": 4601,
      "container": 4602,
      "musikinstrumente": 4603,
      "glatze": 4604,
      "betrieb": 4605,
      "hohes": 4606,
      "schneebedeckte": 4607,
      "schneebedecktes": 4608,
      "geoffne": 4609,
      "begeisterung": 4610,
      "yoga": 4611,
      "beamte": 4612,
      "absperrung": 4613,
      "passagiere": 4614,
      "schachteln": 4615,
      "aufgereg": 4616,
      "ladt": 4617,
      "verteidiger": 4618,
      "bauernmarkt": 4619,
      "munz": 4620,
      "probieren": 4621,
      "geburtstags": 4622,
      "hamburger": 4623,
      "putzer": 4624,
      "befahrenen": 4625,
      "fernseher": 4626,
      "erleuchteten": 4627,
      "fackel": 4628,
      "pinata": 4629,
      "pilot": 4630,
      "geschwindigkeit": 4631,
      "aufgaben": 4632,
      "irokesenschnitt": 4633,
      "denkmal": 4634,
      "wakeboard": 4635,
      "bedruckten": 4636,
      "bohrmaschine": 4637,
      "dribbelt": 4638,
      "hoodie": 4639,
      "attraktive": 4640,
      "nachbarschaft": 4641,
      "karohemd": 4642,
      "tagsuber": 4643,
      "telefonzelle": 4644,
      "pluschtier": 4645,
      "harmon": 4646,
      "getroffen": 4647,
      "tennisplatz": 4648,
      "jeweils": 4649,
      "armellos": 4650,
      "kontrolle": 4651,
      "reklametafel": 4652,
      "heruntergekommenen": 4653,
      "bewaldeten": 4654,
      "hallowe": 4655,
      "chirur": 4656,
      "alkohol": 4657,
      "uberdachten": 4658,
      "entfernen": 4659,
      "flipflops": 4660,
      "halloween": 4661,
      "\".": 4662,
      "ac": 4663,
      "ap": 4664,
      "air": 4665,
      "asche": 4666,
      "aktion": 4667,
      "aquar": 4668,
      "bien": 4669,
      "breiten": 4670,
      "ddy": 4671,
      "event": 4672,
      "got": 4673,
      "gart": 4674,
      "kru": 4675,
      "kalte": 4676,
      "ms": 4677,
      "massen": 4678,
      "nungen": 4679,
      "nummern": 4680,
      "opol": 4681,
      "pinsel": 4682,
      "rin": 4683,
      "ritt": 4684,
      "siv": 4685,
      "tiger": 4686,
      "trot": 4687,
      "ugel": 4688,
      "ustr": 4689,
      "ult": 4690,
      "vis": 4691,
      "wend": 4692,
      "wischen": 4693,
      "wippe": 4694,
      "zund": 4695,
      "information": 4696,
      "endet": 4697,
      "einiger": 4698,
      "eingewickelt": 4699,
      "ansehen": 4700,
      "anzahl": 4701,
      "uns": 4702,
      "unken": 4703,
      "eiter": 4704,
      "scheln": 4705,
      "schals": 4706,
      "schalt": 4707,
      "schmalen": 4708,
      "gef": 4709,
      "gespielt": 4710,
      "getrei": 4711,
      "gefroren": 4712,
      "geschrieben": 4713,
      "geschmuckt": 4714,
      "itu": 4715,
      "aufsicht": 4716,
      "arch": 4717,
      "arger": 4718,
      "mitspieler": 4719,
      "teddy": 4720,
      "elmo": 4721,
      "klammert": 4722,
      "rosen": 4723,
      "dieselbe": 4724,
      "zuhort": 4725,
      "zuhause": 4726,
      "bluh": 4727,
      "spielsachen": 4728,
      "mais": 4729,
      "masten": 4730,
      "matrat": 4731,
      "ammen": 4732,
      "ambo": 4733,
      "leb": 4734,
      "beten": 4735,
      "betet": 4736,
      "beteil": 4737,
      "bestehend": 4738,
      "befind": 4739,
      "gre": 4740,
      "gren": 4741,
      "beißen": 4742,
      "vorsicht": 4743,
      "fahrzeugen": 4744,
      "aller": 4745,
      "host": 4746,
      "umpfen": 4747,
      "attra": 4748,
      "ethn": 4749,
      "esstisch": 4750,
      "body": 4751,
      "ischem": 4752,
      "verschrank": 4753,
      "wahrscheinlich": 4754,
      "unterhemd": 4755,
      "iken": 4756,
      "olen": 4757,
      "ruhrt": 4758,
      "bahnen": 4759,
      "laufband": 4760,
      "heel": 4761,
      "grunflache": 4762,
      "sacke": 4763,
      "lichter": 4764,
      "paras": 4765,
      "kampfer": 4766,
      "desig": 4767,
      "taten": 4768,
      "gebauten": 4769,
      "indien": 4770,
      "industr": 4771,
      "wirt": 4772,
      "strumpfen": 4773,
      "fahrradhelm": 4774,
      "kopfstein": 4775,
      "osau": 4776,
      "versuch": 4777,
      "absol": 4778,
      "absatz": 4779,
      "zugs": 4780,
      "hochstuhl": 4781,
      "hochsprung": 4782,
      "hochhack": 4783,
      "warte": 4784,
      "parken": 4785,
      "hufte": 4786,
      "stadtpark": 4787,
      "skatet": 4788,
      "volks": 4789,
      "schieß": 4790,
      "marmor": 4791,
      "kee": 4792,
      "dunnen": 4793,
      "lose": 4794,
      "lowen": 4795,
      "lophon": 4796,
      "logo": 4797,
      "rothaariger": 4798,
      "bluten": 4799,
      "graues": 4800,
      "karierter": 4801,
      "arbeitern": 4802,
      "sonnenlicht": 4803,
      "fordert": 4804,
      "straßenfest": 4805,
      "straßenszene": 4806,
      "bahnstation": 4807,
      "tresen": 4808,
      "burstet": 4809,
      "sandburg": 4810,
      "mopp": 4811,
      "mochte": 4812,
      "kusten": 4813,
      "kuloser": 4814,
      "ziegen": 4815,
      "wache": 4816,
      "wachmann": 4817,
      "holzbrett": 4818,
      "elekt": 4819,
      "pap": 4820,
      "perspekt": 4821,
      "hellgrunen": 4822,
      "muskuloser": 4823,
      "sporthalle": 4824,
      "daruber": 4825,
      "kontroll": 4826,
      "zerr": 4827,
      "steinbank": 4828,
      "soon": 4829,
      "soeben": 4830,
      "baseballfeld": 4831,
      "hosentragern": 4832,
      "polster": 4833,
      "gebir": 4834,
      "kommun": 4835,
      "feuerstelle": 4836,
      "buchstaben": 4837,
      "basketballfeld": 4838,
      "basketballkorb": 4839,
      "spielzeugauto": 4840,
      "dunkelheit": 4841,
      "dien": 4842,
      "footballspiel": 4843,
      "haupt": 4844,
      "street": 4845,
      "etti": 4846,
      "kanal": 4847,
      "kanad": 4848,
      "domin": 4849,
      "gewinnen": 4850,
      "schulern": 4851,
      "metallstange": 4852,
      "glaser": 4853,
      "horer": 4854,
      "handys": 4855,
      "einkaufer": 4856,
      "blaser": 4857,
      "blaskapelle": 4858,
      "fernsehen": 4859,
      "rockband": 4860,
      "taube": 4861,
      "betonmauer": 4862,
      "hockeyspiel": 4863,
      "wettei": 4864,
      "kerze": 4865,
      "linke": 4866,
      "umgebenen": 4867,
      "kuss": 4868,
      "randstein": 4869,
      "nackte": 4870,
      "teenagern": 4871,
      "brautjung": 4872,
      "vollstand": 4873,
      "kopfbedeckungen": 4874,
      "volleyballspieler": 4875,
      "mannschafts": 4876,
      "gestreifte": 4877,
      "vogeln": 4878,
      "krem": 4879,
      "matsch": 4880,
      "ziegelbau": 4881,
      "ziegelgebaude": 4882,
      "gleichgewicht": 4883,
      "flops": 4884,
      "geldautomaten": 4885,
      "afrikaner": 4886,
      "weiterer": 4887,
      "spiegelbild": 4888,
      "heraushangender": 4889,
      "tanzerinnen": 4890,
      "zielt": 4891,
      "zielen": 4892,
      "jogger": 4893,
      "jogging": 4894,
      "afroamerikanisches": 4895,
      "kajaks": 4896,
      "kajakfahrer": 4897,
      "waschmaschine": 4898,
      "silberne": 4899,
      "marathonlaufer": 4900,
      "schloss": 4901,
      "fliege": 4902,
      "seifenblase": 4903,
      "gießen": 4904,
      "tourist": 4905,
      "monopol": 4906,
      "kreuzten": 4907,
      "gepflasterte": 4908,
      "ruhig": 4909,
      "backsteinmauer": 4910,
      "irgendeinem": 4911,
      "objektiv": 4912,
      "schlafzimmer": 4913,
      "angezogene": 4914,
      "frischem": 4915,
      "projektor": 4916,
      "windhunde": 4917,
      "zelten": 4918,
      "hubschrau": 4919,
      "faszin": 4920,
      "piraten": 4921,
      "sicherheitswesten": 4922,
      "brat": 4923,
      "ringkampf": 4924,
      "ausgeschnitten": 4925,
      "orientalischer": 4926,
      "dinosau": 4927,
      "meister": 4928,
      "gewandt": 4929,
      "schwere": 4930,
      "schlucht": 4931,
      "schiffs": 4932,
      "dranten": 4933,
      "faust": 4934,
      "mehrfarbigen": 4935,
      "profession": 4936,
      "produkt": 4937,
      "batman": 4938,
      "aufblasbare": 4939,
      "hangematte": 4940,
      "fotograp": 4941,
      "fußgangerubergang": 4942,
      "sommertag": 4943,
      "wildnis": 4944,
      "schwenken": 4945,
      "rugbyspieler": 4946,
      "servieren": 4947,
      "polohemd": 4948,
      "zahnburste": 4949,
      "jockeys": 4950,
      "gurteln": 4951,
      "erklimmt": 4952,
      "spult": 4953,
      "wartungs": 4954,
      "trocknet": 4955,
      "ozeans": 4956,
      "ordnung": 4957,
      "trockenen": 4958,
      "begeistert": 4959,
      "timer": 4960,
      "times": 4961,
      "legerer": 4962,
      "ruderboot": 4963,
      "fried": 4964,
      "brennende": 4965,
      "schlendern": 4966,
      "ladung": 4967,
      "reklame": 4968,
      "hotdog": 4969,
      "leitung": 4970,
      "schnappt": 4971,
      "schlittschuh": 4972,
      "probiert": 4973,
      "supermarkt": 4974,
      "stofftier": 4975,
      "dicken": 4976,
      "hydranten": 4977,
      "dekoriert": 4978,
      "strumpfhose": 4979,
      "baumstumpf": 4980,
      "altmodischen": 4981,
      "dekoration": 4982,
      "kilt": 4983,
      "ausgebrei": 4984,
      "handwerker": 4985,
      "faulenzen": 4986,
      "demonstranten": 4987,
      "rosaroten": 4988,
      "elektronischen": 4989,
      "breit": 4990,
      "smoking": 4991,
      "objekte": 4992,
      "crew": 4993,
      "anweisungen": 4994,
      "gelegenen": 4995,
      "rostigen": 4996,
      "ureinwohner": 4997,
      "ladeflache": 4998,
      "verschwommen": 4999
    },
    "merges": [
      [
        "i",
        "n"
      ],
      [
        "e",
        "n"
      ],
      [
        "e",
        "in"
      ],
      [
        "e",
        "r"
      ],
      [
        "c",
        "h"
      ],
      [
        "a",
        "u"
      ],
      [
        "ein",
        "e"
      ],
      [
        "a",
        "n"
      ],
      [
        "u",
        "n"
      ],
      [
        "e",
        "i"
      ],
      [
        "s",
        "t"
      ],
      [
        "s",
        "ch"
      ],
      [
        "eine",
        "m"
      ],
      [
        "g",
        "e"
      ],
      [
        "i",
        "t"
      ],
      [
        "i",
        "e"
      ],
      [
        "un",
        "d"
      ],
      [
        "au",
        "f"
      ],
      [
        "m",
        "an"
      ],
      [
        "a",
        "r"
      ],
      [
        "man",
        "n"
      ],
      [
        "m",
        "it"
      ],
      [
        "d",
        "er"
      ],
      [
        "ein",
        "er"
      ],
      [
        "a",
        "l"
      ],
      [
        "o",
        "n"
      ],
      [
        "r",
        "au"
      ],
      [
        "h",
        "r"
      ],
      [
        "d",
        "e"
      ],
      [
        "r",
        "a"
      ],
      [
        "w",
        "ei"
      ],
      [
        "s",
        "p"
      ],
      [
        "t",
        "e"
      ],
      [
        "o",
        "r"
      ],
      [
        "t",
        "en"
      ],
      [
        "t",
        "er"
      ],
      [
        "a",
        "s"
      ],
      [
        "e",
        "l"
      ],
      [
        "f",
        "rau"
      ],
      [
        "k",
        "l"
      ],
      [
        "c",
        "k"
      ],
      [
        "r",
        "o"
      ],
      [
        "g",
        "en"
      ],
      [
        "i",
        "ch"
      ],
      [
        "ein",
        "en"
      ],
      [
        "d",
        "ie"
      ],
      [
        "ie",
        "l"
      ],
      [
        "a",
        "hr"
      ],
      [
        "i",
        "m"
      ],
      [
        "z",
        "u"
      ],
      [
        "z",
        "wei"
      ],
      [
        "e",
        "h"
      ],
      [
        "d",
        "en"
      ],
      [
        "b",
        "l"
      ],
      [
        "sp",
        "iel"
      ],
      [
        "m",
        "a"
      ],
      [
        "m",
        "en"
      ],
      [
        "b",
        "er"
      ],
      [
        "b",
        "en"
      ],
      [
        "a",
        "m"
      ],
      [
        "l",
        "e"
      ],
      [
        "u",
        "r"
      ],
      [
        "j",
        "un"
      ],
      [
        "g",
        "t"
      ],
      [
        "b",
        "e"
      ],
      [
        "g",
        "r"
      ],
      [
        "b",
        "ei"
      ],
      [
        "ch",
        "en"
      ],
      [
        "an",
        "d"
      ],
      [
        "r",
        "ei"
      ],
      [
        "l",
        "a"
      ],
      [
        "e",
        "m"
      ],
      [
        "it",
        "z"
      ],
      [
        "st",
        "eh"
      ],
      [
        "v",
        "or"
      ],
      [
        "n",
        "e"
      ],
      [
        "s",
        "itz"
      ],
      [
        "sch",
        "w"
      ],
      [
        "er",
        "s"
      ],
      [
        "s",
        "ich"
      ],
      [
        "i",
        "er"
      ],
      [
        "f",
        "ahr"
      ],
      [
        "al",
        "l"
      ],
      [
        "ß",
        "en"
      ],
      [
        "v",
        "on"
      ],
      [
        "r",
        "e"
      ],
      [
        "de",
        "m"
      ],
      [
        "jun",
        "ge"
      ],
      [
        "h",
        "al"
      ],
      [
        "k",
        "in"
      ],
      [
        "sch",
        "en"
      ],
      [
        "h",
        "o"
      ],
      [
        "un",
        "g"
      ],
      [
        "d",
        "chen"
      ],
      [
        "g",
        "er"
      ],
      [
        "ma",
        "dchen"
      ],
      [
        "u",
        "m"
      ],
      [
        "ß",
        "e"
      ],
      [
        "p",
        "p"
      ],
      [
        "h",
        "und"
      ],
      [
        "s",
        "en"
      ],
      [
        "ge",
        "h"
      ],
      [
        "a",
        "t"
      ],
      [
        "i",
        "l"
      ],
      [
        "ar",
        "z"
      ],
      [
        "f",
        "t"
      ],
      [
        "ers",
        "on"
      ],
      [
        "p",
        "erson"
      ],
      [
        "u",
        "t"
      ],
      [
        "e",
        "t"
      ],
      [
        "schw",
        "arz"
      ],
      [
        "b",
        "all"
      ],
      [
        "st",
        "ra"
      ],
      [
        "au",
        "s"
      ],
      [
        "eine",
        "s"
      ],
      [
        "ge",
        "l"
      ],
      [
        "bl",
        "au"
      ],
      [
        "mann",
        "er"
      ],
      [
        "w",
        "as"
      ],
      [
        "ch",
        "t"
      ],
      [
        "e",
        "s"
      ],
      [
        "steh",
        "t"
      ],
      [
        "kl",
        "ei"
      ],
      [
        "p",
        "f"
      ],
      [
        "n",
        "en"
      ],
      [
        "o",
        "t"
      ],
      [
        "an",
        "der"
      ],
      [
        "i",
        "r"
      ],
      [
        "pp",
        "e"
      ],
      [
        "b",
        "o"
      ],
      [
        "t",
        "ra"
      ],
      [
        "h",
        "in"
      ],
      [
        "sitz",
        "t"
      ],
      [
        "n",
        "a"
      ],
      [
        "u",
        "ber"
      ],
      [
        "s",
        "e"
      ],
      [
        "i",
        "sch"
      ],
      [
        "v",
        "er"
      ],
      [
        "stra",
        "ße"
      ],
      [
        "en",
        "d"
      ],
      [
        "gr",
        "u"
      ],
      [
        "sp",
        "r"
      ],
      [
        "hal",
        "t"
      ],
      [
        "b",
        "au"
      ],
      [
        "gru",
        "ppe"
      ],
      [
        "w",
        "ahr"
      ],
      [
        "h",
        "em"
      ],
      [
        "k",
        "o"
      ],
      [
        "wahr",
        "end"
      ],
      [
        "un",
        "ter"
      ],
      [
        "men",
        "schen"
      ],
      [
        "i",
        "k"
      ],
      [
        "d",
        "as"
      ],
      [
        "o",
        "l"
      ],
      [
        "spiel",
        "t"
      ],
      [
        "i",
        "st"
      ],
      [
        "i",
        "hr"
      ],
      [
        "s",
        "er"
      ],
      [
        "hem",
        "d"
      ],
      [
        "r",
        "u"
      ],
      [
        "l",
        "an"
      ],
      [
        "sch",
        "au"
      ],
      [
        "w",
        "e"
      ],
      [
        "b",
        "a"
      ],
      [
        "te",
        "t"
      ],
      [
        "person",
        "en"
      ],
      [
        "en",
        "t"
      ],
      [
        "ra",
        "d"
      ],
      [
        "ck",
        "e"
      ],
      [
        "f",
        "u"
      ],
      [
        "m",
        "e"
      ],
      [
        "was",
        "ser"
      ],
      [
        "d",
        "rei"
      ],
      [
        "blau",
        "en"
      ],
      [
        "klei",
        "d"
      ],
      [
        "kin",
        "d"
      ],
      [
        "l",
        "u"
      ],
      [
        "g",
        "ro"
      ],
      [
        "z",
        "e"
      ],
      [
        "b",
        "rau"
      ],
      [
        "u",
        "h"
      ],
      [
        "a",
        "ar"
      ],
      [
        "ei",
        "l"
      ],
      [
        "steh",
        "en"
      ],
      [
        "wei",
        "ßen"
      ],
      [
        "kin",
        "der"
      ],
      [
        "ne",
        "ben"
      ],
      [
        "f",
        "ar"
      ],
      [
        "in",
        "gt"
      ],
      [
        "f",
        "el"
      ],
      [
        "r",
        "en"
      ],
      [
        "sitz",
        "en"
      ],
      [
        "hin",
        "ter"
      ],
      [
        "d",
        "ur"
      ],
      [
        "frau",
        "en"
      ],
      [
        "dur",
        "ch"
      ],
      [
        "ar",
        "bei"
      ],
      [
        "ro",
        "ten"
      ],
      [
        "w",
        "a"
      ],
      [
        "l",
        "auf"
      ],
      [
        "h",
        "and"
      ],
      [
        "f",
        "en"
      ],
      [
        "spiel",
        "en"
      ],
      [
        "h",
        "e"
      ],
      [
        "h",
        "er"
      ],
      [
        "fahr",
        "t"
      ],
      [
        "gr",
        "un"
      ],
      [
        "geh",
        "t"
      ],
      [
        "l",
        "ie"
      ],
      [
        "le",
        "u"
      ],
      [
        "t",
        "r"
      ],
      [
        "far",
        "ben"
      ],
      [
        "k",
        "a"
      ],
      [
        "al",
        "ter"
      ],
      [
        "wei",
        "ß"
      ],
      [
        "i",
        "s"
      ],
      [
        "b",
        "r"
      ],
      [
        "s",
        "a"
      ],
      [
        "tra",
        "gt"
      ],
      [
        "t",
        "eil"
      ],
      [
        "el",
        "l"
      ],
      [
        "o",
        "ber"
      ],
      [
        "ier",
        "t"
      ],
      [
        "k",
        "t"
      ],
      [
        "s",
        "ie"
      ],
      [
        "lan",
        "g"
      ],
      [
        "j",
        "a"
      ],
      [
        "l",
        "ich"
      ],
      [
        "d",
        "a"
      ],
      [
        "i",
        "ck"
      ],
      [
        "f",
        "e"
      ],
      [
        "s",
        "h"
      ],
      [
        "l",
        "l"
      ],
      [
        "g",
        "ra"
      ],
      [
        "kl",
        "eines"
      ],
      [
        "p",
        "ar"
      ],
      [
        "ma",
        "cht"
      ],
      [
        "im",
        "m"
      ],
      [
        "kleid",
        "ung"
      ],
      [
        "z",
        "ei"
      ],
      [
        "spr",
        "ingt"
      ],
      [
        "an",
        "ge"
      ],
      [
        "u",
        "s"
      ],
      [
        "schwarz",
        "en"
      ],
      [
        "ent",
        "lang"
      ],
      [
        "k",
        "am"
      ],
      [
        "kl",
        "einer"
      ],
      [
        "t",
        "o"
      ],
      [
        "i",
        "gen"
      ],
      [
        "a",
        "d"
      ],
      [
        "de",
        "s"
      ],
      [
        "we",
        "g"
      ],
      [
        "geh",
        "en"
      ],
      [
        "sch",
        "a"
      ],
      [
        "spiel",
        "er"
      ],
      [
        "el",
        "t"
      ],
      [
        "hr",
        "er"
      ],
      [
        "t",
        "a"
      ],
      [
        "h",
        "n"
      ],
      [
        "ck",
        "en"
      ],
      [
        "h",
        "aar"
      ],
      [
        "leu",
        "te"
      ],
      [
        "er",
        "n"
      ],
      [
        "fu",
        "ß"
      ],
      [
        "i",
        "ge"
      ],
      [
        "me",
        "hrer"
      ],
      [
        "f",
        "rei"
      ],
      [
        "ge",
        "bau"
      ],
      [
        "z",
        "en"
      ],
      [
        "la",
        "ch"
      ],
      [
        "j",
        "e"
      ],
      [
        "in",
        "d"
      ],
      [
        "i",
        "schen"
      ],
      [
        "w",
        "ir"
      ],
      [
        "sch",
        "la"
      ],
      [
        "st",
        "r"
      ],
      [
        "klei",
        "de"
      ],
      [
        "ober",
        "teil"
      ],
      [
        "fahr",
        "rad"
      ],
      [
        "or",
        "t"
      ],
      [
        "h",
        "t"
      ],
      [
        "i",
        "g"
      ],
      [
        "n",
        "t"
      ],
      [
        "et",
        "was"
      ],
      [
        "mehrer",
        "e"
      ],
      [
        "s",
        "einem"
      ],
      [
        "u",
        "ch"
      ],
      [
        "br",
        "il"
      ],
      [
        "ir",
        "t"
      ],
      [
        "gro",
        "ßen"
      ],
      [
        "p",
        "u"
      ],
      [
        "ko",
        "pf"
      ],
      [
        "o",
        "s"
      ],
      [
        "t",
        "isch"
      ],
      [
        "sh",
        "irt"
      ],
      [
        "sch",
        "ne"
      ],
      [
        "te",
        "l"
      ],
      [
        "grun",
        "en"
      ],
      [
        "ja",
        "cke"
      ],
      [
        "lu",
        "ft"
      ],
      [
        "gr",
        "und"
      ],
      [
        "el",
        "n"
      ],
      [
        "ier",
        "en"
      ],
      [
        "jun",
        "gen"
      ],
      [
        "v",
        "ers"
      ],
      [
        "an",
        "k"
      ],
      [
        "schau",
        "t"
      ],
      [
        "bril",
        "le"
      ],
      [
        "schne",
        "e"
      ],
      [
        "na",
        "ch"
      ],
      [
        "brau",
        "n"
      ],
      [
        "a",
        "b"
      ],
      [
        "ge",
        "kleide"
      ],
      [
        "zu",
        "g"
      ],
      [
        "s",
        "on"
      ],
      [
        "ze",
        "u"
      ],
      [
        "s",
        "am"
      ],
      [
        "ho",
        "ch"
      ],
      [
        "bo",
        "ar"
      ],
      [
        "ich",
        "t"
      ],
      [
        "h",
        "ut"
      ],
      [
        "str",
        "and"
      ],
      [
        "b",
        "as"
      ],
      [
        "f",
        "ot"
      ],
      [
        "scha",
        "ft"
      ],
      [
        "jun",
        "ger"
      ],
      [
        "lauf",
        "t"
      ],
      [
        "s",
        "eh"
      ],
      [
        "st",
        "u"
      ],
      [
        "il",
        "d"
      ],
      [
        "farben",
        "en"
      ],
      [
        "h",
        "at"
      ],
      [
        "l",
        "er"
      ],
      [
        "w",
        "ar"
      ],
      [
        "sch",
        "n"
      ],
      [
        "st",
        "ad"
      ],
      [
        "f",
        "ur"
      ],
      [
        "s",
        "ind"
      ],
      [
        "st",
        "er"
      ],
      [
        "men",
        "ge"
      ],
      [
        "hinter",
        "grund"
      ],
      [
        "seh",
        "en"
      ],
      [
        "h",
        "an"
      ],
      [
        "w",
        "er"
      ],
      [
        "hal",
        "ten"
      ],
      [
        "b",
        "t"
      ],
      [
        "frei",
        "en"
      ],
      [
        "ge",
        "st"
      ],
      [
        "k",
        "auf"
      ],
      [
        "o",
        "f"
      ],
      [
        "t",
        "an"
      ],
      [
        "p",
        "la"
      ],
      [
        "gebau",
        "de"
      ],
      [
        "na",
        "he"
      ],
      [
        "ander",
        "en"
      ],
      [
        "bl",
        "ick"
      ],
      [
        "it",
        "ar"
      ],
      [
        "b",
        "ar"
      ],
      [
        "v",
        "ier"
      ],
      [
        "de",
        "t"
      ],
      [
        "fel",
        "d"
      ],
      [
        "gel",
        "ben"
      ],
      [
        "par",
        "k"
      ],
      [
        "vor",
        "bei"
      ],
      [
        "zeu",
        "g"
      ],
      [
        "t",
        "z"
      ],
      [
        "as",
        "i"
      ],
      [
        "fahr",
        "er"
      ],
      [
        "fot",
        "o"
      ],
      [
        "h",
        "u"
      ],
      [
        "w",
        "ie"
      ],
      [
        "ber",
        "ei"
      ],
      [
        "es",
        "sen"
      ],
      [
        "gra",
        "s"
      ],
      [
        "te",
        "m"
      ],
      [
        "or",
        "ange"
      ],
      [
        "l",
        "ei"
      ],
      [
        "stad",
        "t"
      ],
      [
        "kam",
        "er"
      ],
      [
        "f",
        "er"
      ],
      [
        "st",
        "ei"
      ],
      [
        "ge",
        "gen"
      ],
      [
        "sch",
        "e"
      ],
      [
        "bo",
        "den"
      ],
      [
        "ander",
        "e"
      ],
      [
        "boar",
        "d"
      ],
      [
        "f",
        "on"
      ],
      [
        "i",
        "h"
      ],
      [
        "fuß",
        "ball"
      ],
      [
        "ut",
        "z"
      ],
      [
        "g",
        "itar"
      ],
      [
        "ck",
        "t"
      ],
      [
        "schwarz",
        "er"
      ],
      [
        "s",
        "ka"
      ],
      [
        "kl",
        "eine"
      ],
      [
        "kamer",
        "a"
      ],
      [
        "v",
        "ol"
      ],
      [
        "h",
        "el"
      ],
      [
        "w",
        "and"
      ],
      [
        "hund",
        "e"
      ],
      [
        "f",
        "in"
      ],
      [
        "sch",
        "ie"
      ],
      [
        "m",
        "ar"
      ],
      [
        "wir",
        "d"
      ],
      [
        "k",
        "e"
      ],
      [
        "d",
        "un"
      ],
      [
        "bei",
        "m"
      ],
      [
        "l",
        "o"
      ],
      [
        "i",
        "ger"
      ],
      [
        "k",
        "or"
      ],
      [
        "bl",
        "on"
      ],
      [
        "ren",
        "nen"
      ],
      [
        "p",
        "aar"
      ],
      [
        "kl",
        "einen"
      ],
      [
        "weiß",
        "er"
      ],
      [
        "ein",
        "ander"
      ],
      [
        "asi",
        "at"
      ],
      [
        "an",
        "s"
      ],
      [
        "wa",
        "gen"
      ],
      [
        "menschen",
        "menge"
      ],
      [
        "ho",
        "l"
      ],
      [
        "u",
        "er"
      ],
      [
        "au",
        "to"
      ],
      [
        "ro",
        "sa"
      ],
      [
        "ro",
        "t"
      ],
      [
        "bl",
        "u"
      ],
      [
        "schw",
        "imm"
      ],
      [
        "fahr",
        "en"
      ],
      [
        "g",
        "rau"
      ],
      [
        "ot",
        "or"
      ],
      [
        "k",
        "ar"
      ],
      [
        "am",
        "m"
      ],
      [
        "gitar",
        "re"
      ],
      [
        "in",
        "g"
      ],
      [
        "ska",
        "te"
      ],
      [
        "b",
        "ank"
      ],
      [
        "f",
        "r"
      ],
      [
        "ren",
        "nt"
      ],
      [
        "lie",
        "gt"
      ],
      [
        "arbei",
        "ter"
      ],
      [
        "son",
        "nen"
      ],
      [
        "pf",
        "er"
      ],
      [
        "fu",
        "hr"
      ],
      [
        "f",
        "or"
      ],
      [
        "u",
        "cht"
      ],
      [
        "i",
        "on"
      ],
      [
        "v",
        "iel"
      ],
      [
        "zu",
        "sam"
      ],
      [
        "st",
        "e"
      ],
      [
        "stra",
        "ßen"
      ],
      [
        "isch",
        "e"
      ],
      [
        "l",
        "en"
      ],
      [
        "p",
        "os"
      ],
      [
        "ihr",
        "e"
      ],
      [
        "sie",
        "ht"
      ],
      [
        "c",
        "o"
      ],
      [
        "et",
        "ter"
      ],
      [
        "ba",
        "hn"
      ],
      [
        "k",
        "un"
      ],
      [
        "m",
        "ut"
      ],
      [
        "schau",
        "en"
      ],
      [
        "k",
        "el"
      ],
      [
        "f",
        "lu"
      ],
      [
        "t",
        "re"
      ],
      [
        "te",
        "s"
      ],
      [
        "b",
        "ur"
      ],
      [
        "b",
        "y"
      ],
      [
        "zusam",
        "men"
      ],
      [
        "h",
        "a"
      ],
      [
        "ihr",
        "en"
      ],
      [
        "in",
        "k"
      ],
      [
        "s",
        "and"
      ],
      [
        "g",
        "an"
      ],
      [
        "m",
        "o"
      ],
      [
        "m",
        "u"
      ],
      [
        "gro",
        "ße"
      ],
      [
        "an",
        "zug"
      ],
      [
        "st",
        "uh"
      ],
      [
        "her",
        "um"
      ],
      [
        "kun",
        "st"
      ],
      [
        "m",
        "otor"
      ],
      [
        "stei",
        "g"
      ],
      [
        "l",
        "as"
      ],
      [
        "je",
        "ans"
      ],
      [
        "b",
        "uh"
      ],
      [
        "brau",
        "nen"
      ],
      [
        "k",
        "ur"
      ],
      [
        "s",
        "ei"
      ],
      [
        "sch",
        "uh"
      ],
      [
        "braun",
        "er"
      ],
      [
        "m",
        "al"
      ],
      [
        "ru",
        "ck"
      ],
      [
        "b",
        "and"
      ],
      [
        "k",
        "u"
      ],
      [
        "sich",
        "t"
      ],
      [
        "in",
        "gen"
      ],
      [
        "sch",
        "ir"
      ],
      [
        "t",
        "ur"
      ],
      [
        "z",
        "ie"
      ],
      [
        "kl",
        "etter"
      ],
      [
        "wa",
        "ch"
      ],
      [
        "alter",
        "er"
      ],
      [
        "s",
        "ein"
      ],
      [
        "de",
        "ck"
      ],
      [
        "pla",
        "tz"
      ],
      [
        "t",
        "t"
      ],
      [
        "buh",
        "ne"
      ],
      [
        "d",
        "rau"
      ],
      [
        "hol",
        "z"
      ],
      [
        "m",
        "au"
      ],
      [
        "ho",
        "se"
      ],
      [
        "drau",
        "ßen"
      ],
      [
        "lauf",
        "en"
      ],
      [
        "zei",
        "t"
      ],
      [
        "ar",
        "m"
      ],
      [
        "der",
        "n"
      ],
      [
        "el",
        "e"
      ],
      [
        "bas",
        "e"
      ],
      [
        "s",
        "s"
      ],
      [
        "be",
        "fin"
      ],
      [
        "ch",
        "tet"
      ],
      [
        "ch",
        "ten"
      ],
      [
        "p",
        "a"
      ],
      [
        "p",
        "er"
      ],
      [
        "r",
        "an"
      ],
      [
        "geh",
        "weg"
      ],
      [
        "bau",
        "m"
      ],
      [
        "el",
        "le"
      ],
      [
        "skate",
        "board"
      ],
      [
        "h",
        "ell"
      ],
      [
        "ge",
        "schaft"
      ],
      [
        "b",
        "ild"
      ],
      [
        "s",
        "eine"
      ],
      [
        "st",
        "en"
      ],
      [
        "wei",
        "ße"
      ],
      [
        "blick",
        "t"
      ],
      [
        "wach",
        "sen"
      ],
      [
        "ba",
        "by"
      ],
      [
        "m",
        "ik"
      ],
      [
        "hin",
        "unter"
      ],
      [
        "isch",
        "er"
      ],
      [
        "m",
        "us"
      ],
      [
        "mik",
        "ro"
      ],
      [
        "k",
        "et"
      ],
      [
        "bo",
        "ot"
      ],
      [
        "sp",
        "ort"
      ],
      [
        "arbei",
        "tet"
      ],
      [
        "da",
        "bei"
      ],
      [
        "lach",
        "eln"
      ],
      [
        "ta",
        "g"
      ],
      [
        "s",
        "einen"
      ],
      [
        "d",
        "ar"
      ],
      [
        "al",
        "s"
      ],
      [
        "tra",
        "gen"
      ],
      [
        "hel",
        "m"
      ],
      [
        "w",
        "al"
      ],
      [
        "k",
        "on"
      ],
      [
        "fe",
        "st"
      ],
      [
        "z",
        "er"
      ],
      [
        "an",
        "gen"
      ],
      [
        "sch",
        "l"
      ],
      [
        "vers",
        "ucht"
      ],
      [
        "m",
        "er"
      ],
      [
        "sch",
        "u"
      ],
      [
        "arbei",
        "ten"
      ],
      [
        "st",
        "ein"
      ],
      [
        "d",
        "am"
      ],
      [
        "h",
        "en"
      ],
      [
        "h",
        "aus"
      ],
      [
        "be",
        "deck"
      ],
      [
        "s",
        "o"
      ],
      [
        "kam",
        "pf"
      ],
      [
        "n",
        "is"
      ],
      [
        "zei",
        "gt"
      ],
      [
        "f",
        "ten"
      ],
      [
        "st",
        "au"
      ],
      [
        "bur",
        "ger"
      ],
      [
        "base",
        "ball"
      ],
      [
        "ho",
        "sen"
      ],
      [
        "st",
        "o"
      ],
      [
        "st",
        "and"
      ],
      [
        "man",
        "tel"
      ],
      [
        "ver",
        "kauf"
      ],
      [
        "k",
        "i"
      ],
      [
        "ma",
        "chen"
      ],
      [
        "gest",
        "rei"
      ],
      [
        "dam",
        "e"
      ],
      [
        "p",
        "ol"
      ],
      [
        "te",
        "le"
      ],
      [
        "schn",
        "ei"
      ],
      [
        "ge",
        "b"
      ],
      [
        "ko",
        "m"
      ],
      [
        "lach",
        "elt"
      ],
      [
        "tr",
        "ik"
      ],
      [
        "lich",
        "en"
      ],
      [
        "orange",
        "farbenen"
      ],
      [
        "ro",
        "ll"
      ],
      [
        "ihr",
        "em"
      ],
      [
        "i",
        "z"
      ],
      [
        "of",
        "f"
      ],
      [
        "stuh",
        "l"
      ],
      [
        "trik",
        "ot"
      ],
      [
        "alter",
        "e"
      ],
      [
        "gra",
        "f"
      ],
      [
        "w",
        "o"
      ],
      [
        "motor",
        "rad"
      ],
      [
        "ge",
        "sicht"
      ],
      [
        "ih",
        "m"
      ],
      [
        "f",
        "it"
      ],
      [
        "p",
        "e"
      ],
      [
        "z",
        "t"
      ],
      [
        "junge",
        "s"
      ],
      [
        "burger",
        "steig"
      ],
      [
        "o",
        "ver"
      ],
      [
        "f",
        "la"
      ],
      [
        "er",
        "wachsen"
      ],
      [
        "p",
        "o"
      ],
      [
        "na",
        "cht"
      ],
      [
        "lie",
        "st"
      ],
      [
        "spr",
        "icht"
      ],
      [
        "ik",
        "an"
      ],
      [
        "p",
        "ro"
      ],
      [
        "ander",
        "er"
      ],
      [
        "schir",
        "m"
      ],
      [
        "b",
        "u"
      ],
      [
        "unter",
        "halten"
      ],
      [
        "fuhr",
        "t"
      ],
      [
        "l",
        "i"
      ],
      [
        "n",
        "er"
      ],
      [
        "b",
        "ele"
      ],
      [
        "mar",
        "kt"
      ],
      [
        "wal",
        "d"
      ],
      [
        "s",
        "ur"
      ],
      [
        "pu",
        "ll"
      ],
      [
        "tele",
        "fon"
      ],
      [
        "f",
        "o"
      ],
      [
        "be",
        "tra"
      ],
      [
        "f",
        "all"
      ],
      [
        "ß",
        "er"
      ],
      [
        "in",
        "e"
      ],
      [
        "pfer",
        "d"
      ],
      [
        "haar",
        "en"
      ],
      [
        "v",
        "o"
      ],
      [
        "ch",
        "e"
      ],
      [
        "st",
        "ru"
      ],
      [
        "ten",
        "nis"
      ],
      [
        "weiß",
        "em"
      ],
      [
        "fe",
        "uer"
      ],
      [
        "rau",
        "m"
      ],
      [
        "sp",
        "a"
      ],
      [
        "mus",
        "ik"
      ],
      [
        "me",
        "er"
      ],
      [
        "for",
        "m"
      ],
      [
        "b",
        "uch"
      ],
      [
        "h",
        "l"
      ],
      [
        "z",
        "au"
      ],
      [
        "sch",
        "ild"
      ],
      [
        "n",
        "o"
      ],
      [
        "viel",
        "e"
      ],
      [
        "o",
        "ba"
      ],
      [
        "ß",
        "t"
      ],
      [
        "zu",
        "m"
      ],
      [
        "bas",
        "ket"
      ],
      [
        "grau",
        "en"
      ],
      [
        "ber",
        "g"
      ],
      [
        "re",
        "stau"
      ],
      [
        "sonnen",
        "brille"
      ],
      [
        "restau",
        "ran"
      ],
      [
        "g",
        "lei"
      ],
      [
        "restauran",
        "t"
      ],
      [
        "st",
        "at"
      ],
      [
        "it",
        "t"
      ],
      [
        "basket",
        "ball"
      ],
      [
        "b",
        "un"
      ],
      [
        "blau",
        "em"
      ],
      [
        "ort",
        "s"
      ],
      [
        "stu",
        "ck"
      ],
      [
        "spiel",
        "zeug"
      ],
      [
        "be",
        "oba"
      ],
      [
        "gekleide",
        "te"
      ],
      [
        "s",
        "einer"
      ],
      [
        "t",
        "on"
      ],
      [
        "zu",
        "schau"
      ],
      [
        "fel",
        "sen"
      ],
      [
        "dun",
        "kel"
      ],
      [
        "f",
        "un"
      ],
      [
        "ei",
        "s"
      ],
      [
        "mut",
        "ze"
      ],
      [
        "d",
        "r"
      ],
      [
        "st",
        "ell"
      ],
      [
        "sch",
        "utz"
      ],
      [
        "sh",
        "orts"
      ],
      [
        "zau",
        "n"
      ],
      [
        "d",
        "i"
      ],
      [
        "s",
        "ingt"
      ],
      [
        "ot",
        "ball"
      ],
      [
        "bar",
        "t"
      ],
      [
        "kletter",
        "t"
      ],
      [
        "fo",
        "otball"
      ],
      [
        "l",
        "and"
      ],
      [
        "o",
        "b"
      ],
      [
        "ih",
        "nen"
      ],
      [
        "a",
        "de"
      ],
      [
        "fen",
        "ster"
      ],
      [
        "h",
        "au"
      ],
      [
        "mikro",
        "fon"
      ],
      [
        "blu",
        "men"
      ],
      [
        "il",
        "l"
      ],
      [
        "ba",
        "de"
      ],
      [
        "fun",
        "f"
      ],
      [
        "un",
        "i"
      ],
      [
        "pos",
        "iert"
      ],
      [
        "b",
        "us"
      ],
      [
        "vers",
        "amm"
      ],
      [
        "dar",
        "auf"
      ],
      [
        "re",
        "gen"
      ],
      [
        "h",
        "ei"
      ],
      [
        "ein",
        "ige"
      ],
      [
        "je",
        "man"
      ],
      [
        "pull",
        "over"
      ],
      [
        "sch",
        "rei"
      ],
      [
        "blau",
        "er"
      ],
      [
        "wir",
        "ft"
      ],
      [
        "befin",
        "det"
      ],
      [
        "gel",
        "be"
      ],
      [
        "t",
        "ro"
      ],
      [
        "st",
        "re"
      ],
      [
        "as",
        "sen"
      ],
      [
        "hu",
        "gel"
      ],
      [
        "in",
        "s"
      ],
      [
        "ar",
        "t"
      ],
      [
        "et",
        "t"
      ],
      [
        "kor",
        "per"
      ],
      [
        "f",
        "ro"
      ],
      [
        "ter",
        "n"
      ],
      [
        "kl",
        "ein"
      ],
      [
        "be",
        "cken"
      ],
      [
        "b",
        "al"
      ],
      [
        "k",
        "an"
      ],
      [
        "den",
        "en"
      ],
      [
        "pp",
        "en"
      ],
      [
        "flu",
        "ss"
      ],
      [
        "b",
        "ru"
      ],
      [
        "ie",
        "t"
      ],
      [
        "berei",
        "tet"
      ],
      [
        "k",
        "n"
      ],
      [
        "m",
        "et"
      ],
      [
        "in",
        "kt"
      ],
      [
        "sch",
        "t"
      ],
      [
        "de",
        "l"
      ],
      [
        "spr",
        "ingen"
      ],
      [
        "gan",
        "g"
      ],
      [
        "schwarz",
        "em"
      ],
      [
        "se",
        "hr"
      ],
      [
        "is",
        "st"
      ],
      [
        "gekleide",
        "ter"
      ],
      [
        "z",
        "w"
      ],
      [
        "st",
        "a"
      ],
      [
        "f",
        "a"
      ],
      [
        "schuh",
        "en"
      ],
      [
        "f",
        "re"
      ],
      [
        "l",
        "eh"
      ],
      [
        "r",
        "icht"
      ],
      [
        "ro",
        "tem"
      ],
      [
        "lan",
        "gen"
      ],
      [
        "wie",
        "se"
      ],
      [
        "sei",
        "te"
      ],
      [
        "stru",
        "men"
      ],
      [
        "d",
        "o"
      ],
      [
        "o",
        "der"
      ],
      [
        "r",
        "ut"
      ],
      [
        "ro",
        "ter"
      ],
      [
        "schwarz",
        "e"
      ],
      [
        "sto",
        "ck"
      ],
      [
        "b",
        "re"
      ],
      [
        "kinder",
        "n"
      ],
      [
        "o",
        "p"
      ],
      [
        "t",
        "s"
      ],
      [
        "sa",
        "ck"
      ],
      [
        "sch",
        "r"
      ],
      [
        "ge",
        "w"
      ],
      [
        "mit",
        "ten"
      ],
      [
        "v",
        "i"
      ],
      [
        "und",
        "en"
      ],
      [
        "manner",
        "n"
      ],
      [
        "ta",
        "sche"
      ],
      [
        "tan",
        "zen"
      ],
      [
        "blu",
        "se"
      ],
      [
        "gestrei",
        "ften"
      ],
      [
        "h",
        "on"
      ],
      [
        "war",
        "tet"
      ],
      [
        "ho",
        "f"
      ],
      [
        "al",
        "t"
      ],
      [
        "k",
        "en"
      ],
      [
        "lich",
        "er"
      ],
      [
        "haar",
        "ige"
      ],
      [
        "tre",
        "ppe"
      ],
      [
        "mau",
        "l"
      ],
      [
        "schu",
        "l"
      ],
      [
        "wer",
        "den"
      ],
      [
        "q",
        "uer"
      ],
      [
        "t",
        "y"
      ],
      [
        "lich",
        "e"
      ],
      [
        "i",
        "en"
      ],
      [
        "in",
        "nen"
      ],
      [
        "sch",
        "m"
      ],
      [
        "vol",
        "ler"
      ],
      [
        "pos",
        "ieren"
      ],
      [
        "mal",
        "t"
      ],
      [
        "p",
        "ier"
      ],
      [
        "ge",
        "s"
      ],
      [
        "met",
        "all"
      ],
      [
        "g",
        "las"
      ],
      [
        "h",
        "or"
      ],
      [
        "o",
        "ben"
      ],
      [
        "s",
        "eil"
      ],
      [
        "z",
        "imm"
      ],
      [
        "ge",
        "ben"
      ],
      [
        "cke",
        "y"
      ],
      [
        "lie",
        "gen"
      ],
      [
        "uber",
        "quer"
      ],
      [
        "rad",
        "fahrer"
      ],
      [
        "hand",
        "y"
      ],
      [
        "bele",
        "b"
      ],
      [
        "ein",
        "kauf"
      ],
      [
        "spr",
        "ung"
      ],
      [
        "ober",
        "korper"
      ],
      [
        "schla",
        "g"
      ],
      [
        "war",
        "ten"
      ],
      [
        "utz",
        "t"
      ],
      [
        "dun",
        "kl"
      ],
      [
        "zimm",
        "er"
      ],
      [
        "as",
        "se"
      ],
      [
        "am",
        "er"
      ],
      [
        "zie",
        "ht"
      ],
      [
        "mau",
        "er"
      ],
      [
        "rei",
        "tet"
      ],
      [
        "ist",
        "en"
      ],
      [
        "i",
        "v"
      ],
      [
        "un",
        "gen"
      ],
      [
        "bl",
        "as"
      ],
      [
        "ma",
        "sch"
      ],
      [
        "nacht",
        "s"
      ],
      [
        "k",
        "ra"
      ],
      [
        "te",
        "am"
      ],
      [
        "ier",
        "ten"
      ],
      [
        "br",
        "un"
      ],
      [
        "wer",
        "k"
      ],
      [
        "g",
        "ol"
      ],
      [
        "z",
        "a"
      ],
      [
        "in",
        "strumen"
      ],
      [
        "gen",
        "d"
      ],
      [
        "et",
        "te"
      ],
      [
        "ren",
        "n"
      ],
      [
        "betra",
        "chtet"
      ],
      [
        "spa",
        "z"
      ],
      [
        "hau",
        "t"
      ],
      [
        "zw",
        "ischen"
      ],
      [
        "as",
        "s"
      ],
      [
        "gen",
        "ie"
      ],
      [
        "ko",
        "st"
      ],
      [
        "leu",
        "ten"
      ],
      [
        "blon",
        "de"
      ],
      [
        "t",
        "or"
      ],
      [
        "bau",
        "men"
      ],
      [
        "j",
        "u"
      ],
      [
        "s",
        "ki"
      ],
      [
        "bau",
        "arbeiter"
      ],
      [
        "ru",
        "cken"
      ],
      [
        "fel",
        "s"
      ],
      [
        "i",
        "ft"
      ],
      [
        "m",
        "t"
      ],
      [
        "ch",
        "er"
      ],
      [
        "schla",
        "ft"
      ],
      [
        "uch",
        "e"
      ],
      [
        "amer",
        "ikan"
      ],
      [
        "s",
        "el"
      ],
      [
        "we",
        "ste"
      ],
      [
        "f",
        "ern"
      ],
      [
        "s",
        "no"
      ],
      [
        "li",
        "la"
      ],
      [
        "f",
        "angen"
      ],
      [
        "ra",
        "sen"
      ],
      [
        "gro",
        "ßer"
      ],
      [
        "tr",
        "itt"
      ],
      [
        "f",
        "an"
      ],
      [
        "f",
        "lach"
      ],
      [
        "k",
        "uche"
      ],
      [
        "p",
        "ink"
      ],
      [
        "en",
        "a"
      ],
      [
        "han",
        "den"
      ],
      [
        "ha",
        "ben"
      ],
      [
        "leh",
        "nt"
      ],
      [
        "sno",
        "w"
      ],
      [
        "b",
        "il"
      ],
      [
        "o",
        "ut"
      ],
      [
        "imm",
        "t"
      ],
      [
        "in",
        "ter"
      ],
      [
        "sch",
        "on"
      ],
      [
        "bedeck",
        "ten"
      ],
      [
        "mit",
        "tel"
      ],
      [
        "mit",
        "einander"
      ],
      [
        "her",
        "unter"
      ],
      [
        "beoba",
        "chtet"
      ],
      [
        "klein",
        "kind"
      ],
      [
        "z",
        "o"
      ],
      [
        "ruck",
        "sack"
      ],
      [
        "ihr",
        "er"
      ],
      [
        "tan",
        "zt"
      ],
      [
        "richt",
        "ung"
      ],
      [
        "j",
        "o"
      ],
      [
        "w",
        "ur"
      ],
      [
        "ro",
        "ck"
      ],
      [
        "ko",
        "p"
      ],
      [
        "kost",
        "um"
      ],
      [
        "f",
        "am"
      ],
      [
        "ver",
        "schie"
      ],
      [
        "sch",
        "auf"
      ],
      [
        "le",
        "t"
      ],
      [
        "rei",
        "fen"
      ],
      [
        "schie",
        "bt"
      ],
      [
        "schwimm",
        "becken"
      ],
      [
        "flu",
        "g"
      ],
      [
        "pol",
        "iz"
      ],
      [
        "fam",
        "il"
      ],
      [
        "g",
        "ar"
      ],
      [
        "r",
        "ich"
      ],
      [
        "u",
        "e"
      ],
      [
        "sch",
        "ein"
      ],
      [
        "da",
        "ch"
      ],
      [
        "masch",
        "ine"
      ],
      [
        "r",
        "ie"
      ],
      [
        "s",
        "u"
      ],
      [
        "t",
        "au"
      ],
      [
        "be",
        "ton"
      ],
      [
        "la",
        "den"
      ],
      [
        "ho",
        "ckey"
      ],
      [
        "we",
        "hr"
      ],
      [
        "fr",
        "is"
      ],
      [
        "befin",
        "den"
      ],
      [
        "vo",
        "m"
      ],
      [
        "w",
        "ett"
      ],
      [
        "ung",
        "s"
      ],
      [
        "se",
        "e"
      ],
      [
        "foto",
        "graf"
      ],
      [
        "orange",
        "farben"
      ],
      [
        "ne",
        "t"
      ],
      [
        "schau",
        "kel"
      ],
      [
        "flach",
        "e"
      ],
      [
        "g",
        "u"
      ],
      [
        "k",
        "er"
      ],
      [
        "l",
        "in"
      ],
      [
        "w",
        "elle"
      ],
      [
        "st",
        "ar"
      ],
      [
        "zuschau",
        "er"
      ],
      [
        "bru",
        "cke"
      ],
      [
        "pa",
        "pier"
      ],
      [
        "ge",
        "tr"
      ],
      [
        "ink",
        "en"
      ],
      [
        "getr",
        "ank"
      ],
      [
        "n",
        "immt"
      ],
      [
        "s",
        "ol"
      ],
      [
        "um",
        "geben"
      ],
      [
        "asiat",
        "ische"
      ],
      [
        "kur",
        "zen"
      ],
      [
        "bre",
        "tt"
      ],
      [
        "gr",
        "ill"
      ],
      [
        "gel",
        "ander"
      ],
      [
        "na",
        "h"
      ],
      [
        "h",
        "il"
      ],
      [
        "an",
        "st"
      ],
      [
        "ar",
        "men"
      ],
      [
        "le",
        "gt"
      ],
      [
        "boar",
        "der"
      ],
      [
        "graf",
        "fit"
      ],
      [
        "c",
        "a"
      ],
      [
        "h",
        "ne"
      ],
      [
        "an",
        "zu"
      ],
      [
        "al",
        "ten"
      ],
      [
        "ro",
        "te"
      ],
      [
        "gel",
        "b"
      ],
      [
        "brau",
        "ne"
      ],
      [
        "of",
        "fen"
      ],
      [
        "schnei",
        "det"
      ],
      [
        "fla",
        "g"
      ],
      [
        "g",
        "i"
      ],
      [
        "i",
        "gt"
      ],
      [
        "zu",
        "r"
      ],
      [
        "ball",
        "on"
      ],
      [
        "gebau",
        "des"
      ],
      [
        "co",
        "m"
      ],
      [
        "verkauf",
        "t"
      ],
      [
        "famil",
        "ie"
      ],
      [
        "m",
        "pe"
      ],
      [
        "w",
        "en"
      ],
      [
        "ge",
        "m"
      ],
      [
        "al",
        "te"
      ],
      [
        "ger",
        "ade"
      ],
      [
        "hal",
        "b"
      ],
      [
        "bo",
        "y"
      ],
      [
        "ver",
        "anst"
      ],
      [
        "tr",
        "inkt"
      ],
      [
        "han",
        "gt"
      ],
      [
        "vol",
        "le"
      ],
      [
        "kor",
        "b"
      ],
      [
        "rosa",
        "farbenen"
      ],
      [
        "co",
        "w"
      ],
      [
        "uni",
        "form"
      ],
      [
        "versamm",
        "elt"
      ],
      [
        "jeman",
        "d"
      ],
      [
        "gel",
        "an"
      ],
      [
        "bun",
        "ten"
      ],
      [
        "n",
        "eh"
      ],
      [
        "um",
        "mer"
      ],
      [
        "aus",
        "sehen"
      ],
      [
        "ell",
        "en"
      ],
      [
        "erwachsen",
        "e"
      ],
      [
        "po",
        "ol"
      ],
      [
        "i",
        "hn"
      ],
      [
        "s",
        "au"
      ],
      [
        "bl",
        "at"
      ],
      [
        "auto",
        "s"
      ],
      [
        "veranst",
        "alt"
      ],
      [
        "d",
        "s"
      ],
      [
        "t",
        "at"
      ],
      [
        "st",
        "elle"
      ],
      [
        "de",
        "o"
      ],
      [
        "sp",
        "an"
      ],
      [
        "fahr",
        "zeug"
      ],
      [
        "ru",
        "st"
      ],
      [
        "fu",
        "ll"
      ],
      [
        "mut",
        "ter"
      ],
      [
        "spaz",
        "ieren"
      ],
      [
        "out",
        "fit"
      ],
      [
        "k",
        "us"
      ],
      [
        "rei",
        "he"
      ],
      [
        "isch",
        "es"
      ],
      [
        "schla",
        "gt"
      ],
      [
        "telefon",
        "iert"
      ],
      [
        "brun",
        "nen"
      ],
      [
        "l",
        "au"
      ],
      [
        "r",
        "and"
      ],
      [
        "er",
        "t"
      ],
      [
        "te",
        "ena"
      ],
      [
        "he",
        "bt"
      ],
      [
        "fußball",
        "spieler"
      ],
      [
        "wo",
        "hn"
      ],
      [
        "beleb",
        "ten"
      ],
      [
        "veranstalt",
        "ung"
      ],
      [
        "d",
        "u"
      ],
      [
        "k",
        "ei"
      ],
      [
        "it",
        "ten"
      ],
      [
        "ra",
        "dern"
      ],
      [
        "be",
        "e"
      ],
      [
        "na",
        "ck"
      ],
      [
        "hem",
        "den"
      ],
      [
        "we",
        "sten"
      ],
      [
        "son",
        "n"
      ],
      [
        "blick",
        "en"
      ],
      [
        "schwimm",
        "t"
      ],
      [
        "weiße",
        "s"
      ],
      [
        "com",
        "pu"
      ],
      [
        "cow",
        "boy"
      ],
      [
        "teena",
        "ger"
      ],
      [
        "ch",
        "s"
      ],
      [
        "ge",
        "wasser"
      ],
      [
        "brau",
        "t"
      ],
      [
        "far",
        "b"
      ],
      [
        "vol",
        "l"
      ],
      [
        "ke",
        "hr"
      ],
      [
        "b",
        "i"
      ],
      [
        "l",
        "ing"
      ],
      [
        "be",
        "u"
      ],
      [
        "la",
        "chen"
      ],
      [
        "imm",
        "el"
      ],
      [
        "kopf",
        "bedeck"
      ],
      [
        "ty",
        "p"
      ],
      [
        "fris",
        "bee"
      ],
      [
        "b",
        "or"
      ],
      [
        "f",
        "ol"
      ],
      [
        "f",
        "liegt"
      ],
      [
        "h",
        "immel"
      ],
      [
        "de",
        "cke"
      ],
      [
        "ho",
        "hen"
      ],
      [
        "frei",
        "em"
      ],
      [
        "schnee",
        "bedeckten"
      ],
      [
        "gekleide",
        "t"
      ],
      [
        "berei",
        "ten"
      ],
      [
        "viel",
        "en"
      ],
      [
        "ku",
        "chen"
      ],
      [
        "kom",
        "mt"
      ],
      [
        "volle",
        "y"
      ],
      [
        "g",
        "a"
      ],
      [
        "ein",
        "igen"
      ],
      [
        "or",
        "angen"
      ],
      [
        "ik",
        "um"
      ],
      [
        "grun",
        "em"
      ],
      [
        "las",
        "st"
      ],
      [
        "rust",
        "ung"
      ],
      [
        "volley",
        "ball"
      ],
      [
        "k",
        "at"
      ],
      [
        "z",
        "ig"
      ],
      [
        "bl",
        "ikum"
      ],
      [
        "hin",
        "auf"
      ],
      [
        "pu",
        "blikum"
      ],
      [
        "stu",
        "fen"
      ],
      [
        "han",
        "de"
      ],
      [
        "mu",
        "se"
      ],
      [
        "sonn",
        "igen"
      ],
      [
        "i",
        "f"
      ],
      [
        "mann",
        "schaft"
      ],
      [
        "le",
        "ben"
      ],
      [
        "be",
        "fest"
      ],
      [
        "gr",
        "ei"
      ],
      [
        "ba",
        "ck"
      ],
      [
        "lauf",
        "er"
      ],
      [
        "gestrei",
        "f"
      ],
      [
        "schr",
        "ift"
      ],
      [
        "zo",
        "gen"
      ],
      [
        "q",
        "u"
      ],
      [
        "s",
        "et"
      ],
      [
        "t",
        "ei"
      ],
      [
        "st",
        "ik"
      ],
      [
        "aus",
        "rustung"
      ],
      [
        "tra",
        "in"
      ],
      [
        "je",
        "kt"
      ],
      [
        "kampf",
        "en"
      ],
      [
        "a",
        "k"
      ],
      [
        "e",
        "cke"
      ],
      [
        "sch",
        "ur"
      ],
      [
        "re",
        "par"
      ],
      [
        "dunkl",
        "en"
      ],
      [
        "s",
        "an"
      ],
      [
        "u",
        "fer"
      ],
      [
        "w",
        "ander"
      ],
      [
        "ra",
        "s"
      ],
      [
        "la",
        "ster"
      ],
      [
        "blau",
        "e"
      ],
      [
        "berei",
        "t"
      ],
      [
        "tre",
        "ten"
      ],
      [
        "mu",
        "ll"
      ],
      [
        "off",
        "ent"
      ],
      [
        "a",
        "te"
      ],
      [
        "f",
        "isch"
      ],
      [
        "au",
        "gen"
      ],
      [
        "st",
        "ange"
      ],
      [
        "te",
        "ten"
      ],
      [
        "spiel",
        "platz"
      ],
      [
        "hal",
        "s"
      ],
      [
        "tr",
        "ick"
      ],
      [
        "berei",
        "ch"
      ],
      [
        "asiat",
        "ischer"
      ],
      [
        "zeit",
        "ung"
      ],
      [
        "vo",
        "gel"
      ],
      [
        "fre",
        "und"
      ],
      [
        "graffit",
        "i"
      ],
      [
        "kopfbedeck",
        "ung"
      ],
      [
        "b",
        "ier"
      ],
      [
        "k",
        "r"
      ],
      [
        "mit",
        "t"
      ],
      [
        "zu",
        "schauen"
      ],
      [
        "unter",
        "halt"
      ],
      [
        "schla",
        "ger"
      ],
      [
        "blon",
        "des"
      ],
      [
        "a",
        "ter"
      ],
      [
        "an",
        "gel"
      ],
      [
        "sch",
        "al"
      ],
      [
        "mann",
        "es"
      ],
      [
        "ma",
        "t"
      ],
      [
        "her",
        "r"
      ],
      [
        "kunst",
        "ler"
      ],
      [
        "zie",
        "gel"
      ],
      [
        "uberquer",
        "en"
      ],
      [
        "compu",
        "ter"
      ],
      [
        "mitt",
        "ler"
      ],
      [
        "w",
        "inter"
      ],
      [
        "au",
        "ch"
      ],
      [
        "ju",
        "gend"
      ],
      [
        "zig",
        "ar"
      ],
      [
        "f",
        "ei"
      ],
      [
        "s",
        "mittel"
      ],
      [
        "ra",
        "mpe"
      ],
      [
        "men",
        "sch"
      ],
      [
        "haar",
        "iger"
      ],
      [
        "fuhr",
        "en"
      ],
      [
        "kunst",
        "stuck"
      ],
      [
        "vi",
        "o"
      ],
      [
        "z",
        "elt"
      ],
      [
        "be",
        "tt"
      ],
      [
        "da",
        "von"
      ],
      [
        "kar",
        "ierten"
      ],
      [
        "stat",
        "ue"
      ],
      [
        "m",
        "as"
      ],
      [
        "s",
        "il"
      ],
      [
        "se",
        "chs"
      ],
      [
        "ver",
        "schnei"
      ],
      [
        "roll",
        "er"
      ],
      [
        "dunkel",
        "haut"
      ],
      [
        "genie",
        "ßt"
      ],
      [
        "verschie",
        "den"
      ],
      [
        "m",
        "und"
      ],
      [
        "mit",
        "te"
      ],
      [
        "sp",
        "re"
      ],
      [
        "die",
        "s"
      ],
      [
        "be",
        "g"
      ],
      [
        "feuer",
        "wehr"
      ],
      [
        "zuschau",
        "ern"
      ],
      [
        "stre",
        "cke"
      ],
      [
        "neh",
        "men"
      ],
      [
        "mittler",
        "en"
      ],
      [
        "g",
        "ner"
      ],
      [
        "er",
        "en"
      ],
      [
        "la",
        "cht"
      ],
      [
        "vor",
        "der"
      ],
      [
        "gel",
        "ber"
      ],
      [
        "pf",
        "ad"
      ],
      [
        "alter",
        "s"
      ],
      [
        "tan",
        "z"
      ],
      [
        "gar",
        "ten"
      ],
      [
        "gi",
        "bt"
      ],
      [
        "b",
        "ik"
      ],
      [
        "ein",
        "sam"
      ],
      [
        "st",
        "rei"
      ],
      [
        "sch",
        "o"
      ],
      [
        "ben",
        "utzt"
      ],
      [
        "spr",
        "itz"
      ],
      [
        "fot",
        "os"
      ],
      [
        "gegen",
        "stand"
      ],
      [
        "stuh",
        "len"
      ],
      [
        "n",
        "ummer"
      ],
      [
        "s",
        "of"
      ],
      [
        "an",
        "c"
      ],
      [
        "sch",
        "us"
      ],
      [
        "arbei",
        "t"
      ],
      [
        "große",
        "s"
      ],
      [
        "baseball",
        "spieler"
      ],
      [
        "glei",
        "ch"
      ],
      [
        "rut",
        "sche"
      ],
      [
        "einkauf",
        "s"
      ],
      [
        "b",
        "el"
      ],
      [
        "s",
        "kop"
      ],
      [
        "au",
        "ßer"
      ],
      [
        "wei",
        "h"
      ],
      [
        "tr",
        "inken"
      ],
      [
        "gan",
        "ger"
      ],
      [
        "musik",
        "er"
      ],
      [
        "ob",
        "st"
      ],
      [
        "rie",
        "s"
      ],
      [
        "b",
        "is"
      ],
      [
        "d",
        "ra"
      ],
      [
        "f",
        "fe"
      ],
      [
        "p",
        "el"
      ],
      [
        "p",
        "hon"
      ],
      [
        "ch",
        "ter"
      ],
      [
        "zu",
        "sieht"
      ],
      [
        "bl",
        "o"
      ],
      [
        "han",
        "g"
      ],
      [
        "kur",
        "z"
      ],
      [
        "stell",
        "t"
      ],
      [
        "leben",
        "smittel"
      ],
      [
        "a",
        "ben"
      ],
      [
        "s",
        "k"
      ],
      [
        "w",
        "und"
      ],
      [
        "st",
        "ro"
      ],
      [
        "sch",
        "ut"
      ],
      [
        "auf",
        "en"
      ],
      [
        "im",
        "men"
      ],
      [
        "zu",
        "schaut"
      ],
      [
        "zu",
        "sehen"
      ],
      [
        "pf",
        "en"
      ],
      [
        "neben",
        "einander"
      ],
      [
        "fuß",
        "ganger"
      ],
      [
        "schla",
        "gen"
      ],
      [
        "son",
        "ne"
      ],
      [
        "stu",
        "men"
      ],
      [
        "hel",
        "men"
      ],
      [
        "sur",
        "fer"
      ],
      [
        "schein",
        "t"
      ],
      [
        "sof",
        "a"
      ],
      [
        "k",
        "rei"
      ],
      [
        "n",
        "icht"
      ],
      [
        "sch",
        "ei"
      ],
      [
        "ge",
        "muse"
      ],
      [
        "de",
        "ckt"
      ],
      [
        "pf",
        "lan"
      ],
      [
        "pf",
        "laster"
      ],
      [
        "ko",
        "stumen"
      ],
      [
        "d",
        "re"
      ],
      [
        "t",
        "he"
      ],
      [
        "ei",
        "mer"
      ],
      [
        "st",
        "an"
      ],
      [
        "fel",
        "n"
      ],
      [
        "ka",
        "ppe"
      ],
      [
        "ige",
        "s"
      ],
      [
        "ig",
        "kei"
      ],
      [
        "ku",
        "l"
      ],
      [
        "geb",
        "iet"
      ],
      [
        "kn",
        "iet"
      ],
      [
        "a",
        "fr"
      ],
      [
        "u",
        "chen"
      ],
      [
        "it",
        "ion"
      ],
      [
        "ro",
        "tes"
      ],
      [
        "hin",
        "ten"
      ],
      [
        "vers",
        "uchen"
      ],
      [
        "war",
        "en"
      ],
      [
        "tur",
        "n"
      ],
      [
        "kom",
        "men"
      ],
      [
        "trikot",
        "s"
      ],
      [
        "dr",
        "eh"
      ],
      [
        "anzu",
        "gen"
      ],
      [
        "zigar",
        "ette"
      ],
      [
        "s",
        "al"
      ],
      [
        "sp",
        "ie"
      ],
      [
        "mehrer",
        "en"
      ],
      [
        "schuh",
        "e"
      ],
      [
        "beoba",
        "chten"
      ],
      [
        "bi",
        "kin"
      ],
      [
        "vio",
        "let"
      ],
      [
        "g",
        "s"
      ],
      [
        "k",
        "re"
      ],
      [
        "t",
        "u"
      ],
      [
        "w",
        "ol"
      ],
      [
        "es",
        "s"
      ],
      [
        "bo",
        "w"
      ],
      [
        "farben",
        "fro"
      ],
      [
        "wer",
        "fen"
      ],
      [
        "fan",
        "gt"
      ],
      [
        "schur",
        "ze"
      ],
      [
        "f",
        "lo"
      ],
      [
        "t",
        "uch"
      ],
      [
        "u",
        "hr"
      ],
      [
        "rau",
        "cht"
      ],
      [
        "bei",
        "de"
      ],
      [
        "gel",
        "d"
      ],
      [
        "farben",
        "er"
      ],
      [
        "kon",
        "zer"
      ],
      [
        "tennis",
        "ball"
      ],
      [
        "flag",
        "ge"
      ],
      [
        "offent",
        "lichen"
      ],
      [
        "afr",
        "ikan"
      ],
      [
        "b",
        "eh"
      ],
      [
        "m",
        "m"
      ],
      [
        "w",
        "anderer"
      ],
      [
        "z",
        "ent"
      ],
      [
        "bl",
        "a"
      ],
      [
        "ne",
        "tz"
      ],
      [
        "um",
        "m"
      ],
      [
        "wer",
        "b"
      ],
      [
        "hu",
        "ten"
      ],
      [
        "lei",
        "ter"
      ],
      [
        "fer",
        "ne"
      ],
      [
        "fla",
        "sche"
      ],
      [
        "betra",
        "chten"
      ],
      [
        "rut",
        "scht"
      ],
      [
        "verschnei",
        "ten"
      ],
      [
        "weih",
        "nachts"
      ],
      [
        "a",
        "fro"
      ],
      [
        "r",
        "t"
      ],
      [
        "st",
        "ie"
      ],
      [
        "ge",
        "gner"
      ],
      [
        "bl",
        "ich"
      ],
      [
        "la",
        "st"
      ],
      [
        "re",
        "den"
      ],
      [
        "geh",
        "steig"
      ],
      [
        "aus",
        "gest"
      ],
      [
        "grun",
        "er"
      ],
      [
        "to",
        "p"
      ],
      [
        "for",
        "men"
      ],
      [
        "kletter",
        "n"
      ],
      [
        "blas",
        "en"
      ],
      [
        "konzer",
        "t"
      ],
      [
        "c",
        "kl"
      ],
      [
        "u",
        "st"
      ],
      [
        "v",
        "e"
      ],
      [
        "w",
        "at"
      ],
      [
        "die",
        "se"
      ],
      [
        "hal",
        "le"
      ],
      [
        "ger",
        "at"
      ],
      [
        "blon",
        "den"
      ],
      [
        "geb",
        "ung"
      ],
      [
        "erwachsen",
        "er"
      ],
      [
        "fol",
        "gt"
      ],
      [
        "w",
        "ein"
      ],
      [
        "un",
        "ten"
      ],
      [
        "ar",
        "me"
      ],
      [
        "al",
        "en"
      ],
      [
        "men",
        "t"
      ],
      [
        "leu",
        "chten"
      ],
      [
        "lich",
        "t"
      ],
      [
        "zei",
        "ch"
      ],
      [
        "zie",
        "hen"
      ],
      [
        "sur",
        "f"
      ],
      [
        "bart",
        "iger"
      ],
      [
        "instrumen",
        "t"
      ],
      [
        "snow",
        "boarder"
      ],
      [
        "befest",
        "ig"
      ],
      [
        "außer",
        "halb"
      ],
      [
        "v",
        "ater"
      ],
      [
        "w",
        "n"
      ],
      [
        "un",
        "ge"
      ],
      [
        "wei",
        "ter"
      ],
      [
        "le",
        "sen"
      ],
      [
        "klei",
        "dern"
      ],
      [
        "ver",
        "kehr"
      ],
      [
        "unter",
        "gang"
      ],
      [
        "das",
        "s"
      ],
      [
        "is",
        "sen"
      ],
      [
        "han",
        "gen"
      ],
      [
        "basketball",
        "spieler"
      ],
      [
        "schrei",
        "bt"
      ],
      [
        "snow",
        "board"
      ],
      [
        "grei",
        "ft"
      ],
      [
        "spie",
        "gel"
      ],
      [
        "bikin",
        "i"
      ],
      [
        "h",
        "nen"
      ],
      [
        "p",
        "en"
      ],
      [
        "s",
        "we"
      ],
      [
        "s",
        "ucht"
      ],
      [
        "w",
        "an"
      ],
      [
        "mann",
        "liche"
      ],
      [
        "kl",
        "assen"
      ],
      [
        "schw",
        "immen"
      ],
      [
        "ger",
        "ust"
      ],
      [
        "blau",
        "es"
      ],
      [
        "bo",
        "x"
      ],
      [
        "lan",
        "ge"
      ],
      [
        "da",
        "men"
      ],
      [
        "des",
        "sen"
      ],
      [
        "pla",
        "stik"
      ],
      [
        "sonnen",
        "untergang"
      ],
      [
        "geschaft",
        "s"
      ],
      [
        "sur",
        "ft"
      ],
      [
        "ski",
        "fahrer"
      ],
      [
        "poliz",
        "ist"
      ],
      [
        "bow",
        "ling"
      ],
      [
        "a",
        "ten"
      ],
      [
        "b",
        "an"
      ],
      [
        "en",
        "de"
      ],
      [
        "ch",
        "in"
      ],
      [
        "sch",
        "at"
      ],
      [
        "auf",
        "schrift"
      ],
      [
        "on",
        "g"
      ],
      [
        "zu",
        "ruck"
      ],
      [
        "her",
        "aus"
      ],
      [
        "ka",
        "pu"
      ],
      [
        "tan",
        "zer"
      ],
      [
        "uni",
        "formen"
      ],
      [
        "gelbe",
        "m"
      ],
      [
        "fotograf",
        "iert"
      ],
      [
        "hil",
        "ft"
      ],
      [
        "ca",
        "fe"
      ],
      [
        "zent",
        "r"
      ],
      [
        "t",
        "ie"
      ],
      [
        "z",
        "iel"
      ],
      [
        "st",
        "amm"
      ],
      [
        "bei",
        "den"
      ],
      [
        "at",
        "shirt"
      ],
      [
        "kt",
        "ion"
      ],
      [
        "bar",
        "fuß"
      ],
      [
        "stadt",
        "ischen"
      ],
      [
        "kampf",
        "sport"
      ],
      [
        "jo",
        "g"
      ],
      [
        "gu",
        "ckt"
      ],
      [
        "beu",
        "gt"
      ],
      [
        "afro",
        "amerikan"
      ],
      [
        "swe",
        "atshirt"
      ],
      [
        "h",
        "ort"
      ],
      [
        "m",
        "il"
      ],
      [
        "t",
        "ier"
      ],
      [
        "un",
        "befestig"
      ],
      [
        "al",
        "le"
      ],
      [
        "ka",
        "ja"
      ],
      [
        "scha",
        "ften"
      ],
      [
        "haar",
        "e"
      ],
      [
        "hoch",
        "zeit"
      ],
      [
        "mu",
        "ster"
      ],
      [
        "uberquer",
        "t"
      ],
      [
        "schon",
        "en"
      ],
      [
        "poliz",
        "isten"
      ],
      [
        "if",
        "f"
      ],
      [
        "spre",
        "chen"
      ],
      [
        "kaja",
        "k"
      ],
      [
        "h",
        "aufen"
      ],
      [
        "l",
        "t"
      ],
      [
        "p",
        "ft"
      ],
      [
        "st",
        "off"
      ],
      [
        "kl",
        "a"
      ],
      [
        "um",
        "gebung"
      ],
      [
        "bo",
        "o"
      ],
      [
        "wa",
        "sch"
      ],
      [
        "hand",
        "schuhen"
      ],
      [
        "ja",
        "cken"
      ],
      [
        "ta",
        "schen"
      ],
      [
        "schla",
        "fen"
      ],
      [
        "gegen",
        "d"
      ],
      [
        "erwachsen",
        "en"
      ],
      [
        "versamm",
        "eln"
      ],
      [
        "stre",
        "ckt"
      ],
      [
        "schm",
        "utz"
      ],
      [
        "flug",
        "zeug"
      ],
      [
        "nack",
        "tem"
      ],
      [
        "f",
        "fen"
      ],
      [
        "l",
        "eine"
      ],
      [
        "o",
        "hr"
      ],
      [
        "p",
        "ad"
      ],
      [
        "ein",
        "ge"
      ],
      [
        "er",
        "le"
      ],
      [
        "wei",
        "blich"
      ],
      [
        "sich",
        "er"
      ],
      [
        "bo",
        "gen"
      ],
      [
        "da",
        "ten"
      ],
      [
        "blon",
        "der"
      ],
      [
        "schu",
        "ler"
      ],
      [
        "fall",
        "en"
      ],
      [
        "land",
        "schaft"
      ],
      [
        "gestreif",
        "tem"
      ],
      [
        "sil",
        "ber"
      ],
      [
        "ckl",
        "ich"
      ],
      [
        "d",
        "ition"
      ],
      [
        "l",
        "k"
      ],
      [
        "m",
        "in"
      ],
      [
        "n",
        "ick"
      ],
      [
        "s",
        "ingen"
      ],
      [
        "w",
        "el"
      ],
      [
        "w",
        "ellen"
      ],
      [
        "le",
        "eren"
      ],
      [
        "ho",
        "he"
      ],
      [
        "lu",
        "cklich"
      ],
      [
        "arbei",
        "ts"
      ],
      [
        "kopf",
        "hor"
      ],
      [
        "luft",
        "ballon"
      ],
      [
        "ab",
        "ge"
      ],
      [
        "fin",
        "ger"
      ],
      [
        "asiat",
        "ischen"
      ],
      [
        "pa",
        "ck"
      ],
      [
        "schl",
        "amm"
      ],
      [
        "schl",
        "auch"
      ],
      [
        "sol",
        "daten"
      ],
      [
        "e",
        "ben"
      ],
      [
        "g",
        "ei"
      ],
      [
        "k",
        "uh"
      ],
      [
        "l",
        "le"
      ],
      [
        "n",
        "as"
      ],
      [
        "p",
        "an"
      ],
      [
        "p",
        "lan"
      ],
      [
        "s",
        "ers"
      ],
      [
        "ro",
        "deo"
      ],
      [
        "le",
        "der"
      ],
      [
        "at",
        "hon"
      ],
      [
        "tra",
        "dition"
      ],
      [
        "farben",
        "em"
      ],
      [
        "zei",
        "chen"
      ],
      [
        "mar",
        "athon"
      ],
      [
        "pfer",
        "de"
      ],
      [
        "las",
        "sen"
      ],
      [
        "schl",
        "os"
      ],
      [
        "bade",
        "anzug"
      ],
      [
        "genie",
        "ßen"
      ],
      [
        "c",
        "lo"
      ],
      [
        "f",
        "lie"
      ],
      [
        "i",
        "ppe"
      ],
      [
        "k",
        "ir"
      ],
      [
        "l",
        "am"
      ],
      [
        "o",
        "w"
      ],
      [
        "or",
        "en"
      ],
      [
        "le",
        "tt"
      ],
      [
        "be",
        "wachsen"
      ],
      [
        "ut",
        "zen"
      ],
      [
        "was",
        "sers"
      ],
      [
        "ent",
        "span"
      ],
      [
        "ja",
        "gt"
      ],
      [
        "par",
        "ade"
      ],
      [
        "par",
        "ty"
      ],
      [
        "ing",
        "s"
      ],
      [
        "tre",
        "ppen"
      ],
      [
        "mo",
        "bil"
      ],
      [
        "sei",
        "fen"
      ],
      [
        "mikro",
        "phon"
      ],
      [
        "gelbe",
        "s"
      ],
      [
        "schlag",
        "zeug"
      ],
      [
        "gem",
        "einsam"
      ],
      [
        "kre",
        "u"
      ],
      [
        "wat",
        "te"
      ],
      [
        "f",
        "fel"
      ],
      [
        "k",
        "au"
      ],
      [
        "l",
        "iert"
      ],
      [
        "o",
        "hne"
      ],
      [
        "p",
        "top"
      ],
      [
        "t",
        "un"
      ],
      [
        "in",
        "mitten"
      ],
      [
        "la",
        "ptop"
      ],
      [
        "ba",
        "d"
      ],
      [
        "ka",
        "ffe"
      ],
      [
        "ell",
        "er"
      ],
      [
        "gekleide",
        "ten"
      ],
      [
        "kauf",
        "en"
      ],
      [
        "schl",
        "itten"
      ],
      [
        "wo",
        "bei"
      ],
      [
        "motorrad",
        "fahrer"
      ],
      [
        "bele",
        "uch"
      ],
      [
        "schrei",
        "b"
      ],
      [
        "bal",
        "anc"
      ],
      [
        "san",
        "ger"
      ],
      [
        "mas",
        "ke"
      ],
      [
        "verschieden",
        "e"
      ],
      [
        "schei",
        "be"
      ],
      [
        "b",
        "elt"
      ],
      [
        "f",
        "lei"
      ],
      [
        "st",
        "ern"
      ],
      [
        "sch",
        "mu"
      ],
      [
        "ra",
        "der"
      ],
      [
        "be",
        "di"
      ],
      [
        "rei",
        "ten"
      ],
      [
        "schw",
        "ingt"
      ],
      [
        "re",
        "cht"
      ],
      [
        "um",
        "arm"
      ],
      [
        "aus",
        "e"
      ],
      [
        "gel",
        "n"
      ],
      [
        "schau",
        "k"
      ],
      [
        "grun",
        "e"
      ],
      [
        "lich",
        "es"
      ],
      [
        "ta",
        "in"
      ],
      [
        "braun",
        "em"
      ],
      [
        "sam",
        "m"
      ],
      [
        "park",
        "platz"
      ],
      [
        "gegen",
        "uber"
      ],
      [
        "grau",
        "em"
      ],
      [
        "amm",
        "er"
      ],
      [
        "bu",
        "ll"
      ],
      [
        "schutz",
        "helm"
      ],
      [
        "regen",
        "schirm"
      ],
      [
        "star",
        "rt"
      ],
      [
        "ries",
        "igen"
      ],
      [
        "pflan",
        "zen"
      ],
      [
        "dreh",
        "t"
      ],
      [
        "stie",
        "feln"
      ],
      [
        "mil",
        "itar"
      ],
      [
        "lk",
        "w"
      ],
      [
        "g",
        "ie"
      ],
      [
        "k",
        "unden"
      ],
      [
        "n",
        "u"
      ],
      [
        "p",
        "un"
      ],
      [
        "p",
        "ru"
      ],
      [
        "p",
        "ass"
      ],
      [
        "ch",
        "te"
      ],
      [
        "ber",
        "gen"
      ],
      [
        "ber",
        "uhr"
      ],
      [
        "schwarz",
        "es"
      ],
      [
        "ander",
        "es"
      ],
      [
        "ver",
        "kleide"
      ],
      [
        "kinder",
        "wagen"
      ],
      [
        "alter",
        "en"
      ],
      [
        "sa",
        "chen"
      ],
      [
        "to",
        "ur"
      ],
      [
        "gebau",
        "den"
      ],
      [
        "shirt",
        "s"
      ],
      [
        "lo",
        "ch"
      ],
      [
        "so",
        "hn"
      ],
      [
        "tro",
        "mm"
      ],
      [
        "rich",
        "ter"
      ],
      [
        "lin",
        "ie"
      ],
      [
        "gelan",
        "de"
      ],
      [
        "tat",
        "ow"
      ],
      [
        "wund",
        "er"
      ],
      [
        "clo",
        "wn"
      ],
      [
        "a",
        "ch"
      ],
      [
        "d",
        "ruck"
      ],
      [
        "m",
        "on"
      ],
      [
        "y",
        "m"
      ],
      [
        "er",
        "in"
      ],
      [
        "sp",
        "ar"
      ],
      [
        "dem",
        "otor"
      ],
      [
        "spr",
        "ing"
      ],
      [
        "bau",
        "stelle"
      ],
      [
        "grun",
        "es"
      ],
      [
        "fuhr",
        "ung"
      ],
      [
        "straßen",
        "rand"
      ],
      [
        "straßen",
        "ecke"
      ],
      [
        "lacheln",
        "d"
      ],
      [
        "schul",
        "ter"
      ],
      [
        "pink",
        "farbenen"
      ],
      [
        "offen",
        "en"
      ],
      [
        "wen",
        "det"
      ],
      [
        "gelan",
        "demotor"
      ],
      [
        "jugend",
        "licher"
      ],
      [
        "schat",
        "ten"
      ],
      [
        "kreu",
        "z"
      ],
      [
        "f",
        "ig"
      ],
      [
        "g",
        "ut"
      ],
      [
        "j",
        "ahr"
      ],
      [
        "p",
        "ause"
      ],
      [
        "“",
        "."
      ],
      [
        "st",
        "einen"
      ],
      [
        "ge",
        "pflaster"
      ],
      [
        "der",
        "t"
      ],
      [
        "die",
        "ser"
      ],
      [
        "bl",
        "um"
      ],
      [
        "ru",
        "h"
      ],
      [
        "ell",
        "t"
      ],
      [
        "stei",
        "gen"
      ],
      [
        "ha",
        "fen"
      ],
      [
        "over",
        "all"
      ],
      [
        "che",
        "erle"
      ],
      [
        "stell",
        "ung"
      ],
      [
        "gol",
        "d"
      ],
      [
        "hockey",
        "spieler"
      ],
      [
        "orangefarben",
        "er"
      ],
      [
        "scho",
        "ß"
      ],
      [
        "spritz",
        "t"
      ],
      [
        "krei",
        "s"
      ],
      [
        "pad",
        "del"
      ],
      [
        "umarm",
        "t"
      ],
      [
        "b",
        "ein"
      ],
      [
        "g",
        "lie"
      ],
      [
        "l",
        "ung"
      ],
      [
        "p",
        "tur"
      ],
      [
        "p",
        "utzt"
      ],
      [
        "t",
        "ischen"
      ],
      [
        "ei",
        "sen"
      ],
      [
        "ge",
        "zogen"
      ],
      [
        "auf",
        "nah"
      ],
      [
        "ro",
        "hr"
      ],
      [
        "be",
        "kleidung"
      ],
      [
        "ier",
        "te"
      ],
      [
        "schn",
        "ur"
      ],
      [
        "gras",
        "bewachsen"
      ],
      [
        "gan",
        "z"
      ],
      [
        "schir",
        "men"
      ],
      [
        "tennis",
        "spieler"
      ],
      [
        "kra",
        "watte"
      ],
      [
        "team",
        "s"
      ],
      [
        "za",
        "hl"
      ],
      [
        "lau",
        "b"
      ],
      [
        "back",
        "stein"
      ],
      [
        "set",
        "zt"
      ],
      [
        "dunkelhaut",
        "iger"
      ],
      [
        "kul",
        "ptur"
      ],
      [
        "chin",
        "es"
      ],
      [
        "schreib",
        "tisch"
      ],
      [
        "flei",
        "sch"
      ],
      [
        "cheerle",
        "a"
      ],
      [
        "f",
        "il"
      ],
      [
        "g",
        "lucklich"
      ],
      [
        "k",
        "ick"
      ],
      [
        "n",
        "el"
      ],
      [
        "s",
        "at"
      ],
      [
        "t",
        "rei"
      ],
      [
        "sch",
        "lange"
      ],
      [
        "mit",
        "glie"
      ],
      [
        "sp",
        "itz"
      ],
      [
        "te",
        "ll"
      ],
      [
        "ck",
        "er"
      ],
      [
        "la",
        "tz"
      ],
      [
        "ir",
        "gend"
      ],
      [
        "gro",
        "ß"
      ],
      [
        "fel",
        "l"
      ],
      [
        "schn",
        "au"
      ],
      [
        "sand",
        "alen"
      ],
      [
        "hell",
        "haut"
      ],
      [
        "ob",
        "jekt"
      ],
      [
        "wur",
        "f"
      ],
      [
        "repar",
        "iert"
      ],
      [
        "vorder",
        "grund"
      ],
      [
        "b",
        "st"
      ],
      [
        "c",
        "ro"
      ],
      [
        "g",
        "ur"
      ],
      [
        "k",
        "ten"
      ],
      [
        "au",
        "m"
      ],
      [
        "la",
        "ge"
      ],
      [
        "fahr",
        "radern"
      ],
      [
        "ko",
        "ch"
      ],
      [
        "ist",
        "e"
      ],
      [
        "schla",
        "f"
      ],
      [
        "fahrrad",
        "fahrer"
      ],
      [
        "ank",
        "en"
      ],
      [
        "gekleide",
        "tes"
      ],
      [
        "gegen",
        "einander"
      ],
      [
        "vol",
        "len"
      ],
      [
        "schie",
        "ds"
      ],
      [
        "kur",
        "zer"
      ],
      [
        "verkauf",
        "en"
      ],
      [
        "verkauf",
        "er"
      ],
      [
        "stat",
        "t"
      ],
      [
        "football",
        "spieler"
      ],
      [
        "gew",
        "or"
      ],
      [
        "vi",
        "deo"
      ],
      [
        "full",
        "ten"
      ],
      [
        "schus",
        "sel"
      ],
      [
        "einkaufs",
        "wagen"
      ],
      [
        "c",
        "e"
      ],
      [
        "f",
        "liegen"
      ],
      [
        "n",
        "ie"
      ],
      [
        "er",
        "de"
      ],
      [
        "sch",
        "il"
      ],
      [
        "auf",
        "ger"
      ],
      [
        "de",
        "on"
      ],
      [
        "or",
        "i"
      ],
      [
        "kl",
        "ippe"
      ],
      [
        "be",
        "deckt"
      ],
      [
        "at",
        "ur"
      ],
      [
        "ange",
        "zogen"
      ],
      [
        "asiat",
        "isches"
      ],
      [
        "pfer",
        "den"
      ],
      [
        "lacheln",
        "de"
      ],
      [
        "kom",
        "p"
      ],
      [
        "jeman",
        "dem"
      ],
      [
        "bik",
        "e"
      ],
      [
        "schut",
        "tel"
      ],
      [
        "last",
        "wagen"
      ],
      [
        "schlos",
        "sen"
      ],
      [
        "balanc",
        "iert"
      ],
      [
        "schieds",
        "richter"
      ],
      [
        "f",
        "le"
      ],
      [
        "j",
        "ong"
      ],
      [
        "k",
        "al"
      ],
      [
        "n",
        "ung"
      ],
      [
        "r",
        "ein"
      ],
      [
        "w",
        "u"
      ],
      [
        "w",
        "inkt"
      ],
      [
        "pp",
        "ich"
      ],
      [
        "tra",
        "ger"
      ],
      [
        "hin",
        "dern"
      ],
      [
        "he",
        "ben"
      ],
      [
        "kor",
        "deon"
      ],
      [
        "rot",
        "haarige"
      ],
      [
        "fr",
        "isch"
      ],
      [
        "pro",
        "jekt"
      ],
      [
        "bu",
        "ro"
      ],
      [
        "fall",
        "t"
      ],
      [
        "stell",
        "en"
      ],
      [
        "bade",
        "hose"
      ],
      [
        "kan",
        "u"
      ],
      [
        "schauf",
        "el"
      ],
      [
        "kus",
        "st"
      ],
      [
        "ak",
        "kordeon"
      ],
      [
        "weiblich",
        "e"
      ],
      [
        "mobil",
        "telefon"
      ],
      [
        "aufnah",
        "me"
      ],
      [
        "f",
        "ischer"
      ],
      [
        "k",
        "ha"
      ],
      [
        "l",
        "ink"
      ],
      [
        "p",
        "ick"
      ],
      [
        "be",
        "we"
      ],
      [
        "ne",
        "u"
      ],
      [
        "schw",
        "e"
      ],
      [
        "wa",
        "sche"
      ],
      [
        "weg",
        "s"
      ],
      [
        "ige",
        "m"
      ],
      [
        "schn",
        "ell"
      ],
      [
        "stad",
        "ion"
      ],
      [
        "tan",
        "kt"
      ],
      [
        "mar",
        "sch"
      ],
      [
        "lo",
        "ck"
      ],
      [
        "ku",
        "gel"
      ],
      [
        "hell",
        "brauner"
      ],
      [
        "mikro",
        "skop"
      ],
      [
        "hei",
        "ts"
      ],
      [
        "fels",
        "wand"
      ],
      [
        "wett",
        "kampf"
      ],
      [
        "orangefarben",
        "em"
      ],
      [
        "hil",
        "fe"
      ],
      [
        "blat",
        "t"
      ],
      [
        "kus",
        "sen"
      ],
      [
        "hals",
        "band"
      ],
      [
        "surf",
        "brett"
      ],
      [
        "klassen",
        "zimmer"
      ],
      [
        "kapu",
        "zen"
      ],
      [
        "gewor",
        "fen"
      ],
      [
        "b",
        "ie"
      ],
      [
        "b",
        "einen"
      ],
      [
        "g",
        "o"
      ],
      [
        "k",
        "it"
      ],
      [
        "p",
        "s"
      ],
      [
        "s",
        "zen"
      ],
      [
        "au",
        "ßen"
      ],
      [
        "st",
        "eine"
      ],
      [
        "te",
        "ppich"
      ],
      [
        "ma",
        "hl"
      ],
      [
        "rei",
        "ter"
      ],
      [
        "la",
        "t"
      ],
      [
        "bau",
        "me"
      ],
      [
        "da",
        "vor"
      ],
      [
        "zei",
        "gen"
      ],
      [
        "oberteil",
        "en"
      ],
      [
        "stu",
        "den"
      ],
      [
        "bar",
        "en"
      ],
      [
        "hol",
        "t"
      ],
      [
        "gesicht",
        "s"
      ],
      [
        "glei",
        "tet"
      ],
      [
        "kan",
        "n"
      ],
      [
        "beleb",
        "te"
      ],
      [
        "gol",
        "f"
      ],
      [
        "schauf",
        "en"
      ],
      [
        "ausgest",
        "re"
      ],
      [
        "unbefestig",
        "ten"
      ],
      [
        "tankt",
        "op"
      ],
      [
        "a",
        "g"
      ],
      [
        "f",
        "ru"
      ],
      [
        "o",
        "sten"
      ],
      [
        "s",
        "eines"
      ],
      [
        "ein",
        "gang"
      ],
      [
        "st",
        "ur"
      ],
      [
        "st",
        "ir"
      ],
      [
        "sp",
        "er"
      ],
      [
        "spiel",
        "feld"
      ],
      [
        "re",
        "det"
      ],
      [
        "ho",
        "w"
      ],
      [
        "pp",
        "t"
      ],
      [
        "ut",
        "ze"
      ],
      [
        "aus",
        "sieht"
      ],
      [
        "tra",
        "m"
      ],
      [
        "isch",
        "t"
      ],
      [
        "durch",
        "s"
      ],
      [
        "to",
        "chter"
      ],
      [
        "lei",
        "cht"
      ],
      [
        "fer",
        "t"
      ],
      [
        "stei",
        "gt"
      ],
      [
        "fußball",
        "spiel"
      ],
      [
        "skate",
        "boarder"
      ],
      [
        "haus",
        "es"
      ],
      [
        "spa",
        "ß"
      ],
      [
        "blat",
        "ter"
      ],
      [
        "fei",
        "er"
      ],
      [
        "leuchten",
        "d"
      ],
      [
        "seifen",
        "blasen"
      ],
      [
        "stir",
        "n"
      ],
      [
        "e",
        "x"
      ],
      [
        "m",
        "ot"
      ],
      [
        "s",
        "kulptur"
      ],
      [
        "t",
        "asse"
      ],
      [
        "w",
        "ind"
      ],
      [
        "z",
        "el"
      ],
      [
        "un",
        "tain"
      ],
      [
        "be",
        "kleide"
      ],
      [
        "hund",
        "en"
      ],
      [
        "ft",
        "uch"
      ],
      [
        "ko",
        "cht"
      ],
      [
        "tr",
        "an"
      ],
      [
        "ell",
        "o"
      ],
      [
        "par",
        "kt"
      ],
      [
        "hu",
        "b"
      ],
      [
        "ska",
        "ter"
      ],
      [
        "asiat",
        "isch"
      ],
      [
        "mo",
        "untain"
      ],
      [
        "bild",
        "schirm"
      ],
      [
        "off",
        "net"
      ],
      [
        "stat",
        "ion"
      ],
      [
        "kop",
        "ftuch"
      ],
      [
        "verschie",
        "denen"
      ],
      [
        "su",
        "chen"
      ],
      [
        "kr",
        "anken"
      ],
      [
        "schmu",
        "ck"
      ],
      [
        "cheerlea",
        "der"
      ],
      [
        "schnau",
[...]
